#version: 0.2
e n
e r
Ġ d
č Ċ
o a
Ġ n
a i
Ġ w
a n
Ġ v
i e
Ġ m
Ġ t
Ġ o
Ġ h
Ġ z
Ġ k
s t
i n
Ġ b
e l
e u
Ġ a
c h
Ġ g
a t
o u
Ġ en
oa r
Ġ i
eu r
Ġ l
â Ģ
e g
a a
e t
i t
Ġ s
o r
Ġv an
o n
i j
i en
Ġd e
ai t
d e
o m
e er
Ġo p
d er
ch t
e k
ai n
j e
d en
Ġ st
Ġ in
o l
Ġ p
Ġd at
g en
o k
Ġm it
Ġa an
o e
aa r
a s
Ġn ait
Ġ r
Ġ j
o g
v en
Ġ e
Ġd er
k en
Ġi s
Ġv er
e e
a an
o t
Ġv eur
Ġt e
i l
u u
Ġw as
o p
v er
Ġi k
l e
u n
Ġd ij
n en
k e
a l
a r
e b
âĢ Ļ
i k
Ġh eur
Ġw at
oa l
oa t
Ġs ch
Ġm or
. .
Ġb ie
Ġi en
Ġ W
z en
Ġh ai
Ġz o
Ġo m
Ġz e
Ġ G
Ġ H
Ġn og
Ġa s
Ġ D
a m
Ġz ien
Ġo n
a ai
ie d
Ġ âĢ
Ġw el
Ġm ie
Ġn oar
Ġv r
oa n
a g
Ġo ok
Ġa l
Ã ¶
âĢ Ŀ
Ġb e
t en
u i
u w
Ġg e
Ġo f
m en
Ġo et
a k
ie k
aa uw
o o
Ġ B
Ġ S
u l
Ġh aar
Ġg r
Ġw eer
l en
Ġ M
i cht
r e
i er
Ġw ie
t je
Ġo ver
in nen
s ch
in g
t e
Ġm ien
Ġ K
Ġa al
st er
Ġd eur
Ġd oar
Ġw e
Ġh eb
z e
Ġ V
Ġh om
st e
eg en
r ie
g e
t er
a d
Ġb l
el d
E n
Ġl e
ou d
Ġk om
Ġ f
I k
Ġ J
Ġ ain
Ġd ou
Ġ A
Ġh et
p en
.. .
o or
el k
Ã¶ r
Ġm o
er s
Ġk w
e m
uu r
Ġk l
oe s
Ġg ain
Ġb o
oa k
a cht
u s
Ġd r
Ġ N
Ġk in
eu l
oa m
aa l
H ai
Ġm eer
Ġ O
Ġs l
Ġb innen
ie t
u k
i s
Ġz ai
Ġb r
Ġw or
Ġs p
Ġz ee
ĠâĢ ľ
Ġ Z
Ġd in
aan d
Ġ T
Ġk on
Ġ je
Ġt ou
Ġ P
an d
ĠG r
a p
Ġ ai
Ġk r
s en
on d
Ġn ou
Ã ²
Ġ '
b en
Ġj a
Ã ¨
Ġw oar
z zen
Ġ L
Ġt o
âĢ ľ
Ġon s
el s
cht er
n eg
et en
a ait
ĠâĢ ĺ
Ġg oud
Ġ I
u m
u t
Ġkw am
k er
oa g
Ġe ven
Ġz eg
ul f
s e
Ġj oar
Ġd en
n e
Ġd ie
Ġp r
Ġheb ben
uu t
i g
Ã ¬
Ġt r
Ġn oa
Ġm ou
u r
t ied
Ã¬ n
o ot
oa gen
Ġb eg
Ġw er
Ġo l
Ġ R
Ã² f
ai d
on g
i m
ar en
an g
Ġt ied
m er
Ġw il
i z
ik s
aai er
Ġl u
Ġl oat
Ġhai l
aar k
an t
D at
ĠGr un
o on
e d
Ġv ot
Ġp l
ek e
Ġa chter
Ġw ol
Ġd o
i d
Ġv eul
M or
Ġ eer
Ġk op
Ġ Ã²f
ek en
Ġt egen
Ġ E
Ġz it
Ġz ol
Ġt w
Ġh oes
f t
Ġj oe
a st
Ġ 1
Ġh ier
eg e
s ie
Ġto ch
Ġg oan
Ġv ol
Ġ (
Ġst r
Ġn iks
âĢ ĺ
e s
iz ze
d t
Ġt er
u il
je s
Ġw ait
b b
Ġn ij
k om
aan k
Ġvr aauw
oa d
ĠGrun neg
d r
o et
Ġv l
Ġm an
Ġh ou
ke s
Ġz ain
ie ken
Ġk o
. âĢĿ
an der
oor d
Ġdou n
Ġmo s
ĠS t
e st
ĠJ an
Ġl ai
Ġaan der
er en
Ġz un
v el
Ġn et
ie f
Ġon der
i st
Ġwor den
o en
s l
Ġz at
âĢĿ ,
Ġkom t
Ġkom men
s p
oo d
oal en
oa ken
Z e
m oal
Ġ 2
D e
eer d
Ġle ven
Ġd oe
ee f
Ġwe zen
Ġk er
ie s
Ġtw ij
W at
a zzen
o de
i p
Ġb in
oa s
ou g
Ġ uut
op en
Ġs n
A s
Ġg ing
in gen
Ġ F
Ġt ot
Ġk n
in k
Ġmou t
e z
Ġai s
Ġm en
o op
d ag
W ie
oat en
er t
Ġh ol
Ġ En
e ek
u g
Ġ c
Ġver t
Ġ ...
Ġst on
Ġm in
r en
h aid
Ġd izze
Ġm et
Ġr e
Ġm oo
m an
Ġg eb
ou k
el len
Ġz ulf
Ġd ag
Ġg el
Ġh aren
Ġst oan
D ou
Z ai
et je
icht en
a ain
Ġw aark
ĠI s
Ġver h
u st
o f
eer t
o og
Ġg l
Ġg aait
O p
D oar
ol d
Ġd ien
n er
z ulf
Ġs m
le s
d at
Ġd it
g el
Ġ ie
Ġz uk
h oes
Ġwor dt
ot ter
en t
oa ven
I n
Ġ Ik
ek t
Ġk innen
Ġa ar
v e
aan g
Ġs w
Ġw azzen
u d
tje s
b ie
Ġaan s
Ġd ik
Ġal l
Ġb et
o cht
aar m
b l
b er
o er
Ġm oal
oak t
ĠD e
. '
D ij
Ġge d
p er
o d
ou l
Ġbeg un
Ġl ig
aa s
Ġzit ten
ĠW as
der s
Ġai gen
ĠS ch
Ġmo eke
Ġk rie
o s
Ġ C
Ġj ong
uu ster
Ġhai le
st en
Ġk ieken
Ġf iet
a f
el n
ek er
b r
Ġb el
Ġk eek
acht en
Ġb en
Ġk re
en k
Ġbe st
D er
Ġd ai
Ġaal tied
Ġsch ier
Ġwe st
Ġloat er
Ġgr ode
Ġde e
Ġge w
Ġg en
ee s
l iek
g r
l u
ĠW il
Ġz et
oam er
. âĢĻ
el de
Ġkre eg
Ġm oaken
Ġz el
u ik
Ġv oak
ĠGrunneg er
Ġzeg gen
l ek
o el
Ġp oar
l eg
ij n
uu s
v r
gen s
aa g
Ġz w
op t
Ġvr oug
eu g
Ġzeg t
z ie
Ġm e
aai den
Ġw icht
Ġo gen
Ġmoo i
Ã ©
Ġw aren
Ġge z
ain en
b oar
Ġ -
Ġ el
Ġbe d
Ġge v
Ġh ar
oo it
Ġbo ven
Ġwait en
b e
Ġp a
ak ken
N ou
Ġa p
eer n
i r
Ġdo cht
Ġv uil
aan t
ĠH ai
Ġm oar
st r
Ġst aait
or en
ie den
Ġj on
Ġw eg
Z o
Ġo k
ĠK l
Ġgr oot
Ġop en
Ġnij e
Ġsch rie
m e
d eg
Ġwie der
Ġst il
Ġz ok
Ã¨ l
Ġbo eten
v v
? âĢĿ
re den
Ġsl im
ik t
Ġ2 0
oaven d
p l
Ġh em
ek oar
, '
Ġz ag
aai de
Ġd icht
ui p
Ġn ooit
ur en
o b
ou n
Ġl aand
Ġw ant
Ġ er
ul t
Ġv on
e p
M ien
ĠâĢ ĵ
J oa
d el
Ġ uur
on der
aal f
Ġbl ie
Ġj oen
Ġdik ke
Ġm oakt
Ġmou ten
ai f
oor den
an k
M it
p el
in der
ui g
Ġwer eld
ut o
ek ker
Ã¶r p
Ġr ond
Ġain s
e f
us sen
Ġain e
ar t
? '
Ġn eu
Ġdr ij
Ġh ad
Ġl aank
Ġp er
Ġver d
t r
s w
Ġ elk
ĠG eert
ĠV er
ĠO p
Ã¶r gen
Ġsch r
Ġm ekoar
Ġkrie gen
um mer
u it
Ġl open
n ij
oar en
Ġe en
Ġw otter
am p
om en
Ġn iet
n s
s ke
Ġd us
Ġverh oal
ok ken
u bb
W oar
Ġd oan
ĠI n
oa der
Ġ eten
rie s
l and
in d
Ġver g
Ġloat en
ĠH eb
Ġkin der
b el
k l
v eul
Ã¨ n
H ou
Ġn oam
h ol
Ġbe etje
Ġbe z
oa st
Ġh aand
Ġsp r
! âĢĿ
Ġlai f
un der
V eur
o ek
a gen
om m
oa vel
eu n
Ġko vv
k t
sch op
u ster
Ġver l
ot en
al en
Ġle ste
t eg
Ġd ut
i sch
Ġd Ã¶rp
? âĢĻ
Ġjoar en
Ġl ang
Ġon t
Ġg aauw
Ġst ee
Ġh el
Ġeer st
an den
Ġzun der
ĠB l
T om
Ġw ui
Ã¶ t
sp r
Ġal les
Ġweer om
i ft
oa p
Ġb ek
d oag
aan de
i c
Ġl eu
e der
ai l
om p
Ġk iek
oe zen
Ġbeg on
Ġkr egen
i a
ie l
h e
Ġd ood
j oar
Ġk eer
Ġn k
an s
Ġa le
Ġp ak
u cht
Ġl eg
Ġbe w
aauw en
I en
eu ze
ee m
oat er
Ġge ven
sch ain
d eur
Ġr o
i ch
Ġ1 9
ĠK r
Ġvr oag
ol en
ĠD at
aai d
Ġkl aain
Ġver k
âĢĻ ,
o st
Ġkovv ie
Ġl ag
Ġpr oaten
ĠW at
v eld
Ġwil len
u in
el t
ien en
Ġkl oar
ĠH enk
aa st
ee st
! '
Ġl aang
Ġt ussen
ui s
o v
Ġm ag
Ġb ouk
kom men
ĠSt ad
Ġto en
Ġdr ok
Ġt oal
Ġl icht
Ã¨ r
liek s
an e
Ġgen og
_ _
Ġvan zulf
ez iek
Ġw aarm
k r
oa den
eur en
aar ken
Ġver b
Ġhem men
Ġv in
ĠA s
S t
Ġbet er
aar t
ee p
ink el
ui ken
ĠB ert
Ġeer ste
Ġf l
Ġw oon
in ter
Ġl ekker
ou t
Ġver sch
ain st
Ġst uk
p r
v ol
on en
ĠV r
Ġnk ander
ĠA n
N ee
ak ker
er n
aan ge
l aand
Ġdo ch
m a
o ie
oat sie
Ġb ult
Ġa uto
Z ien
Ġg eern
Ġmo zzen
A l
V an
Ġk en
u p
il le
o om
w oar
Ġh ond
an ne
Ġt hoes
Ġ U
Ġe cht
ai ken
aa cht
Ġall ain
w w
Ġheur en
Ġpr oat
eu len
Ġl iek
Ġgew oon
ok en
Ġbo er
ĠF r
e en
g oan
Ġt oavel
Ã¶r g
k el
aan der
Ġom reden
Ġe s
oud el
d aal
ai st
ik kom
z el
Ġb ist
ĠGrunneg ers
Ġle den
ĠN eder
oa ge
Ġk oamer
Ġh aalf
Ġnoa st
Ġol le
un d
Ġm id
oe m
oo f
ĠM or
Ġol d
Ġker k
nij s
N oa
Ġd uur
Ġd an
Ġr ust
am mer
acht eg
s em
z oam
Ġal tied
D in
oa pen
Ġn ui
Ġaar m
er d
Ġd oagen
Ġk eu
Ġvr oagen
B ie
ok ter
ĠG ed
e ster
Ġh est
ou w
ak t
Ġgr ond
Ġhol den
h uis
ĠS l
Ġl Ã¶
Ġlig t
c t
Ġgr uin
Ġg eld
D oe
Ġg oa
Ġvroug er
Ġg ingen
oo s
Ġh er
Ġk ikt
eer de
Ġw oorden
Ġb er
ol le
aauw d
u ver
w eg
Ġ an
Ġz eker
der ij
an gen
Ġv ast
uu d
ag t
Ġle zen
ĠO l
Ġs ikkom
Ġhaar d
Ġre cht
ubb eld
p e
Ġl uip
! âĢĻ
oa men
Ġw ied
âĢĿ .
ap pen
Ġw is
aan s
h old
s k
Ġpl oat
Ġr ie
Ġlig gen
ĠGrun nen
Ġ "
ien d
ĠT r
le ven
Ġvr ij
w oord
Ġm eziek
Ġr eg
Ġver st
aai en
Ġh ait
ĠM ar
Ã¶r n
Ġm og
Ġm ot
aaier n
ĠW ie
re ven
Ġlu tje
Ġg oie
Ġver w
Ġge m
ĠV an
ai p
Ġm is
Ġbl eef
o ol
ĠM ien
Ġkom en
ig t
ĠGed ichten
el l
âĢĻ .
ien e
ak k
on k
Ġsp eul
A in
E l
O ok
in ken
Ġzeg d
r iek
Ġl oop
inder k
D it
aa m
ĠB in
Ġbo s
Ġjon ge
Ġw oord
ou le
Ġst ok
Ġsch oul
Ġg af
Ġw achten
ĠW oar
âĢ ĵ
Ġden ken
n l
Ġon ner
d oad
Ġbr ui
ĠM olen
O m
Ġm Ã¬n
ou ken
Ã ³
Ġ 3
in neg
oe p
Ġblie ven
Ġ oar
ken ain
G r
S ch
o ver
v eur
n der
o gen
o eke
Ġh oog
Ġschier e
oe f
Ġnij s
Ġg ek
Ġzo veul
n a
eu ven
ĠV ries
og el
ir r
, âĢĻ
Ġd Ã¬n
oal d
Ġvr uig
bb e
O f
Ġr ed
0 0
l open
Ã «
ain s
Ġwui r
Ġo or
eu f
Ġmin sen
k w
k eg
er e
ek ken
ĠB r
Ġgel iek
E U
Ġb oudel
on ne
ĠE l
m it
oa le
an nen
Ġp ad
ing er
V r
d am
Ġk at
ge ven
o ok
Ġh oast
ek st
Ġheur de
G ain
w at
ar r
Ġdr eu
Ġz in
Ġb Ã¨r
Ġl aag
Ġveur bie
Ġb uur
on t
Ġneu deg
I s
o ch
Ġv ie
un t
ĠA l
Ġker st
ĠKl aas
e v
ubbeld am
Ġv ief
Ġvol k
Ġstr oat
Ġm oan
ĠW ester
Ġb oas
' s
g er
Ġk Ã¶r
Ġst em
Z E
Ġd uuster
Ġkin d
s el
w eer
z icht
ee ster
oa nen
Ġver dr
ĠZ e
Ġker el
V er
ak sie
Ġwie s
Ġkw iet
Ġmoo ie
oa f
Ġl aid
ander s
e den
Ġv ou
il len
Ġbe ste
Ġkon den
k o
Ġr ou
ĠG er
ap t
Ġap moal
Ġb aaide
or t
Ġst oer
ĠN ij
ĠT om
Ġgez icht
an ten
Ġh Ã¬n
Ġh oar
Ġh uus
ait en
Ġden k
i o
um s
aar de
Ġon ze
Ġbeg r
er st
on den
Ġst re
Ġr aai
Ã¶ l
oo i
Ġkwam en
w aark
Ġhaar t
Ġsn ij
J an
Ġ ant
st oe
Ġlaif de
) .
w ij
Ġwe den
ĠN oord
i v
o eten
z eg
Ġk aant
Ġl opt
ĠH inderk
Ġschrie ven
Ġd okter
Ġh in
Ġb ij
onne veld
z et
aal t
Ġfiet s
eug elk
e ven
o ven
Ġd ing
Ġged ichten
ef kes
ĠNeder land
g ang
h oog
ĠZ onneveld
Ġh og
ver d
men t
ĠM it
Ġwol len
Ġzol len
Ġme schain
v an
Ġh and
Ġk ien
ar d
k oamer
ĠBl aauw
ĠD er
ĠZ ai
s kes
Ġl agen
Ġt el
i f
ie p
Ġz ug
ĠD ij
in ner
ĠlÃ¶ s
A al
on nen
ok sem
op pen
ĠD uut
Ġt h
Ġj oa
il ie
iet sie
Ġdin gen
Ġvert ellen
Ġgr ot
m ers
Ġk un
v l
Ġl et
on gen
Ġwe ek
ĠJ o
Ġvl ai
pl oat
oa zen
og ge
ĠW eerd
n oa
Ġgev uil
EU ZE
z ze
Ġb or
ĠH ol
Ġmen sen
Ġverh oalen
Ġdai p
Ġblie de
Ã¶ n
Ġa ai
oo ie
ĠV eur
Ġlu cht
Ġel ke
i zzen
Ġd ud
Ġn am
t h
Ġl aange
Ġal len
ĠS p
Ġbrui er
Ġd a
Ġh ui
oe d
ui ster
Ġbl ied
Ġhail daal
N ait
l og
ik k
ĠK in
Ġbl ift
Ġle eg
Ġliek t
Ġkeu ken
K om
en s
Ġbl ou
Ġkon nen
b els
Ġvan nijs
oor t
Ġbo om
Ġzat en
m d
Ġzet ten
n ie
oa de
Ġh ur
eur t
oe it
le den
re s
Ġlu it
id de
k aant
w ie
Ġb aaiden
el den
ĠD ou
Ġbel ang
ĠD r
ĠN ane
Ġsp eulen
en d
Ġl ief
Ġp ot
Ġe efkes
Ġm eugelk
Ġk eken
Ġl uuster
Ġp eb
Ġp ers
Ġaal moal
Ġsp ul
Ġ âĢĻ
ver s
Ġ20 1
H eur
o it
Ġg er
on e
der n
oe pen
ik ke
ui de
aauw e
Ġverg eten
, âĢĿ
u ten
Ġ oavend
doad elk
W el
isch e
Ġn ummer
Ġh eer
Ġop a
Ġst ad
Ġkrie g
Ġdud elk
Ġm ond
st ellen
Ġwor ren
Ġlang s
Ġn acht
ĠZ o
el e
ot o
le m
em ilie
Ġ20 0
Ġr egen
Ġzo ch
Ġmen s
Ġvin den
E R
ĠH ou
Ġvert r
Ġfiet se
Ġv alen
Ġst ief
ĠGr on
Ġel kenain
Ġv oader
Ġverdr ait
st ee
Ġl eef
hol den
Ġz uiken
o i
Ġsl oap
akk elk
a le
s m
Ġom hoog
Ġge ft
Ġwoar om
w egen
Ġm Ã¶rgen
Ġt ien
Ġz euven
et er
Ġp le
Ġbr en
Ġh anden
ik ken
ĠK n
ge d
ap p
l er
Ġn e
Ġn oeit
Ġw inter
Ġbe sch
Ġh uil
! !
D izze
H ier
g eb
Ġw aas
Ġst ap
ing a
Ġwicht er
g els
w aar
Ġw inkel
Ġv ek
Ġp as
sch ien
Ġant woord
g t
Ġz etje
ĠH aar
Ã² l
Ġvot doadelk
eken d
D en
i on
p t
eg haid
Ġvan doag
Ġmin der
Z ie
u z
Ġz uik
Ġver z
ĠD oar
Ġjon k
Ġw it
el ke
Ġvr und
ter n
oar t
Ġhel pen
p ie
Ġd aaier
Ġw ind
Ġh oalen
aar huis
am m
ĠJ ong
ĠN ou
ĠP r
ĠR oel
doag s
Ġz eun
ĠA m
kom st
Ġd om
Ġb leven
ne men
Ġol der
__ __
a c
Ġo og
Ġk ammer
in t
aan den
Woar om
z er
Ġn uver
Ġw onen
Ġz uster
Ġa les
Ġsch ien
Ġlaang s
h oalen
Ġv is
Ġo r
K in
g a
Ġver v
Ġmid den
Ġ ies
Ġm akkelk
Ġt ille
Ġh Ã¨
eur d
Ġl eren
Ġde den
Ġle ek
Ġf emilie
Ġwicht je
ak ke
Ġgr oag
Ġf eest
uur lek
Ã¶l f
h of
Ġd ast
Ġbe sl
ad de
ĠGrunneg s
g lieks
Ã¶r m
Ġkr igt
Ġm ainst
in y
ĠW ijn
ier en
Ġ 4
Ġz ie
ain e
Ġheur d
Ġsl oapen
Ġvon den
hold s
on de
Ġbegun t
vr aauw
G eert
m oak
Ġaan d
ar m
ĠB ie
Ġtou n
l ie
Ġr oem
Ġbr ocht
Ġged achten
ĠmÃ¬n sen
n omen
Ġv aar
ou nen
Ġver r
Ġleu tje
a v
Ġw acht
Ġw aarken
eu mer
Ġr ad
Ġvr agt
Ġper b
ĠWijn holds
Ġ 5
Ġw os
Ġz ummer
Ġst uur
Ġp eerd
ĠKr euze
t t
Ġb ainen
Ġom dat
ul d
ĠO m
Ġlai p
j en
u re
Ġr oam
Ġbie z
u f
Ġh oop
Ġsch ol
ĠH en
Ġge h
Ġben nen
Ġd eu
Ġg at
Ġheur t
O ch
z ing
Ġv aalt
Ġvan d
Ġsch oon
K iek
u v
Ġw idde
Ġh aal
Ġz ingen
sw at
ĠSl eumer
in e
de e
Ġsch reven
Ġbe h
ĠK om
Ġm ain
Ġt en
as s
zen d
Ġbeg rie
Ġb aar
ĠS anders
R EUZE
Ġhog e
Ġbaaiden t
ij k
uk ken
ĠI en
onder d
Ġverd w
A an
w inkel
ai s
oe st
al l
Ġaander e
N og
t ien
oan e
Ġgr as
ĠM id
Ġall inneg
Ġm uit
el en
ĠD oe
d der
Ġt ieden
Ġz ul
Ġal le
Ġmen aaier
Ġgeb oren
od der
z o
Ġm er
st oan
Ġg ong
Ġrou pen
Ġw eke
ie ter
ou len
gen de
rie f
Ġbr aif
Ġkwam men
Ġjonge s
Ġallen neg
d oagen
Ġd ak
ĠD ubbeldam
rie ven
uk keg
Ġpl ietsie
Ġkn ip
oavend s
Ġkien der
= =
v al
Ġ ,
Ġm uik
Ġen d
Ġs ums
un nen
wegen s
O l
Ġn ee
Ġk et
ak s
Ġre den
Ġzug t
? âĢĿ,
Ġh ij
oar e
Ġne men
E N
r i
Ġ 6
Ġ um
Ġw oater
Ġv ogel
el tje
ap per
Ġvert elde
. "
v in
ij t
Ġgeb r
I e
Ġz ellen
ij en
Ġde el
a uw
Ġk ou
Ġb us
ĠWil zing
' ,
w iel
Ġk ol
... âĢĿ
Ġgrot e
K r
a b
s h
ĠB e
Ġdeur e
Ġbo eren
Ġhoes ke
ĠAn na
/ /
h ai
u ien
oa bel
Ġz aacht
st eg
re d
ut t
d de
s n
Ġn aar
Ġv aaier
ol len
Ġr aip
un neg
ĠV l
Ġter ug
w e
Ġst oef
am me
bl ad
woar ie
Ġvou ten
ĠJo h
ok t
Ġain moal
euf d
Ġh um
Ġi dee
eer den
as ke
Ġsch ud
Ġvek aan
: //
H et
a bb
ok je
Ġkl eur
Ġdicht er
e cht
Ġk old
eu z
Ġs oamen
Ġp akken
Ġsch il
Ġtr ok
Ġmet er
B l
Ġ Ã¬n
ied r
Ġdr inken
Ġai glieks
Ġzun dag
Ġfiet sen
K l
z aaier
Ġk an
eu t
Ġr ood
Ġf oto
Ġdai l
Ġschrie ver
G el
ĠG od
Ġzulf de
Ġpa bbe
a ch
Ġn at
den ken
Ġr iek
Ġr eken
ver t
ft eg
M an
k s
n d
Ġd oag
Ġm aank
Ġb ouken
Ġst oa
Ġr uip
Ġver skes
Ġaar gens
omm el
Ġkw oad
uk t
oet b
Ġzun ne
Ġmen eer
Ġzulf s
ijn ko
Ġv at
ol den
re ek
Ġol lu
Ġbegun nen
ob y
Ġgem ain
? ?
k te
o c
o eren
ĠD in
oak el
Ġ1 8
Ġvuil de
E ven
i Ã«
Ġn oat
st and
it ter
Ġst oet
Ġr ug
Ġver n
Ġkin st
Ġrust eg
o den
o eken
Ġr ieden
Ġsl oot
ĠP a
T r
g oud
Ġ 9
Ġb oksem
Ġs oam
oal ek
aai l
Ġmin s
ie ten
Ġa r
Ġs uk
eug d
Ġmuit e
A n
D eur
W as
Ġm aal
Ġh oal
Ġz Ã¶rgen
acht er
Ġtr aain
Ġher inner
tt p
an n
Ġv uur
on ken
Ġr est
ĠG e
ĠH anne
ĠâĢ Ŀ
Ġbl iek
em ber
ĠR eker
Ġdo chter
Ġaarm s
b ouk
Ã ¡
Ġn o
Ġh en
uu n
Ġvr um
Ġbos schop
zicht eg
Ġbren gen
M oar
Ġw akker
Ġze s
Ġf r
) ,
J e
en en
Ġh e
Ġz aag
eur de
Ġbe der
iek s
Ġf il
ĠO et
Ġeer der
ai gel
Ġm elk
Ġh ttp
st ied
el gr
Ġl ie
on ker
ĠZ el
Ġkr ekt
ĠC or
n is
Ġk il
sch r
ekt oal
kw am
o bb
Ġin ains
aan te
ĠO f
Ġkop en
sl ag
oel man
ĠbÃ¨r re
H est
M e
a h
m eester
ĠG ez
Ġhol dt
M oeke
T wij
k et
r it
Ġw ww
Ġb omen
Ġr ichten
og els
man s
Ġkammer oad
elgr im
d oun
w el
Ġ 8
Ġ oaf
ai zen
Ġm oe
de s
de el
Ġr ooie
ĠJ oa
ĠP elgrim
Ġ1 1
Ġged icht
b ers
f de
i gen
p ad
w aai
Ġw ast
Ġm uide
Ġh eu
Ġwer den
Ġston den
Ġschrie f
Ġbiez under
2 0
u den
v alen
Ã ¼
Ġh angen
Ġz agen
Ġz ich
Ġg uster
Ġs j
on s
Ġp ien
ui d
Ġgev al
D r
a at
m ber
u zzen
Ġ 7
Ġk Ã¬n
Ġa k
Ġbl ad
ĠP oelman
ĠNederland s
ai len
et r
ek el
Ġsch oule
ui pen
ĠV ol
oor n
ĠE ster
ĠVer a
d al
k op
m de
aaier de
ĠWil lem
Vr aauw
uister winkel
e it
r eg
u ter
Ġh Ã¨n
eg s
Ġr oad
ĠM oeke
sl oagen
b oom
Ġn ich
ai de
Ġs le
Ġs oort
Ġst aar
Ġst aark
ar e
ĠH utt
Ġbl oud
oot s
Ġbest oan
N et
p ot
ie ke
Ġg oaten
eer ste
Ġp ol
ik ker
Ġvlai gen
ĠHutt inga
r y
w in
Ġw onder
Ġl ocht
et ten
Ġs oavends
ĠH aarm
ĠEn gels
ĠWil den
euz ek
O ver
d o
Ġ !
in s
Ġg old
Ġop l
der d
ĠW ier
Ġhol t
ĠGron ingen
Ġ eur
ai k
ai den
Ġv aast
Ġlai ve
Ġgew eld
oof d
ĠWilden ga
euzek euze
H ij
oar d
ing t
Ġlag gen
Ġoor log
Ġkun st
f oon
u ken
on ge
Ġp ar
Ġdr aaide
ĠZ ol
eren d
ĠSch eem
Ġwaarm e
kr euzekeuze
ĠU il
Ġ ander
Ġv ien
Ġv oetb
Ġa d
der t
Ġp ep
Ġver der
ĠW ait
ĠD en
ĠA al
Ġjoar gang
Ġtr oanen
Ġpl at
Ġlai ver
Ġtwij de
Ġan er
Ġmoan d
Ġstre ektoal
Ġbegrie pen
w ies
Ġd iek
Ġv oor
Ġz eer
ĠW ol
aai s
Ġmo st
oen e
Ġgel uud
ucht en
Ġwoon de
El k
ĠWoar om
H aar
o eg
w en
Ġm oak
Ġh eufd
ek je
uu st
Ġdoar om
Ġf eb
acht ege
ĠN ee
ĠO n
Ġsl ag
Ġai bels
dr iks
vel n
ink t
Ġvert eld
Ġall er
aam p
Ġred aksie
Ġbelang riek
l ip
l oop
m or
Ġd un
Ġw odder
Ġt ekst
Ġz ied
Ġz Ã¶lf
Ġl and
ee ft
Ġsch oot
Ġover aal
ĠA in
be eld
Ġvuil t
Ġbegon nen
O h
f r
f st
h aand
Ġ Ã¨n
Ġw oagen
Ġo ren
Ġk irr
in ker
ou er
Ġl ast
ien us
Ġgr ie
Ġf oabel
em a
oag er
Ġaar g
B r
B ert
O n
i ster
m id
Ġb aank
Ġl eerd
ol l
Ġhai len
em men
Ġleven t
ĠkÃ¶r t
A ander
P a
h Ã¶rn
u ch
w olle
Ġ ?
Ġw o
Ġw eb
Ġb aang
Ġver aander
ĠD ag
ĠV een
ur g
oot je
Ġwoon t
ww w
Ġmainst tied
O nder
g d
h oal
Ġver gr
Ġveur aal
Ġom deel
ĠZ uud
Ġkon t
Ġschr eef
Ġleef tied
H eb
d els
i b
Ġm es
Ġt oe
ien tje
Ġst oul
un den
Ġsch ool
Ġmie zulf
A N
I E
M aarhuis
O et
V ol
Ġm uur
st uren
om men
ĠH arm
Ġgr eep
Ġkl ok
ĠP l
ĠP iet
Ġsn el
Ġgez el
Ġploat s
Ġeur o
D ubbeldam
b ert
m es
n oar
z ain
Ġo om
Ġa aid
un n
ĠM an
ster n
em t
bl eem
boar e
Ġbed oul
Ġgev oar
Ġvuil en
Ġoar deg
Z ol
m oakt
Ġk ed
Ġa m
ij d
uu k
aai st
Ġbe p
ĠJ il
Ġsp aigel
Ġpr o
Ġvol le
Ġben eden
Ġken nen
ĠUil driks
v is
eu m
den s
Ġte m
ĠW er
ĠH er
Ġbe v
ster dam
Ġmo et
Hai l
Ġtou komst
Ġdo en
Ġzuk swat
ĠWier th
V eul
o ster
Ġop oe
Ġr ee
re cht
Ġvl oog
Ġko cht
ent r
J oe
e el
an c
Ġm aai
il l
Ġzo wat
ĠB en
ul p
ing s
Ġain en
Ġzai ken
ur eg
ang t
Ġvol gens
Ġston nen
br aif
k n
an ge
Ġt ek
Ġt aiken
Ġz icht
Ġk oar
Ġb ain
Ġa cht
Ġst ev
ĠN oa
Ġ1 0
Ġhol len
he den
j ong
p els
Ġ u
Ġn egen
Ġb ekend
Ġg aang
Ġl ait
ok keg
Ġr opt
Ã¶ cht
ĠK erst
ĠA an
Ġkl as
Ġkr aant
Ġpak te
Ġbouk je
e et
m oat
p ers
Ġd onker
Ġb ak
Ġst ain
Ġj anne
ag gel
ing ers
Ġwer ren
Ġnet uurlek
Ġbez eg
Ġklaain e
Ġth ee
" ,
h ard
Ġ ch
Ġ under
Ġd w
Ġw Ã¶r
Ġm om
Ġh aanden
Ġz oas
Ġz Ã¶rg
or dt
om s
aan ke
ĠG el
Ġbe eld
ul len
Ġkl aid
aaier d
Ġvol gende
kom t
oas d
Ġgeb euren
Ġper vin
1 9
L oat
M oi
c om
Ġd ele
Ġa ut
Ġg ien
Ġwil st
spr oak
ĠTr ijnko
Ġbliek boar
b ak
l eke
n eu
Ġd ucht
Ġz aand
Ġg un
Ġl Ã¨
aa ste
de m
aai leg
Ġbr aand
ĠGr oot
aark t
pr oat
ĠAm sterdam
Ġroem te
a uto
d ail
f f
Ġm eester
Ġh onderd
Ġb ier
Ġst uren
ĠG ain
Ġweer d
Ġbl aauw
Ġlai verd
Ġaander n
Ġ2 4
Ġsw aart
ber g
zie l
ov ember
Ġnui md
d oalek
k ers
n oam
Ġz al
Ġg ait
Ġst ud
Ġr oe
ik oa
Ġvr ee
aauw de
ĠS un
Ġc omp
kl oas
Ġvie fteg
T ot
W il
m eer
r il
t al
v aal
Ġ ek
Ġw iend
Ġv ogels
ie m
eg r
Ġr Ã¶t
ĠW eg
Ġze den
iek t
Ġbl ik
ĠA b
ĠT oal
Ġhou k
Ġko op
Ġoar eg
Ġgemain te
A chter
M ar
O ns
S l
m oaken
Ġ Ã
en n
Ġt aande
Ġb uus
Ġop sch
Ġp re
Ġveur dat
Ġsch aar
ĠB oer
Ã¶r gens
Ġden kt
Ġnoa men
Ġvraauw lu
Ġmag gen
' .
D us
E erst
s dag
t o
Ġo oit
Ġg eef
Ġl ege
Ġst oat
ĠH et
Ġon gel
ter s
Ġle st
Ġkl euren
ĠP uister
eken de
Ġ1 5
ink s
Ġple zaaier
ĠScheem de
B ist
E ster
k ieken
n i
u tje
v ast
er g
Ġd oage
Ġv eu
Ġb un
Ġzo dat
ĠD et
ĠD it
Ġbl ief
uur de
Ġveul s
Ġko st
Ġwaark t
Ġben oam
Ġbed ocht
arr y
Ġbor d
O A
P r
v oaren
Ġn ood
Ġw Ã¨l
Ġop t
Ġaan kommen
ee d
ĠA r
Ġdr eug
Ġtoen e
Ġnui men
Ġstok je
Ġbegr eep
ĠDuut s
in ten
el f
un de
ĠH eur
Ġoet st
ad res
Ġbl aauwe
Ġpl an
kom en
Ġvoak er
Ġleg gen
Ġvroag d
ĠmÃ¬n s
K REUZE
m el
v els
w aarken
Ġb eurt
Ġg olden
Ġst el
Ġr ol
Ġom a
Ã¬n t
Ġ1 2
str oat
ĠKl oas
Ġhad den
Ġecht e
Ġlaid jes
Ġblou men
ĠJoh an
Ġweb stee
a zze
e eg
Ġm aar
op us
ĠW el
ĠK on
Ġmeer t
ĠL even
bie l
Ġdreu m
Ġbuur t
ploat s
Ġhaal s
ĠGez ienus
ĠDet mers
h a
o ze
Ġr oar
Ġder bie
op te
un i
ip t
Ġsw aarde
Ġbet aiken
Ġbez uik
Ġbew egen
T oun
z z
Ġw ien
Ġt oalen
Ġt he
Ġz egen
Ġz oaken
Ġl uipen
or g
Ġp ries
ĠG l
Ġvr unden
ĠS w
ĠA es
Ġtr aauwd
ĠSt r
Ġgl ad
Ġgruin e
Ġaai er
Ġschien boar
Ġmom ent
ĠAes opus
oa ver
Ġw ar
Ġw aist
Ġv eld
Ġm ij
Ġz oal
Ġs ep
Ġop z
Ġj im
ge m
us ke
aal m
Ġbr ood
Ġol de
iz z
Ġverhoal tjes
ĠMar ia
Ġblou m
Ġvoetb al
i bb
Ġd is
Ġn ovember
ie ven
eu del
Ġg oed
eg er
Ġge spr
Ġoet z
Ġdr uk
id t
Ġvl ouer
ist en
Ġme ment
ĠNeder laand
Ġtille foon
N oar
T och
o w
Ġn ust
Ġn aacht
Ġw eken
Ġm Ã¶rn
st ad
Ġb ien
gen d
Ġe m
Ġver m
aan zen
re pen
... )
ĠT er
ed de
Ġgeb eurd
otter dag
Ġzw oar
Ġneu s
Ġpak t
iedr oagen
b oer
j a
Ġ Ã²l
er ste
Ġm oat
Ġz ijn
in sch
Ġop p
Ġaan b
Ġj ul
oan s
Ã¶ s
acht e
Ġzai k
ĠL ai
Ġvl ak
zulf de
Ġro ok
Ġrecht s
ged ureg
Ġpep ier
W Ã¨l
b oksem
g ier
w oagen
Ġz eten
Ġb aist
it er
it eit
ien t
de k
ĠB akker
ĠA p
oor log
ĠP oar
Ġmin sk
Doar om
Ġhond je
____ ____
Ġvand oage
G oa
h uus
k eer
l icht
t ie
w ol
ou p
ĠG ees
te mber
ĠR ed
dr oagen
gr ond
Ġap ril
str oa
Gr unneg
irr eg
Ġaand acht
c k
k ie
o ft
Ġw aar
Ġw ees
Ġb uut
Ġg ang
Ġj uust
Ġder op
le ek
Ġsch uur
ĠM aarhuis
ge mans
Ġle waai
oak ob
ĠZ ien
Ġ1 7
Op a
ĠC oby
leg oa
Ġleu ven
ĠWeg gemans
? "
B innen
l oos
Ġz om
Ġk le
Ġst ak
Ġon ver
ĠT e
Ġtr ap
Ġter wiel
Ġleg de
Al l
zet ten
Ġbaar g
hai le
J ong
P l
d om
t j
er k
Ġh oezen
Ġh oald
Ġen de
Ġver leden
Ġveur oet
op sturen
ĠS te
ĠK ees
ster s
ang er
Ġvot doalek
sl and
Ġc on
Ġjanne woarie
m oa
Ġv ingers
Ġz ak
Ġk aast
Ġg erd
il j
ver n
Ġkl aaier
Ġgain ain
ne s
im mer
ip pen
Ġzet te
Ġlang zoam
Me schain
B e
h eb
Ġn uig
Ġv out
Ġh ong
Ġst opt
oe ven
Ġkom st
Ġbegun de
Ġmooi ste
Ġro eg
Ġgenog t
Ġboer derij
sem a
Ġpot je
ĠKn oal
Ġrad io
Ġkil om
Ġkirr el
S n
a y
w am
Ġd u
Ġh ulp
Ġl ees
et s
Ġj eugd
Ġvr ouw
ĠB el
ĠB iedroagen
sch aaid
Ġdoar bie
rie den
ĠT wij
Ġkop ke
Ġduur de
Ġkien er
Ġluuster n
app els
Ġdom ie
Ġsle cht
Ġsep tember
m is
r ik
Ġz otterdag
el ing
at ten
Ġl oos
Ġop r
Ġveur en
ĠG oa
ĠD ikke
am er
ĠM en
oak els
acht s
ĠZ w
Ġgel uk
Ġsm ok
Ġverd ain
Ġnui m
Ġreg el
Ġraai s
Ġbosschop pen
S T
e c
g oam
Ġd i
Ġh al
Ġg as
oar eg
it s
or ie
Ġvan Ã²f
Ġst oule
Ġp ost
Ġsch ip
oan se
ĠM out
ĠO ver
Ġsl oagen
ĠI N
ang st
ast en
Ġre chter
str ied
ĠKl omp
Ġbek ieken
Ġlaang er
Ġspeul t
Ġhin ne
== ==
1 8
L oater
M en
N ane
S p
Z ulf
a ct
d oan
h oezen
v ie
w or
Ġ čĊ
Ġw and
an ken
Ġb ellen
Ġde i
Ġr unnen
Ġon b
Ġge sch
rie ken
ĠJ oop
Ġbr and
Ġhou nder
Ġ2 1
Ġgel ukkeg
Ġsw ien
Ġschol ders
Ġmer oakel
Ġnaar gens
Ġvekaan zie
Ġgezel leg
ĠRed aksie
N iks
O L
T egen
ie de
Ġk Ã¶
Ġl inks
aar d
aan tje
Ġal der
Ġwie f
um mers
Ġtr okken
Ġtr ekken
Ġkn ijen
Ġbet oalen
ef oon
A I
M ooi
b t
m ood
w ege
Ġr aand
Ġj eu
ĠG iny
ĠD ren
ĠB ouk
Ġdoar veur
rie p
Ġdin k
Ġtr ekt
im men
Ġdo ok
Ġnet uur
uuster n
Ġelk s
Ġhailen daal
t oal
Ġ =
Ġv il
Ġk aande
Ġl oader
or d
on ers
og r
aan ten
Ġveur ege
ĠD eur
ĠD uisterwinkel
ĠM e
icht je
ter kloas
Ġbl oots
ĠO ost
iet s
Ġtr aauwen
Ġnoa ber
ur op
Ġwol ken
Ġtw ie
Ġgl as
ĠOp a
Ġwaarm te
vol g
Ġnijs gier
Ġstre ek
Ġjonk je
ĠKlomp ien
ĠRedaksie adres
J a
b urg
an je
Ġv oar
Ġm el
Ġz uch
Ġk olle
ch ie
oar es
or n
ij e
om mer
Ġst oppen
Ġp oe
op ke
ĠW insch
Ġal t
ĠK REUZE
Ã¶r t
ĠP ekel
se s
ĠE ven
Ġgev ol
ank je
hol len
vol k
Ġduur t
Ġbuur man
Ġraai ze
M ag
W eer
W ant
m men
u b
Ġd aarde
Ġn on
an sie
Ġm oud
ou ten
âĢ Ķ
Ġst ond
ik te
ĠH art
ĠH oit
ĠB eg
ster d
Ġkr oug
ĠL e
ĠL eek
ker el
Ã¬n s
Ġwil d
Ġhail dal
Ġpl ek
Ġaar b
ĠC h
ov ven
Ġversch aaiden
Ġstuk je
Ġth uus
Ġpers oon
Ġfil m
ĠHoit ing
J ans
b ed
e w
w oorden
Ġv aaileg
Ġz oak
Ġz igt
Ġb al
cht en
Ġin tern
Ġaan p
Ġvr ez
Ġbo ot
ĠN ait
ĠO a
Ġbr uu
aaier t
Ġeer liek
Ġ1 6
Ġlig goam
Ġhaile moal
ounen t
ĠHen ri
B oeten
H ol
a zen
k iek
Ġ un
Ġd ainst
Ġw aain
Ġk ap
Ġk ant
Ġb ar
Ġg ijt
Ġmit nemen
Ġr ek
ĠH oog
Ġal s
Ã¶ zzen
uur d
Ġpr achteg
Ġtegen over
ĠE de
Ġter ogge
br ocht
Ġbest aait
Ġok to
Ġvon nen
Ġvat teg
Ġveu joar
Ġokto ber
A ch
a ke
h aal
h and
z uik
Ġ eul
Ġb ad
et te
Ġs ek
Ġdat teg
Ġe et
ĠO oster
ker t
ur rie
Ġsn oet
Ã© n
he id
ĠGer rit
stied s
Ġtek sten
Ġcomp uter
Ġjul i
1 0
1 1
O k
W aist
b Ã¶rg
d elk
t aiken
Ġn or
Ġw ij
Ġv inger
Ġh or
Ġk ep
Ġb aal
Ġs oms
or ren
Ġp oot
ar a
oat je
oat jes
Ġvr e
ĠB Ã©
ĠB erend
Ġdoar noa
ĠV eld
rie ver
Ġmo biel
Ġdr oad
ĠGr ode
Ġpr akke
ĠÃ²f w
Ġ... '
vr ouw
Ġgez ond
Ġstil te
ĠVr aauw
Ġdoch de
onge s
lip je
H enk
b o
h il
r ek
Ĵ f
Ġn emt
Ġv ond
st el
el is
Ġl ange
Ġvan oet
Ġp u
oal de
ĠG aait
ui f
ĠB innen
ge w
Ġkl ain
Ġdr aait
Ġstr oom
oug er
Ġstil le
art s
deur e
ĠGer hard
Ġpers ies
Ġschien t
Ġverv ast
Ġvand oan
Ġpervin zie
1 7
Z el
d ouk
e in
k eken
t ou
Ġh eden
Ġk ar
Ġg ul
ou gen
Ġl eer
it tje
Ġaan st
Ġr ommel
Ġe x
ĠH ar
ier e
ĠV is
Ġsl agt
ap te
ĠÃ²f lopen
Ġdrok te
Ġtel efoon
Ġsloap koamer
b aank
c e
f l
k amp
w old
y n
Ġ uit
Ġd aag
Ġd under
Ġh angt
Ġb aange
Ġb Ã¶rg
den k
Ġaan g
Ġveur zichteg
Ġsch oap
ĠG ing
ĠH ier
ĠH oag
ag e
ĠS m
Ġbo d
Ġman lu
sp ul
leg d
leg gen
ult uur
ĠDuut se
zend braif
ann eer
Ġgrie ze
Ġgespr ek
B en
h em
k eld
k aande
u per
er el
Ġv ez
Ġh ok
Ġz ucht
Ġb leek
Ġl ieden
Ġp oten
Ġver joar
Ġnog al
Ã¶ dde
re ct
ge v
Ġain g
Ġbr uken
Ġtw aalf
vel de
azzen s
Ġgeb eurde
Ġspr ong
Ġspr eken
Ġverl oren
ĠTr iene
Ġspeul de
schien lek
Kin st
Ġherinner ns
Heb ben
vis ie
Ġzaiken hoes
Ġzom or
, "
1 4
f eest
g oa
h ok
i oal
l op
p le
Ġn ek
an ner
Ġh oofd
in a
in de
Ġb ul
oar s
Ġl as
it ten
Ġs old
Ġj uni
Ġveur stellen
Ġsch eu
Ġon d
Ġdeur en
Ã¶r f
Ġgain aine
Ġsl uig
um m
Ġtw in
Ġdai pe
Ġneu ze
sw oord
spr oken
uv ver
Ġkilom eter
1 6
L u
r as
s i
Ġd as
Ġd ank
ai gen
Ġw ink
Ġl er
Ġl uk
Ġl inker
or ge
Ġop st
der e
Ġr ogge
Ġsch ounen
ĠW ordt
Ġvr em
oo st
ĠP et
ut ter
Ã¬n ten
Ġachter aan
Ġachter oet
sie s
Ġvl ug
Ġdoe zend
str a
Ġlang er
Ġvin dt
Ġvrij e
Ã« n
Ġschol der
ass a
Ġschriever ij
Ġvrum d
entr um
a z
i de
en de
oa zie
Ġv aal
Ġm uz
Ġt aauw
Ġh ek
Ġk iend
in sen
el p
el der
Ġst of
Ġst Ã¶rm
Ġin d
Ġsch iet
ul m
Ġdeur goan
Ġdr aaien
ĠT ekst
Ã¨ st
ĠL uchten
Ġto er
Ġstr and
Ġzun eg
Ġwui ren
Ġverb oasd
ell eke
El ke
Ġdreu ge
Ġlaag t
Ġwo zzen
âĢĶ âĢĶ
Ġtwin teg
ĠLuchten berg
5 0
S m
o vv
u zen
z Ã¶lf
Ġ :
ai ve
Ġm ainen
Ġst e
Ġp aast
oe ze
ĠW im
ĠD elf
ĠV uil
ĠZ un
Ġdin ken
ĠL aif
Ġpl ak
Ġleven s
Ġmen uten
Ġhol ten
Ã¨l d
Ġschr ik
Ġleg d
Ġ19 4
Ġfl uuster
Ġmer oakels
ĠÃ¬n d
Gel ukkeg
unn y
Ġpro bleem
Ġwaain eg
E L
K on
M ost
b aauw
b ren
o h
u ze
v ver
er v
Ġd aar
ai m
Ġw egen
oar de
Ġl a
Ġst and
Ġr oak
Ġver sl
Ġal weer
oo ien
ĠK at
Ġdoar mit
ĠJ oakob
ĠA mer
Ġdr oagen
Ġsp iek
ĠT E
ap ke
ap pel
ĠL oat
Ġrond zendbraif
Ġverst oan
Ġverst and
hof f
Ġkol legoa
R oel
i um
w otter
w inter
in ne
Ġb oan
Ġb aauw
ol f
Ġp ie
Ġj oagen
Ġver sw
Ġver kl
un ders
eb oom
Ġheur den
Ġbe vr
ĠB ern
ĠK iek
ĠO ok
Ġkon tr
Ġwoar haid
Ġol ders
ang s
Ġ1 3
Ġvert elt
of f
Ġben aauwd
art in
tr okken
Ġschr ok
hol der
oezen d
Ġred den
Ġkat ten
Ġgrot er
Ġvrund elk
Ġmain ste
Ġvrum de
Ġvien den
Ġaing oal
1 2
d s
g l
k je
Ġ Y
er ij
Ġv Ã¶rm
Ġh akken
om pen
Ġin ter
Ġr onde
aan je
uu m
uu tje
Ġsch ut
Ġsch uld
ĠH il
ui er
ĠS n
ĠM oar
Ġover l
Ġaal gedureg
ad den
ad io
Ġai w
Ġnoa bers
Ġlai pen
Ġsw oar
bl ik
amp ing
Ġvanzulf s
Ain e
ĠkÃ¶r te
Ġvertr aauwen
Ġkammer oaden
Ġtille visie
Ġhttp s
Ġfeb er
Ġstev els
ĠVeld huis
Ġverjoar dag
F r
k inder
n em
r els
s s
v at
Ġv ia
ie zen
Ġk aggel
st oal
ij s
Ġp uut
le zen
ĠH est
ĠD izze
Ġvr eten
oan d
ten sh
men eer
ĠN oorden
Ġbr oene
tied s
Ġwol f
Ġverh oes
Ġbel even
oader n
Ġverk eerd
Ġverk ocht
ĠVr ai
Ġmid del
Ġrie ge
Ġmot or
Ġbuur vraauw
oade m
Ġzaacht e
Ġnoat uur
An na
Ġgun g
ĠlÃ¨ ste
Ġkep ot
swoord eg
A le
d ailen
h oald
i ge
m Ã¶rgen
er m
Ġd omm
Ġm amme
st ok
eu k
eu nen
Ġg Ã¶n
Ġst om
Ġp op
Ġe zel
ĠW est
ĠH arry
Ġon n
Ġge el
Ġhaar de
ĠA d
Ġkr acht
Ġ1 4
Ġnoam elk
Ġversch illen
ĠOl dam
El kenain
waar p
ĠVl iet
Ġstoa pel
ĠDag blad
Vol gens
mes ien
ĠWinsch oot
ĠHart man
1 3
1 5
T er
m Ã¶rn
r a
t s
Ġd ust
Ġd uren
Ġv ent
Ġm oes
Ġh o
Ġh il
Ġz Ã¨
in us
Ġb and
Ġi st
Ġl eest
on n
Ġst am
Ġst eern
Ġp et
ok kel
oe de
Ġom geven
ak te
ĠA tensh
ĠO af
Ġbr aide
Ġsp ort
Ġkr ig
Ġter echt
Ġonder wegens
Ġbet r
ĠHai l
ĠOp moak
Ġspr ingen
Ġstuk ken
oatsie s
Ġbrui ers
Ġbor st
schr ift
Ġ11 4
Ġbruu kt
ĠAtensh eerd
g eld
x s
z inger
Ġw en
Ġh onden
Ġk oart
Ġk adde
Ġk assa
ol der
ot s
ĠD iek
icht er
ĠK ar
ĠK uip
elk s
Ġkw oa
Ġdr aai
ĠO nder
ĠL iekt
Ġpr achtege
ĠR ieks
ĠJan s
sp eul
Ġre aksie
Ġgl aas
Ġsw ait
Ġkiek t
ĠBert us
Ġhog er
ĠDer k
Ġhui ft
Ġvekaan sie
ni xs
Ġhinne weer
Ġgul den
i oale
l aif
p ar
s j
w er
w ed
Ġd ubb
Ġn eef
Ġn omen
Ġw Ã¬n
an de
Ġv ij
ie ve
Ġt oren
Ġb uren
at ter
Ġl ol
eg el
Ġvan deur
Ġde ze
Ġop dr
un ten
oat ie
ĠW ant
ĠH ans
men ten
Ġkl ap
Ġbr ug
ĠP er
ker en
Ġeer lieks
Ġ2 5
Ġc amping
Ġfiet st
Ġhar t
Ġer voaren
ĠVr ij
anne s
Ġmid dag
Ġploat je
Ġgezicht e
waar s
Ġzuster s
Ġbaar gen
ĠMid wolle
Ġtieden s
Ġroe zie
mood se
D ien
O E
V ot
d ege
h ou
m ien
n oast
r el
Ġn u
Ġm ale
Ġk aans
el le
Ġg n
Ġop v
Ġp rie
aar g
Ġr it
Ġsch oun
ĠH eer
ĠM ag
Ã¶r ns
oam e
Ġbr aid
dr uk
Ġvl ogen
Ġkn up
Ġgeb aauw
Ġel l
Ġverl et
Ġleg t
ĠBert il
Ġproat je
Ġverw achten
kw art
Ġger ust
ĠAm eling
doun de
Dr ij
Ġvrez elk
ĠPet zinger
Ġfeber woarie
ĠKuip ers
! âĢĿ,
H inderk
a x
c o
o chter
r aai
r ust
s er
y m
Ġ oam
Ġn ander
Ġn eem
ie gen
Ġm uiken
Ġh oan
Ġz akken
in den
Ġb ot
Ġb Ã¨l
Ġl iter
Ġp ap
Ġover t
oor te
Ġbr oen
ĠT iny
ĠP ait
ĠP ar
Ġstr o
Ġko vver
Ġre ag
Ġgeb eurt
Ġap pel
Ġgroot ste
amp ier
ubb e
Ġmog gen
Ġgem oud
Ġhui f
Ġ200 7
Ġgeh aai
Ġnijsgier eg
Ġgevol gen
Ġnor moal
Ġvre de
2 2
m ekoar
Ġ y
Ġv e
Ġb ekende
Ġl aans
eg ste
Ġst eken
Ġst ekt
Ġr icht
ĠW eer
am i
ĠS pr
ĠA chter
Ġdr aank
Ġsl ik
Ġsp annen
Ġtr appen
ur o
Ġbeg repen
Ġpl oug
Ġeer de
Ġgl oepen
Ġschrie vers
tr ekken
ĠKr EUZE
Ġrie g
Ġdreu men
ĠWester ket
ĠNoord hÃ¶rn
Ġlet ter
ac eb
ĠSun terkloas
Ġvez iede
G oud
I J
M ainst
P iet
h en
h er
k elk
l aaiden
p o
r is
r oad
er de
Ġd Ã¶r
ai g
ai ven
Ġw Ã¨st
Ġm on
Ġb otter
or m
ien der
Ġmit nomen
un st
ier s
sch il
Ġmien ent
ĠN ien
ĠL en
Ġmou k
Ġmou st
id der
Ġeer appels
sl aand
Ġgel e
Ġged ou
Ġhar ren
Ġpa zen
Ġdocht en
Ġjon gens
ank s
onk je
ĠNij e
one el
OL D
W e
d oe
i us
q u
u de
u be
v ogel
w il
z ak
z ers
Ġ oaven
Ġv en
Ġm ed
Ġt akken
Ġh iel
Ġh azzens
Ġb ok
eu ken
Ġa acht
ou r
de stieds
der doad
Ġst ainen
Ġp eerden
Ġveur deur
ar b
Ġsch aiten
Ġas of
Ġbe joar
ui gen
ĠB er
ĠB ist
sch ap
ĠA ander
ĠN ie
ĠO ns
Ġsp oor
Ġkop pel
ĠE r
ĠE dens
oad eg
dr ukken
Ġvl ucht
Ġtwij d
Ġbed oulen
Ġap per
Ġap pels
Ġschr ift
Ġhel pt
Ġwoon den
Ġvie ven
Ġple st
Ġbegrie p
Ġend elk
Ġket aaier
Ġbun del
hil ip
2 1
G er
H oas
K n
S ums
V l
V and
Z un
n et
p ies
t on
w ied
Ã ¯
Ġd ig
ai pen
Ġw on
Ġm us
Ġh oe
at e
Ġi m
Ġl ek
Ġde k
ain der
je bl
Ġst op
Ġst oareg
ol e
Ġp iep
Ġveur z
le men
ĠD ie
Ġwel ke
Ġvr oage
ĠV ot
rie ze
Ġle dder
ĠJ e
Ġain zoam
Ġkl onk
ĠN e
ĠN og
Ġsl oten
Ġwoar sch
ĠI e
Ġtr ug
Ġeer d
Ġstr ied
Ġhou veul
Ġgel ok
oer d
Ġgew one
Ġme vraauw
Ã¨l len
Ġreg els
Ġpeb liek
Ġmins ken
Ġhoal t
aceb ook
B N
C oby
H OLD
N oast
k aast
l y
w et
z ee
oa bels
Ġw izze
Ġv et
Ġm eu
Ġh es
Ġk Ã¶n
Ġb i
Ġb aauwen
Ġg et
Ġg ongen
Ġl o
ain de
Ġst oulen
Ġr es
Ġr oamen
Ġr unde
Ġj as
og e
ven s
al len
Ġbie l
Ġze steg
Ġhaar st
ĠM artin
ge et
Ġle s
Ġkl inkt
Hai le
ĠT h
ĠL utje
ig lieks
ur s
Ġgl ee
Ġgl im
Ġaar me
Ġbel de
vr eten
Ġbed rief
Ġhem el
ic o
Ġverk open
Ġgruin laand
ĠMar nixs
Ġbren gt
ĠIN HOLD
Jans ema
D uisterwinkel
a ken
d oar
h eer
h ond
r ist
z oak
Ã Ń
Ġw r
Ġm acht
Ġz Ã¶cht
Ġb on
Ġb Ã¬n
el u
Ġa st
at s
de egs
Ġop gr
ek te
Ġst ellen
Ġst eert
Ġst apt
Ġp s
aar te
le x
ĠH ogel
Ġbe denken
Ġhaar der
Ġgr ies
Ġgr uien
ĠM os
sch e
Ġkl aai
Ġkr ek
Ġwoar as
oag d
im m
ĠE urop
Ġkn ien
Ġsm oak
ve en
lu it
Ġverhoal tje
land s
Ġverg ees
Ġleu f
ail d
Ġ19 6
Ġold ste
ĠBr am
Ġhui fde
ikk ers
Ġintern et
Ġprakke z
ĠgÃ¶n g
E erste
H en
M eer
M out
W ille
d ij
h Ã¬n
l oaten
Ġv Ã¶r
Ġv os
Ġt onen
Ġk ees
Ġk oren
st il
Ġa t
Ġa ug
eer st
oe men
Ġr oaden
Ġj uf
ken s
il d
Ġsch e
ĠD uurde
Ġvr izze
Ġal dern
Ġbe m
Ġbe dr
Ġbl ode
... !
uk je
Ġsp ier
ĠGr Ã¶n
Ġkr oop
Ã¨ re
ong el
Ġtegen swoordeg
es s
Ġzat ten
eef d
ĠEn gel
Ġgel euf
Ġzuk se
eln d
vr ee
aaiden t
be elden
00 0
Ġlaag de
Ġstoer e
Ġvlai g
Ġdast oe
Ġdeu ske
Ġbraif ke
Ġschil derij
Ġsuk kel
Ġdi rect
Ġalt moal
ĠOldam bt
Wille m
' t
b ij
l ing
v ot
w acht
ai r
ie ft
Ġm at
Ġm ek
Ġm aaid
Ġh ie
Ġh oas
Ġb akken
Ġg od
at ion
ou den
Ġl og
Ġs mer
or p
Ġvan gen
on a
Ġde zulfde
Ġst appen
Ġr ode
Ġver zoam
ĠD aam
ul de
ĠK op
ĠN oar
ĠZ ie
Ġnoa dat
dr ik
Ġgeb oorte
Ġwaark te
Ġzok swat
Ġont w
ia le
Ġlekker e
Ġhait te
geb org
Ġstap te
Ġvaar f
Ġhaal ve
ĠGe orge
Ã¡ t
Ġveraander n
moat eg
! )
" .
* *
O N
b est
h orn
l aid
l aank
v eg
Ġ â
en ten
Ġn ikk
an te
Ġv oel
Ġm aark
Ġm ilj
Ġz Ã³
Ġk eb
Ġk aante
Ġk aanten
st ain
Ġst okken
Ġaan h
Ġder in
Ġver nijs
ver ainen
un en
ke ma
Ġzo o
am men
ĠM oatjes
sch aid
Ġbo cht
Ġsl Ã¶t
Ġto on
Ġtr aauw
ĠE d
ĠE vert
sl oten
Ġ2 2
Ġhol pen
Ġc ol
ĠSch r
eug de
zie de
ieden is
onder n
ank t
Om reden
ĠWester hoff
izzen t
lie ke
ĠKom t
Ġar tie
Ġbiezunder e
Ġstaar ke
Ġbien oa
Ġler oar
Ġoaven t
3 0
V oak
b oudel
n ummer
Ã º
Ġ Q
Ġn Ã³
ai sten
Ġw Ã¨n
Ġm ist
Ġm eulen
Ġb akker
Ġg aaist
Ġg ounent
at en
eur s
Ġvan wege
ain d
Ġaan w
ot el
ver b
ver hoal
ar s
eb riek
Ġsch aif
Ġsch oten
Ġsch ieter
Ġvr iend
ĠB et
ĠS mit
te s
ĠK ob
Ġdoar van
ĠJ urrie
Ġdou destieds
Ġtr ogge
Ġwil de
ant eern
ĠJan nes
Ġie der
Ġjong ste
af Ã©
eug els
Ã¶t ter
ĠOl le
Ġhait ied
Ġverw acht
Ġkun nen
Ġpeb aaiern
aamp ke
ĠVeen dam
ĠGl as
Ġgerd ienen
Ġell Ã¨n
Ġbejoar den
K inder
K erel
M Ã¶rgen
a ur
b ad
m aart
t ussen
v oart
Ã Ĵf
Ġ .
en nie
Ġd waars
Ġv o
Ġv ind
Ġt op
Ġt ak
Ġt Ã¶rf
Ġh oud
Ġh oed
Ġz uver
Ġz ingt
Ġk ur
Ġk aizen
Ġb is
Ġb eker
Ġl oaken
Ġp unt
Ġj ammer
Ġsch oapen
ĠH oes
ĠB os
icht e
ĠK unny
Ġhom zulf
Ġpr uit
iks em
dr ok
ders aks
Ġbest uur
oel en
Ġgroot s
Ġkeer s
ĠEl k
wie ke
Ġbesl oten
ĠLai meneer
Grunneg er
Ġbuut se
ĠDren t
D ie
D okter
L e
r on
t eb
t oavel
z oal
z eun
Ã ¤
Ġ et
ai der
Ġt ellen
Ġt ent
Ġh ing
Ġh oor
Ġz eu
Ġz ong
Ġz ongen
Ġk ok
Ġk anten
Ġg it
at uur
Ġs eg
Ġop hoalen
Ġst iek
Ġj uvver
ot je
Ġsch oam
Ġsch ep
ĠG ittje
ĠD ien
Ġgr aauw
ĠJ oar
ĠJ ob
Ġgain ent
ĠT he
Ã² t
se f
ĠR om
Ġzol der
Ġker ke
oas ke
ĠF lipje
bl ieven
Ġjong s
Ġzw em
Ġzw emmen
Ġboven op
ĠHai le
Ġdicht e
Ġnoam vaal
joar s
Ġvroag t
Ġverk eer
Ġspeul d
och de
Ġvie ver
Ġstem men
we zen
enn eer
ĠAp pie
ĠNien huis
J onges
Z eg
a u
a us
d iek
d ing
m in
m oand
s els
t kamp
u gen
w it
z ied
z oot
Ġm irreg
Ġt iene
Ġh a
Ġz en
Ġg auw
Ġen kel
Ġs ig
Ġs oep
Ġin st
Ġp iene
Ġp etr
Ġaan r
Ġaan v
Ġr eu
ĠG eb
Ġge st
sch oule
Ġf ot
ĠJ aantje
Ġkw ed
Ġdr uig
ĠT il
Ġwoar op
ĠL ud
Ã¬n de
Ġlu dde
Ġstr eep
Ġstr oade
br oken
ĠIn hold
Ġspr ak
Ġbek eken
Ġleg ere
Ġbew oners
Ġro ege
Ġversch il
Al les
Ġreg eld
Ġreg eln
ĠAl bert
Ġhui ven
Ġperb aaiern
Ġdeu s
Ġvat tien
Ġnoat ied
Zulf s
Ġverschillen de
! "
H Ã©
K innen
i den
i ste
m eziek
o ond
o ekt
o sten
r aain
y s
z in
Ġ &
ie b
Ġt ie
Ġt eg
Ġh oaven
Ġh annen
Ġb aaid
Ġg il
at ief
Ġl eeft
Ġl ippen
et ter
Ġvan oavend
Ġde c
de kt
Ġop b
Ġp il
Ġp okkel
aar men
Ġr aait
Ġr oare
Ġe em
Ġver bie
ar i
am per
Ġgr oep
sch oul
Ġwe d
Ġsl eudel
Ġzai kte
Ġwoar in
Ġtr ek
Ġmou s
Ġtied je
iz ie
ĠE p
Ġnij moodse
Ġaander s
Ġgel okkeg
leg haid
Ġrond om
Ġverd ainen
Al len
Vr ouger
inner k
Kom t
Ġspul len
Ġbiez unders
Tr ijnko
ĠVol k
Ġgeweld eg
Ġander e
bren gen
iale ct
A p
D an
N eder
a ste
d in
n ee
z elk
Ġ angst
Ġv ee
Ġm uren
Ġt as
Ġk amer
Ġen gel
Ġl oer
aa p
et jes
Ġs uper
ek ers
Ġp en
Ġaan sch
Ġr oek
Ġte veul
ar tje
Ġsch at
Ġgr af
Ġweer de
rie ke
Ã¶r gel
Ġbr oeken
Ġkr om
Ġwoar dat
ĠR adio
Ġachter om
Ġeer appel
Ġzol t
oet je
Ġtot oal
Ġc or
Ġzuk s
Ġmoeke s
Ġhel der
Ġpak je
Ġkerst boom
ĠDuut sland
Ġzeuven teg
do chter
Ġdun kt
Aander doags
Ġsek uur
uum te
A igen
C H
M et
d i
k oar
l ingen
m aarken
p akt
u c
y t
Ĥ ¬
Ġd aan
oa v
Ġm aag
Ġt achteg
Ġh eren
Ġh ister
Ġk ast
Ġk ist
Ġb aauwd
eu w
eg d
Ġde s
Ġp aas
Ġaan tal
Ġr idt
Ġe igen
uu g
ik de
am pen
ĠK o
ĠJ eu
Ġdr up
Ġbr oken
Ġjoe zulf
Ġvol g
sp ad
ode w
ĠF oabels
Ġtot dat
Ġmoo ier
Ġdai len
lu cht
be w
del e
Ġlaif ste
Ġverk eerde
Ġfl aauw
ĠAn nie
Ġken nis
Ġtoavel tje
Ġploat jes
zeg haid
Ġlet ters
eut eboom
Ġfeb riek
Ġmobiel tje
ĠLen ie
L oaten
a ven
l ood
m aans
en g
er ie
ai re
Ġw onnen
Ġh obb
Ġk ent
Ġk amp
Ġb eld
Ġl ieken
Ġl ood
or de
ij l
der man
Ġst elde
Ġp e
Ġp os
Ġp ampier
aar ten
Ġr eb
Ġr ap
Ġder van
ik a
ĠH e
ĠH om
ĠH oop
Ġon m
ui r
ĠM ooi
ĠK wam
Ġwor t
ĠT orren
Ġai weg
Ġkr aai
ker k
Ġpr acht
Ġachter deur
Ġ2 3
Ġvert el
Ġgl aske
gr am
Ġverl oaten
ich ie
ov vel
pr oaten
ĠSl im
Ġber icht
Ġgem ak
Om dat
Ġduuster e
ĠNederland se
Ġvek ansie
amm ee
ĠHen drik
Ġverdw enen
Ġvogel tje
Ġherinner n
Ġvergr Ã¨ld
ĠZuud hÃ¶rn
Ġam b
Mar ia
Ġbuus douk
ĠDelf ziel
ĠNe dersaks
Ġâ Ĥ¬
A iglieks
G ez
M M
U N
a ft
b um
b omen
f kes
g aang
h t
h et
k aaste
o bbe
Ġ uren
Ġd oor
Ġd oad
Ġn oag
Ġw innen
Ġv oart
Ġm ug
Ġt re
Ġo ch
Ġh open
Ġz uit
Ġk oken
st uk
st aand
Ġb aand
Ġb Ã¶l
Ġst amp
Ġst oof
Ġp oest
Ġp uutje
Ġr oakt
Ġsch aarm
Ġhai m
Ġzo wied
ĠD enk
Ġge dr
Ġoet v
Ġoet kommen
oo ster
Ġgr aauwe
ĠM eer
re eg
ier de
Ġwie ze
sch riever
ĠV ert
ĠV os
Ġbl iksem
ĠJ oe
oor ten
ĠN elleke
oam ers
Ġsp ek
ĠT ille
ĠP ieter
Ã² cht
eke ek
Ġstr oal
Ġstr aks
Ġman nen
ĠSt ate
Ġlai w
Ġker els
dag s
Ġsm Ã¶rgens
Ġjong kerel
Ġzw aart
Ġzw oare
Ġap aart
Ġlaif st
Ġkeu neg
Ġhaard op
ell er
irr egs
Ġlaid je
Ġraai zen
Ġmakkelk er
Ġopl Ã¶zzen
Ġland schop
Ġwo ond
Ġbedoul d
Ġbep oald
Ġopt reden
All ain
Ġnuig d
Ġkant oor
kwart ier
ĠTorren ga
B oer
D E
I N
c entrum
d a
d ak
f eur
g at
j oaren
k els
t ekst
Ġ Ã³
Ġd aanzen
Ġw ur
Ġv Ã¨r
Ġm ai
Ġm oag
Ġm ijn
Ġt ong
Ġz uske
in n
Ġb ol
Ġa bb
Ġs ing
Ġst eek
Ġp or
Ġmit moakt
Ġr om
og t
aan zie
ot e
Ġte v
Ġte vree
op per
al t
eb l
ĠW Ã¨l
Ġzo dounde
Ġon neu
ĠK w
Ġaal weg
ĠA BN
iet se
ĠP hilip
Ġkr oepen
Ġja ze
Ġwoar van
ĠR us
Ġkop pen
Ġstr ont
Ġter ras
oen en
ip per
Ġc ont
Ġvert oalen
Ġaigen lieks
ĠVer l
Ã¨n t
ic k
ĠFr Ã©
ĠFr ans
Ġ3 0
Ġoar d
ĠEl dert
mit s
Ġkerst doagen
Ġmoan den
Ġallen t
Ġpeb aaierde
Ġ200 9
Ġkou ke
win teg
Ġad res
ĠWer eld
Ġpoe sten
Ġeerliek se
Ġpu bl
Ġkrig st
wed stried
Ġdeze mber
Ġludde k
B oven
D a
S ami
b oot
g ing
j oagen
k on
k aante
l ijk
o zie
s ion
Ġd ure
Ġd ialect
Ġn aauw
Ġw aal
Ġw anneer
Ġv oaren
ie g
st of
Ġb u
Ġb uro
el ek
Ġg ooi
Ġl ok
Ġs it
der k
der de
Ġr uumte
Ġj acht
ken nen
aan gen
Ġsch oof
ĠD Ã¶rp
ak ob
aauw t
Ġgr am
Ġwie de
ĠV onk
rie t
ge ver
ter g
is s
ĠT j
Ġkon st
Ġkr aande
Ġkr aaien
Ġto et
se p
ne den
Ġstr oek
vel den
ust r
aarm s
Ġgen er
Ġme vrouw
ir ekt
Ġper bleem
ĠHeb ben
Hou veul
Ġbist oe
Ġber re
Ġmens ken
ĠKn elis
ĠJoh annes
Gel okkeg
Ġhoal de
Ġdruk te
ĠNederlaand s
==== ====
Ġsold oaten
Ġwink els
Hen ri
Ġkeb oal
5 9
A R
d ainst
h onderd
j er
m s
n k
n am
p ke
p ut
u ment
Ġ oadem
Ġn ummers
Ġw aait
Ġw angen
Ġm uid
Ġz ij
Ġz ang
Ġk ikker
st eb
in ie
ou pen
eur eg
Ġl oug
Ġl anden
aa k
om ie
Ġst Ã¶n
ol ders
as sen
Ġr el
Ġder aan
Ġver s
Ġver vel
aan ken
uu l
Ġsch een
ĠH ond
Ġgr o
Ġgr oaden
Ġbl onde
... âĢĻ
Ġkl opt
Ġbr oek
ĠT ot
Ġkr aa
Ġkr ing
sen t
ben aauwd
Ġtr illen
Ġeer abb
ĠWil ly
Ã© l
Ã© r
Ġel ekt
Ġjon gen
Ġont v
Ã¶t s
Ġ19 8
Ġ19 9
ĠKr Ã¶dde
ĠFr ank
ĠFr aans
Ġnui gen
Ġmoan dag
Ġluit en
Ġbelang stellen
Ġ200 8
ĠGron inger
uz z
Ġolder e
Ġschud de
Ġschud del
Ġkil o
ĠVol kert
ĠÃ¨n d
Ġregel moateg
Ġwand el
taiken s
Ġdank boar
ĠKar el
Ġgn iv
Mainst tied
Ġapper oat
) :
A ans
B in
B aaide
G e
O O
S tr
T ied
a ben
f ebriek
h el
m m
m eln
o ers
Ġn eer
ai ders
Ġw c
Ġv ak
Ġt aske
Ġt immer
Ġh am
Ġz ig
Ġz oad
Ġk aar
Ġk ne
Ġk est
Ġb eu
Ġb ekeek
Ġa stoe
ou men
Ġl eerde
Ġs c
or ry
on ie
Ġp ut
Ġp art
Ġaan l
Ġaan keken
aar gens
Ġder veur
ken d
Ġver br
Ġver pl
il derd
Ġsch ure
ĠW otter
ĠW inter
Ã¶ ch
ui ven
ter en
Ġkl ompen
Ġdr onken
ĠN om
ĠO ch
Ġsl inger
Ġai g
uut s
Ġlu st
Ġstr oalen
Ġvraauw en
ip p
Ġc ent
Ġsw oare
od de
Ġbel oof
Ġverl egen
Ġont stoan
doag se
Ġnk anner
Ġleg er
Ġverb oazen
Ġfl ink
ĠFr ee
Ġkerk hof
ĠOl d
Ġverst aand
Ġhoog ste
ĠAl l
Ver rek
Ġ200 6
eter ij
!! !
geb r
ĠBie bel
Ġperb aaierde
Ġstuur d
Ġmain de
Ġalle moal
Ġkoar tje
Ġbetaiken t
gem ain
ĠGees ke
tj o
Ġcon tr
Ġgesch iedenis
Ġtwie vel
Ġrek l
Ġverhoes d
Ġgehaai m
ĠHogel aand
Ġschieter g
2 4
2 00
? )
D ikke
O af
b ain
b us
b oas
b aanke
e zen
h eur
z eker
Ġ anders
Ġd rie
oa ders
Ġw ist
Ġv een
Ġm ui
Ġh oat
Ġb ank
Ġb red
eu s
Ġi j
Ġl egen
Ġl amp
Ġs h
or den
ij ke
je ct
Ġst ait
Ġin f
Ġin tied
Ġp oal
Ġaan bel
Ġr oaken
Ġder oet
Ġver ske
Ġveur noam
Ġveur lezen
Ġte veur
op er
un del
ar rie
ik je
Ġbie tje
Ġbie bel
oan tje
Ġge en
len e
Ġover b
sch aaiden
Ġf in
Ġf ien
Ġbr ingen
Ġbr anden
ĠT w
ig gel
Ġnoa d
Ġol ler
Ġvot goan
Ġpl aank
Ġachter noa
ĠE g
oet er
Ġko ien
Ġonder zuik
ist or
Ġbet oald
Ġuur tje
ĠOp oe
Veur aal
Ġro eken
Ġverb oden
ĠOl derman
Ġzug st
Ġ201 0
Ġverr azzen
Ġgeh eur
Ġend je
?? ??
ĠÃ¨n de
mid dag
ĠHarm ke
Ġam per
Ġongel uk
OA R
Ġhong er
ĠBel g
ĠDikke ma
Ġwief ke
Ġmel eur
Ġmuz ik
wet se
Ġaanw ez
aur ant
Ġpos it
ĠNom den
A b
B ed
D och
G eef
M oak
b os
b oek
e ver
i der
j an
m oe
n ait
v ier
Ì ģ
Ġd aaiern
Ġd rieven
Ġw up
Ġv eeg
Ġm and
Ġt il
Ġh aail
Ġz us
Ġz anger
Ġk eren
Ġb uten
Ġb aanke
Ġg eest
Ġl ukt
et iek
Ġs Ã¬nten
or st
ek n
Ġin sp
oe sten
ke d
ĠW ad
ĠW oon
zen t
ĠG en
Ġvr ol
Ġbe elden
ul ie
ĠM O
Ġdoar op
ĠV eul
ge z
ad del
oud eg
ĠJ ez
ers oun
em oa
Ġkl im
Ġkl anten
Ġdr ukt
Ġsl eu
Ġsl ap
iet sen
Ġbr ak
Ġtou glieks
Ġkr open
Ġwoar schienlek
ut s
Ġjoar eg
Ġstr af
ĠSt ain
ĠJan sema
Ġaander doags
Ġnet jes
sl oeten
Ġsn achts
Ġgel euven
In ains
Ġsw aarte
ĠSch ier
ĠSch iere
Ġben ijd
Ġgew eer
Ġel f
Ġwieder op
ĠVer hoalen
amp ie
ĠIn geborg
land se
Ġbez ied
ĠdÃ¶rp s
ouw en
Ġvrij dag
Ġbegr ip
Ġtel ev
Ġvlai gt
ploat se
ĠHol tkamp
Ġzul m
Ġgebr uuk
Ġpar keer
________ ________
ĠkÃ¶ ster
urs us
Ġhie le
Ġnikk opte
Ġoavent uur
Ġteveur schien
K at
T ou
T ussen
V erd
b ez
g an
l a
l ag
z un
Ġ 0
Ġd ammee
Ġw iz
Ġv echt
Ġt eun
Ġh eul
Ġk oezen
Ġk aalm
st eld
st ainen
st oule
st reek
in eke
eu ter
ou te
Ġen th
Ġl id
Ġs un
Ġs ier
Ġs inten
or is
on ner
Ġst oken
Ġst ijt
Ġp aar
Ġdat tien
Ġver geet
ik h
Ġsch oe
Ġsch elen
ĠW ubbe
Ġom maans
ĠH em
ĠD an
Ġoet r
oo ske
ul der
Ġgr oaven
Ġgr iep
us eum
oam es
Ġbr il
ĠT op
ĠT ied
ĠT aiken
Ġpr ob
Ġtr il
oot jes
id s
Ġvl aais
ĠF acebook
Ġgel egen
ust us
eln de
Ġogen blik
Ġgez in
ieden s
Ġrond je
Ġper f
ĠVer hoal
hol t
Ġpak de
Ġ19 7
St el
ĠVr oag
Ain moal
Ġbruier tje
ikk eld
ĠDr oad
ĠNou es
Ġdom me
ac k
Ġor reg
red ies
Ġriek dom
bouk je
Ġstaar ven
Ġkont akt
AN D
Ġopz ied
Pl ietsie
Ġaang aait
ple eg
Ġvrem d
Ġenth ou
0 4
E en
H er
H aarm
P er
T e
b oven
h ot
h ouk
h aalf
h oorn
i al
k a
p ert
p unt
r aais
t jen
u dt
y p
z inneg
z ulm
Ġd oalek
Ġn oord
Ġw izzen
Ġw end
Ġt it
Ġh oaren
Ġh ekel
Ġk or
Ġk oal
in st
in ders
Ġb ankje
at t
ou ge
Ġs je
Ġs oezen
Ġs unt
om b
der ne
ok k
aar f
Ġr ok
Ġver bl
Ġver volg
Ġveur eg
Ġveur joar
op a
al d
al tje
Ġsch arr
ĠW aar
ĠW eerden
Ġon rust
ag el
ten s
Ġgr en
Ġgr ipt
ĠM in
ĠM et
Ġwie zen
Ġkom p
Ġf les
... ,
Ġkl oagen
Ġwor st
ĠT V
ur ven
ĠR aand
Ġpl of
Ġpl annen
Ġachter op
Ġeer lek
ĠE N
uil en
ĠSt il
Ġtwij e
ĠF l
Ġkn ap
Ġgl oazen
hoes ke
ud de
lu b
Ġschrie ft
Ġzok zulf
Ġslim mer
Ġspr ingt
Ġlaif heb
kr egen
Ġgruin te
Ġmot ten
akk ers
Gr unnen
Ġrou p
ĠNij s
Ġluuster de
Ġelkenain e
Ġverdrait eg
Ġnuver e
av ven
ach ies
Ġheu gen
Ġbev ubbeld
Ġdonker e
iem on
Ġvoetbal len
Ġdu vel
Men eer
aard ie
ĠOa bel
Ġeul ie
jebl ieft
Ġveurz itter
ĠEurop a
Ġvee arts
Ġtev reden
B el
D Ã¬n
D enk
E G
K op
M os
T oen
b oan
b and
g ek
g aait
i x
k ool
o zen
o Ã«
p akken
r oam
t aik
oa ze
Ġt ap
Ġt azze
Ġh oaver
Ġh otel
Ġz innen
Ġz enen
Ġk oor
st oul
Ġb onen
oar st
Ġop ains
ol de
Ġp annen
Ġaan recht
oe ien
Ġr ez
Ġveur beeld
al k
zen den
am b
Ġof st
ak ter
ĠB art
Ġgr ijn
ĠM oi
icht ing
Ġover leden
Ġwe sten
ĠV ink
rie g
ĠA lex
elk haid
Ġkl azze
ĠN ico
Ġsl eep
ĠL eer
Ã¬n sen
Ġkop kes
ĠE erste
ft ien
Ġ1 00
Ġstr ak
Ġter og
Ġvl Ã¨
Ġvl inder
Ġvl eugels
vel t
sl oot
Ġmin uten
Ġgl in
Ġsm eet
gel ieks
Ġzuk zulf
Ġsw em
Ġgen ieten
vr oug
Ġbed stee
Ġbez uiken
omm elde
Ġtoen tje
aacht s
Ġonner wegens
Ġvou er
Ġhand el
Ġnam en
Ġblied schop
ikk eln
Ġ201 1
ĠHou veul
Ġantwoord de
ĠOm mel
uv els
Kl aas
Ġstoet je
Ġbliek t
ĠkÃ¬n nen
mid dels
Wil st
Ġwar ren
ĠTe ake
Ġgerd ien
haal ve
Ġdunder dag
aim ke
Ġprie zen
Ġopgr uid
Ġprakkez aaiern
Ġartie sten
ĠRaand stad
. )
2 5
B eg
C or
G ees
J E
Z under
d ik
l aag
l oane
m aank
m eulen
o zzen
r oeze
Ġw Ã©l
Ġv le
Ġm aart
Ġm aist
Ġt oes
Ġo uto
Ġh un
Ġh up
Ġz acht
Ġz aail
Ġk ort
Ġk Ã²l
Ġk aaste
st ikke
Ġb oard
Ġb atter
eu neg
Ġa b
ch e
ch ies
ou m
Ġl aiten
Ġl ach
it ie
Ġs ie
Ġvan n
Ġst olen
Ġin ainen
Ġin derdoad
Ġp ank
ok te
Ġr oazen
Ġom e
ĠH aalf
am a
Ġal vast
Ġhaar fst
Ġgr uit
re ekt
Ġover komt
ĠK en
Ġdoar deur
Ġbl if
Ġle ver
Ġmo eten
Ġdr oag
Ġdr ukken
ĠN et
Ġsl aip
ĠZ ag
Ġwoar e
ĠL icht
ĠI tal
Ġeven pies
Ġtr Ã¶ts
ĠR em
Ġachter n
Ġtegen wor
Ġtw ee
sp l
ĠF ennie
ud d
Ġall Ã¨nt
Ġged uld
br and
oel e
deg haid
Ġ19 5
kel ke
Ġnui mde
Ġmis schain
ont eur
Ġkun sten
Ġverdw een
Ol le
amme et
Ġsuk ses
Ġhailen dal
Ġked o
Ġspaigel ploat
ĠlÃ¨ st
zz ip
Ġcon c
ĠTwij de
Ġvlug t
ovv ie
ĠAmer ikoa
MM ER
2 3
D ai
E er
J oen
K w
N o
O U
S w
a ut
n o
p oort
s ver
s ma
u ste
v ven
z i
z ul
er a
Ġd aank
Ġd aans
Ġn icht
Ġw ai
Ġw et
Ġv izzen
Ġm uil
Ġm Ã¶s
Ġh oag
Ġh eeft
Ġk ouk
Ġk elder
Ġk ikkers
st uurd
el oos
Ġa kt
Ġg aan
at h
Ġl ut
Ġl iene
eer tje
Ġop nomen
cht e
ol t
Ġp el
Ġp ooske
gen oam
Ġr eren
Ġr abb
Ġder over
Ġver en
Ġveur al
ver hoalen
le f
le vern
al der
oat uur
ĠG oud
ĠG eef
Ġvr aid
Ã¶ st
ui kema
Ġof lopen
Ġoet geven
iek er
ul l
innen t
ĠK an
Ġdoar over
ze s
ĠV aaier
ĠV elde
Ġf ig
Ġain egste
Ġmo i
Ġkl okje
ĠN U
Ġsp in
Ġtou val
Ġtou gelieks
ut te
uut se
Ġtr ekker
Ġtr oost
Ġnoa denken
Ġwer d
ĠR ainder
im pel
Ġpl anten
Ġpl ekje
Ġachter hoes
ĠE em
Ġhier zoot
Ġstr oaten
ĠSt oal
Ġzun ner
Ġ2 6
Ġkn ienen
Wie der
Ġc afÃ©
Ġgl Ã¬n
Doar noa
Ġsm ook
Ġged achte
od ium
Ġjong elu
Ġgez ichten
Ġwaiten schop
Ġpa zzip
Ġdrij e
ic e
oater dag
Ġversch ienen
vol le
Ġploat sen
Ġ3 3
Ġduuster n
ĠNoord horn
if f
if ten
ĠSp elde
ikk ie
wie zen
Ġheer goan
Ġvis sen
Ġaand re
iedr inken
Ġdoag s
Ġsuk ker
Ġtoe ze
Ġoom ke
ĠDuuts ers
ĠkÃ¶ st
ommer dag
Ġlange s
Ġplest ieken
Vand oag
Ġzeu ns
Ġdec ember
ĠTille ma
Ġenthou si
A M
G uster
G ew
H ar
L et
P as
a de
a ver
a ber
b eg
d ie
d aip
e se
g gen
h aar
k oop
m o
t ocht
w icht
Ġ and
oa ke
ai w
Ġv el
Ġv ienen
Ġv ieren
Ġm a
Ġm aarkt
Ġt uzzen
Ġo dder
Ġz and
Ġk oale
Ġk eel
st ien
Ġb eurd
el ier
ou st
Ġl oag
Ġst oadeg
ol og
Ġr em
ver l
Ġsch ait
ĠW or
ĠW icht
ĠW uir
ag gen
ĠB oots
Ġwie zer
Ġover al
ĠK aampke
Ġbl ui
Ġf luit
Ġain ege
Ġdou l
ĠA ustr
ĠN oor
Ġkin s
aal ven
ĠO h
Ġsl acht
Ġsl oeten
Ġbr eken
Ġbr ekt
Ġwor rels
ĠZ it
ĠZ ee
Ã² r
ĠL et
ne els
im on
Ġkop z
ĠÃ²f stand
Ġtw inneg
Ġzun n
oen tje
sp annen
Ġsn Ã¶t
Ġmin ne
Ġsw emmen
ĠSch rief
Ġfiet ske
ir us
ef f
Ġspr ongen
Ġverl aizen
ĠdÃ¶rp ke
ĠBl ief
Ġstuk jes
akker ij
aander e
Ġhest oe
Ġploat se
Ġmis sen
Ġspeul goud
Ġvie ftien
ĠWester kwartier
ĠkÃ¶r de
vl oud
vl ogen
Ġvertr okken
Ġleef de
app ers
geb aauw
Ġor gan
Ġverdw ienen
Ġstoef bie
Ġdichter bie
Ġschil der
ĠWol f
Ġgrie pen
anc e
Ġopsch reven
Ġbloum kes
Ġem mer
Ġvrem de
stoal ege
odew es
Ġonneu zel
ĠBoots man
. âĢľ
A st
E T
L ekker
N on
S oavends
T hoes
c on
c us
d ijk
i ber
j on
l oze
p ak
r ad
r ug
Ġ ellen
Ġ ?âĢĿ
ai er
Ġv ier
Ġm oezen
Ġm ure
Ġh eern
Ġh ev
Ġz oepen
Ġk e
Ġk ans
Ġb oord
Ġb ood
el tjes
eu tje
Ġa ait
Ġg ol
Ġl ap
eg heden
et t
Ġs oorten
Ġop h
Ġop vreten
Ġst eden
Ġp an
Ġmit doun
Ġr en
Ġr oet
Ġr unt
Ġj aas
Ġver vol
Ġte hoes
uu ste
op pie
oal ie
Ġbie droagen
ĠW ichtje
Ġom dele
ĠG ep
Ġas mits
Ġvr ouge
Ġoet drukken
oo id
ĠB oven
ĠB odewes
ĠS k
ĠS nij
Ġgr uide
Ġgr amm
ĠM er
ĠK erk
ĠV oader
ste mmen
rie gen
Ġle zers
Ġkom m
ĠJ on
Ġdou k
ĠA ans
uur man
Ġdr inkt
ĠO P
Ġsp es
ĠP eerd
ĠL ut
oag ers
Ġol den
ĠR e
Ġhail tied
ant woord
ĠÃ²f schaaid
ast je
Ġvol gen
Ġstr oeken
Ġko zen
Ġko sten
ĠSt el
oen sdag
Ġgeb it
Ġsm ui
dat teg
Ġaigen ste
ĠSch ol
Ġschier ste
oun de
sw oar
ind a
Veur dat
uin e
ĠAn noa
Van Ã²f
ĠU r
ĠU ut
Ġgeld t
Ġrie p
Ġrie gen
Ġhoog te
ĠEl is
arr eg
Ġmeugelk haid
Ġstap de
Ã²l len
amm el
Ġor anje
moak er
uv vel
Ġknip t
Ġkol de
Ġrest aurant
Ġkoar ten
ĠAr be
Sn Ã¶t
Ġverdain d
Ġsold oat
âĢĶâĢĶ âĢĶâĢĶ
Ġste vel
ĠLaif de
ĠAmer ik
Ġdomm ee
ĠPait er
ĠbÃ¬n nen
Ġwed stried
Allen neg
ĠNedersaks isch
steb oven
Ġij s
ĠJez us
Ġgrijn s
ĠNU MMER
A D
E r
H o
H oe
J oh
K wam
M is
M id
W ol
b et
c l
d oezend
g ers
h oe
p older
r eken
w eek
y ce
z ege
z uiken
Ġ eterij
Ġd euze
Ġd irekt
Ġd oames
oa vels
Ġw aang
Ġv aste
Ġm ar
Ġh ekje
Ġz akt
Ġz achies
Ġk euze
Ġb Ã¨re
Ġen erg
Ġl en
Ġl ien
Ġl aai
Ġl aam
Ġl oeren
aa f
ij den
ain sten
Ġst art
Ġp at
Ġp est
Ġp ert
ken t
Ġver pleeg
Ġveur op
ver en
ke moa
al iteit
oat ers
Ġsch ieten
ĠW it
Ġas jeblieft
ĠD us
ied eg
Ġvr is
Ġvr eugde
Ġbe et
Ġbe denk
ĠB on
ĠB ult
ĠS ie
ĠS iet
Ġgr om
Ġgr ens
ĠM I
re m
Ġwie t
sch uld
ĠK er
Ġwe eg
ĠJ a
uur t
Ġbo og
Ġsl oa
Ġsp ec
ĠGr ait
Ġto cht
Ġto eren
ker n
Ġtr oan
Ġnoa der
ĠR egen
Ġtied schrift
ĠE en
Ġkn al
Ġre vier
Ġgl oep
Op oe
Ġsm Ã¶rns
aang s
Ġall aank
od om
ef ee
kl ap
Ġspr ekt
Ġkovv iedrinken
schop pen
Ġont st
Ġklaain er
Ġkoamer tje
ammer t
ĠMar lene
Ġmis hot
ĠWester dijk
Ġbegr oaven
zeg d
Ġvertr aauwd
Bl aauw
Ġlie st
Ġschrief ster
ĠMan ske
Ġgevoar lek
Ġbep oalde
anc a
Ġek stroa
Ġhouk je
stroat e
Ġopp azen
Grunneg ers
Boeten des
Ben oam
Ġond anks
vat teg
Ġspannen d
ĠdÃ¶r st
idder sloagen
arb ara
Ġaug ustus
Ġvriend in
Ġpaas de
Ġkraa b
ĠDroad proat
B Ã©
C roeze
J oaren
N oord
S M
S te
S oam
T h
h Ã¨n
i oan
i Ã©
m ail
u es
v ek
w eerd
w ind
w ets
z ai
z eb
Ġ >
Ġd izzent
Ġn oorden
Ġm eug
Ġh oak
Ġh ap
Ġh oane
Ġh ikh
Ġz Ã¶ch
Ġk uren
eu ten
Ġg ier
Ġg aven
at o
et ers
Ġvan of
om e
Ġst eun
Ġst ook
Ġin t
Ġp reek
ven t
Ġver te
Ġver nomen
Ġver zichteg
Ġver keren
le verd
al is
Ġsch oel
Ġsch aaiden
Ġas f
Ġal bum
Ã¶ g
Ã¶ mer
Ġbe den
Ġoet sproak
Ġgr ai
ĠM ie
re de
Ġwie l
sch ool
sch rieven
Ġaal s
ster t
Ġbl oazen
Ġbl aik
Ġf ersoun
ĠJ oap
Ġain v
oor tje
Ġkl okken
Ġbo zzen
Ġbo dem
ĠO r
Ġsl oug
Ġbr aiven
Ġbr agel
Ġsp el
Ġsp iet
Ġdin kt
ĠT och
Ġai veg
Ġjoar dag
Ġpl addel
Ġachter over
Ġstr eu
Ġstr eken
ieken s
Ġsn aachts
eker ij
Ġme el
Ġper gram
Ġverd aipen
omm ege
Ġont dek
omp ie
Ġkeer ske
Ġbew ust
out nis
Ġversch een
Ã¶rg d
zoam e
ĠMar ie
Ã« l
Ver a
Ġ201 8
Ġverdw ient
ĠMid winter
Ġzul ver
apper n
Ġschud den
Ġnoat uurlek
dert oal
Ġpep ieren
Ġaller h
Ġstev eg
ĠTer ry
Ġbaist je
Ġbuut s
Ġschuur tje
ĠBern lef
Ġkwoa jong
wer eld
Ġwoarsch aauwen
Ġdoad elk
Ġmuil ek
ĠArbe ider
F lipje
H Ã¨
T ER
U T
W im
W aiten
b aand
b oog
e enk
i anca
j oa
n ers
o z
r eltje
u e
y ch
z w
z at
z ien
Ġ /
Ġw oapen
Ġv ari
ie be
Ġm ee
Ġm okt
Ġt v
Ġt anden
Ġk oater
in ke
el aand
ou de
Ġen keld
Ġl apt
Ġvan zÃ¶lf
Ġop eten
Ġop maarken
der en
Ġst oen
Ġp aark
ok jes
Ġaan tr
Ġver ainen
aan se
Ġveur waarp
ver ten
Ġsch udt
Ġbie ten
Ġzo dder
Ġze stien
ĠD ut
ĠD ur
aai zer
Ġmie ter
Ġvr acht
Ġvr ed
ĠB ed
ĠS ier
ĠS iemon
ul deg
ster g
ster wieke
ĠV and
Ġf ik
Ġf ant
elk se
Ġmo derne
em ain
Ġwor d
ĠZ and
Ġkr uus
ĠI es
Ġtr ovven
Ġmou der
ur f
Ġbeg el
Ġtegen kommen
Ġonder d
Ġdoe m
Ġsn ee
ĠF eest
Ġsm ak
Ġaigen liek
os ette
Ġbel eefd
Ġgez ell
Ġbed ankt
Ġzok se
pl aain
Ġvon gen
nij sterwieke
Ġverg oadern
Ġgaauw achteg
he im
Ġverk oop
ov ver
ĠlÃ¶ zze
Ġher der
Ġvou tjes
verd oatsie
ĠDij k
vl aigen
ĠDr ij
Ġzeuven tien
Ġverz eker
Ġwit te
Ġzummer dag
Ġbeh uif
Ġhe eg
Ġwast oe
Ġdun ne
ĠzÃ¶lf s
Ġbaank je
Ġaanb oden
Ġnuim t
vie w
ĠLe ste
ĠVis ser
ĠbÃ¶rg meester
Ġpie pen
Ġreaksie s
Ġdubb el
ĠNie hof
Ġseg oar
Ġtie ger
Ġgedr ag
Ġkne cht
Ġrekl oame
2 7
A ar
D as
E urop
H aren
M insen
O ma
T V
T iny
U ut
V ief
b ar
d y
d Ã¶rp
f on
f eer
h anden
h eufd
j onges
l ien
m ie
m ak
m aarkt
n ou
p ries
s benaauwd
t oalen
Ġ uw
Ġn a
Ġn eg
Ġn ot
Ġw ens
ie te
Ġo ef
Ġh ang
Ġh Ã¶rn
Ġh unneg
Ġk ie
Ġk am
Ġk efee
Ġb aide
eu gel
Ġg asten
at or
Ġen ne
Ġl eken
Ġl ainen
et ern
Ġs e
Ġs erie
ij er
Ġst aal
Ġaan kwam
Ġr ekend
Ġj anken
Ġe h
Ġveur eerst
uu gd
Ġheur zulf
oal t
oat s
Ġsch ienen
Ġsch oft
Ġmor zo
ĠW ar
ĠW elke
ĠW ulm
Ġom goan
ĠH ij
Ġas iel
Ġmie mer
Ġge p
Ġoet p
ĠS odom
ul a
Ġover nomen
ze f
Ġbl ind
Ġf ie
ĠJ ac
ĠJ akob
ĠJ ampie
... ?
Ġkw eek
Ġkl ant
Ġkl aine
ĠN euteboom
eul ie
is sen
ĠZ eg
ĠZ iel
ĠT egen
Ġwoar bie
ĠI toal
Ġzeg st
se pt
Ġpr at
Ġpr ogr
Ġol len
iz on
Ġpl ant
id ag
ĠÃ²f sproak
ĠE er
ĠE rik
Ġko ok
Ġaander kaant
Ġ2 7
Ġkn ie
Ġkn op
Ġsm iezen
Ġaar f
ĠSch l
ĠC o
Ġzw ait
be wies
Ġap par
Ġstil leghaid
Ġhem els
ep ier
Ġlaank oet
Ġverd ocht
omen ten
kl eur
Ġklaain k
St il
Ġversch r
Ġversch elen
ĠVr ouger
Al le
ĠFr an
Ġduur d
ĠSl ochter
Ġber o
Ġschoul meester
veur beeld
Ġgek l
Ġoor spr
ĠEl kenain
Vr oag
Ġvie ve
Ġkerel tje
Aal tied
ĠJo zef
Ġmeugelk heden
Ġ201 3
Ġmidden maank
Ġbesl oot
Ġverr ekte
ĠHen derk
all inga
Ġzul de
ĠÃ¬n de
Ġdoag lieks
Ġvuur waark
ĠOet hoezen
On ner
ĠPl oeg
Ġgezel schop
ĠBen z
Ġkoar tjes
ĠSun ner
Ġschaar pe
Ġverm oord
Ġalder deegs
ĠBeg un
Ġaarb aiders
Ġeul iek
Ġspiek er
Ġsteern s
raai ze
ĠSpr oak
Ġwon ing
ĠGrÃ¶n nen
Ġbejoarden hoes
Ġgro der
oÃ« zie
A d
L ang
N eem
N ije
W acht
W azzen
Z w
b ui
b oeren
h in
i oen
j et
m t
m irreg
p h
p uut
w ant
w oners
z under
Ã ´
Ġ Ã©
Ġd ammeet
Ġn of
Ġn adde
Ġw us
Ġw aaide
Ġw adden
an terg
Ġv leden
Ġm eld
Ġm oalen
Ġm aarken
Ġm onnen
Ġm elden
Ġh ut
Ġh enk
Ġh uf
Ġh oorn
Ġz oaterdag
Ġk olen
Ġk are
Ġk Ã²cht
st ell
Ġb aisten
eu gen
ch n
Ġg ege
Ġg ere
Ġg aanzen
eur ten
et h
Ġs okken
om oat
Ġp odium
aar gen
Ġr out
Ġr iddersloagen
Ġj u
ven d
Ġveur aan
op moak
le ver
ik ip
Ġsch eer
Ġsch ot
Ġien ains
ĠW aark
Ġzo er
ĠH ait
ĠD am
ĠD okter
ĠD aip
am en
Ġhaar s
ĠM es
Ġover d
ster de
ĠV ek
ĠV eenk
rie zen
ge val
ĠJ er
ĠJ aap
Ġmo dder
Ġdr ink
Ġkr oam
Ġkr opt
ĠL u
els ke
ne chie
Ġpr oater
ig r
im p
aaier den
oon stellen
Ġeer ns
Ġzit st
Ġko ek
Ġko ol
ĠSt aal
Ġlai we
Ġzun de
ist ische
ip s
Ġc r
Ġre sep
Ġgl ieden
Ġsm ieten
Ġsw ienen
per d
br oek
Ġzel f
Ġzel st
vr oagen
Ġstil stoan
Ġdicht bie
aif d
Ġverg at
spr oaken
Ġleu gen
Ġkeer skes
Ġro zen
Ġklaain dochter
Ġversch enen
up pen
Ġrust en
ĠlÃ¶ sl
Ġber e
Ġrie ke
Ġvrij haid
akk ie
El ks
Ã³ s
Gr ode
EU R
sel ke
Ġbegr ipt
Ġblou me
Ġpot lood
Ġluuster t
Ġpeb aaierd
waar pen
uz zel
Ġaand oun
Ġmain t
Ġgebr ek
Ġgebr oek
Kr euze
Ġschud kop
Ġnat uur
oc k
Ġak k
ikker t
ĠEngels e
ĠÃ¨n ne
Ġtem in
Ġzicht boar
Ġdw arr
ĠGel uk
Ġaut ootje
ĠÃ Ĵf
Ġschaar p
Ġbetaiken is
ĠMen eer
ĠCh rist
Ġy ou
ĠWesterket ier
Ġdek sel
Ġmeu bels
ĠwÃ¨n st
Le ste
Ġreb ulie
Ġstamp pot
Ġsit u
Ġgram n
ĠFrank riek
Ġgelegen haid
Ġgren zen
Ġmeug lek
Ġpladdel aand
ĠSchl Ã¶mer
ikip ed
B aaident
G od
G iny
K E
L O
L utje
O om
S pr
a der
b aarg
c a
k und
k euken
m and
n eke
r ond
s d
v oar
v oader
v inger
w edde
Â ©
Ġd uvels
Ġn ie
Ġn achten
Ġw a
Ġt elt
Ġh ege
Ġh aaiden
Ġk apt
Ġk oamers
Ġa ff
Ġl am
Ġl ied
Ġs o
or re
Ġvan uut
Ġde kens
Ġop stoan
Ġst urven
Ġp aan
Ġp oes
Ġp izz
gen oot
gen oten
Ġaan k
Ġaan trekken
Ġver an
Ġveur over
Ġveur koamer
Ġwas sen
ĠW E
ĠW eek
ĠW iekens
Ġom r
Ġze dde
ĠG ert
ĠH am
ĠH oofd
ĠH innerk
Ġbe sp
Ġoet kiek
ĠS ien
sch ier
sch oten
ĠK amp
Ġdeur lopen
Ġbl oot
Ġbl oaren
En ne
Ġf le
Ġf un
elk aast
Ġkw art
Ġdr agt
ĠN iks
oam elk
Ġsl ot
is ie
Ġbr ogge
Ġsp l
Ġdin sdag
Ġtou geven
ĠL aand
neg er
ker ij
Ġdie verdoatsie
Ġpr uiven
Ġmou dertoal
Ã¬n d
ĠR iek
ĠGrun n
Ġeer b
Ġeer doags
ĠÃ²f l
Ġtegen aan
ast land
oad je
Ġonder wies
ode m
Ġsn ieden
ug o
Ġmoo is
ĠIs ra
Ġverh oezen
Ġsm it
otter n
Ġbegun d
ĠC ato
liek se
ĠGrunneger laand
vr oag
hol dt
Ġ19 3
Ġklaain kinder
out ube
ĠU t
und els
Ġrie bewies
Ġspeul den
Ġschoul tied
inner ns
ĠJo yce
Ġaai gen
Ġspul tje
ĠGron ings
Ġbesl ist
ĠMid wol
Ġschil d
Ġaargens woar
ĠGe w
Ġstaar ker
ĠHer man
Ġbak je
Ġveu le
Weer om
ara van
Ġgezond haid
Ġbul ten
ĠY ou
ris is
Ġim mer
ĠKob a
Ġpe per
Ġkeuneg in
Ġbeloof de
Ġhev ve
Ġlapt op
Ġzodder dag
D omie
G aait
H anne
J oakob
M ooie
V uil
W er
W ait
W enneer
Z it
b ek
b aaier
c c
e ct
h al
m oeke
o idag
p et
p te
r om
v ve
Ġ X
Ġ Ã¶rgel
Ġd ooie
Ġn och
Ġw ad
Ġw ale
Ġw izz
Ġv eer
Ġv iel
Ġm ail
Ġt ikt
Ġt uun
Ġh eerd
Ġb elk
Ġb all
Ġa f
Ġg ast
Ġg aist
Ġen z
Ġl oon
Ġop geven
Ġop holden
Ġst omm
Ġst Ã¶t
Ġst opte
Ġst rieken
Ġin r
ol oog
ol ler
Ġp omp
Ġr aive
Ġj an
Ġj aar
Ġj ur
Ġver spr
Ġveur uut
ver g
ver k
Ġsch oa
Ġsch oven
Ġsch one
ĠW e
ĠW is
Ġzo on
ĠG riep
ĠH aart
ĠD ood
Ġzien ent
Ġvr o
Ġoet leg
Ġoet kieken
ĠB oas
ĠB Ã¶rg
Ġgr ui
ĠM ulder
Ġover st
Ġover dag
sch ud
Ġmien jong
ĠK innen
Ġbl uien
Ġf el
ĠJ etje
oor de
Ġkl omp
Ġbo egen
Ġdr eef
ĠO altje
is c
Ġsp oren
ĠZ ummer
ĠZ under
Ġkon s
ĠP im
ĠL i
ĠL ies
um p
um pel
ker els
Ġpr od
Ġnoa z
ĠR ikoa
im a
im eter
iz zie
Ġpl aain
Ġpl akken
id a
ĠÃ²f sproken
ĠE erst
Ġvol gt
Ġstr akke
Ġstr uun
ĠSt allinga
sp eulen
ug st
Ġc d
Ġc ir
Ġ... ?
man nen
Ġgl idt
Doar noast
Ġsm okje
Ġaar ger
Ġdik ker
ocht en
Ġfiet spad
Ġben ul
vr ij
Ġhar m
str eken
Ġdrij en
Ġeen den
Ġspr oken
omm ed
Ġhel p
spr eken
Ġkeer zen
elt oat
ov veln
Ġverb onden
Al s
Ġkerk je
woord eg
Ġhait en
ell ie
Ġloop t
Ġstroat e
ĠWester wol
Ġduuster nis
Ġverdr oagen
ĠGer ard
zeg gen
ĠDer kie
Ġgevuil ens
Ġkeuken toavel
Ġpeb aaiert
Ġ201 4
Ġ201 5
Ġvertr aauwde
ged ijk
!! !!
Ġperb aaierd
Ġperb lemen
Ġ5 0
uf feur
Ġhum or
Ġsoamen waarken
ks els
Ġsuk er
Ġlie ster
Ġveraander d
Ġmes ien
Ġmes schain
Ġstud Ã¬nt
ĠSw artje
Ġopz uiken
Ġoetz uiken
All inneg
ĠSte ven
ĠMen ze
Ġhal daal
Ġbrand weer
Ġtraauwen s
bed rief
Ġex tr
goa ve
Ġfluuster de
Ġversw onnen
Ter wiel
ĠzÃ¨ ggen
Ġwen nen
ĠwÃ¬n st
Ġhart stikke
Ġreag eerde
wil leg
ĠEr win
Ġlek kers
teb oer
Ġonm eugelk
Ġmug gen
Ġmai ste
Ġabb els
Ġinsp ir
bez uik
Ġpank ouk
Gew oon
ĠSunner kloas
2 6
A r
A les
D A
J urrie
K reeg
N ooit
O T
T oal
W ees
a bbe
b aaident
d ou
i ke
j oans
l anders
n ander
o eker
p ost
r oat
v Ã¶rm
w inneg
y outube
Ġ *
Ġ oap
Ġd oes
Ġn ut
Ġw enk
Ġv est
Ġt j
Ġt aan
Ġt aimke
Ġo h
Ġo er
Ġh ongen
Ġh onde
Ġz aa
Ġz on
Ġk eur
Ġk ez
Ġk aauwen
Ġb eer
Ġb aarm
Ġb onken
Ġb uzzen
Ġb aiden
el ijk
eu le
eu vel
Ġa ail
Ġg eg
Ġg ar
Ġl oa
Ġl ichten
Ġl anteern
Ġs ol
on ing
Ġde ken
Ġst oe
Ġst oel
Ġst elt
ol on
Ġp aardie
Ġmit moaken
Ġe in
Ġver re
Ġver gel
Ġver ve
Ġver geven
Ġver zet
Ġveur kommen
il m
un tje
ik st
Ġsch ou
Ġsch are
Ġbie kommen
ĠW aarm
Ġom dr
ĠG erd
ĠH u
ĠH el
ĠH oat
ĠH eurde
Ġvr uigen
Ġal eer
Ġge j
Ġof dat
ĠB ianca
ul tje
Ġhaar ten
Ġgr oten
re y
Ġwie ten
Ġover kommen
Ġover kaant
Ġover nemen
ĠK neels
rie pen
Ġbl ond
Ġf or
Ġf em
oor ns
Ã¶r ge
uur vraauw
oak te
Ġdr aaid
ĠO ma
Ġsl iek
uk te
Ġbr ingt
Ġbr ulde
Ġsp an
Ġsp uit
Ġsp oaren
Ġsp utter
ĠZ uik
ĠT en
ĠT inus
Ġtou stand
ĠP eter
Ġkr aben
ĠL and
ĠL euf
ĠI S
Ġdie zulf
Ġtr ain
Ġtr ui
Ġwer kelk
ĠR ood
Ġpl ekken
sie l
dr ait
Ġvl inders
ieken t
ĠSt on
ĠSt ee
ĠSt ichting
ĠJan nie
ist orie
sp ot
Ġdoe f
Ġc ultuur
Ġc enten
Ġgeb ied
Ġgel uden
od ounde
eln is
br ug
Ġbel uustern
Ġbest on
lu chten
Ġpa uze
ĠKl aain
Ġgroot moe
Ġopen de
Ġboeten laand
Ġslim ste
Ġhem d
Ġhem meln
Ġblie ft
Ġper ron
Ġeen s
ĠIn d
Ġverg oader
Ã¨n de
Veur zichteg
oek je
?âĢĻ ,
Ġont kommen
Ġbek l
Ġleu k
Ġleu nen
omp elde
Ġbew ies
ĠAn dr
oem d
Ġrecht op
Ġverst opt
irr el
ĠWester wold
Ġrou te
ĠGer m
Ġfiets er
Ġzuik t
Ġwacht te
Ġwacht koamer
ĠDoe dens
Bl ief
Kl oas
iÃ« n
Ġopl aaiden
Ġbelangriek ste
Ġveraander t
Ġvergr eld
Sl im
ĠGees je
ĠOost wold
Ġbal ie
Ġscheu veln
Ġdig it
Ġsukkel oa
Ġvo elnis
Ġgit aar
Ġkwed eln
Ġverbie sterd
Ġloer de
Gez ienus
Ġbu zze
Ġeerabb els
hel pen
Ġwiz zeghaid
Ġzunn eb
Ġellen de
Ġenerg ie
Ġbehuif te
ĠIsra Ã«l
B erend
D ut
E h
G aauw
G ing
G ed
H arm
J uf
M ie
M aar
M eester
N elleke
V EN
Z uik
Z uster
a br
a des
d us
d ders
d uuster
d eln
h okje
m aark
m elt
p lek
v ez
v izie
z ooi
Ġd ok
Ġd onder
Ġd Ã¡t
Ġw oensdag
an na
Ġm adde
Ġm Ã²t
Ġt and
Ġh ak
Ġk aal
Ġk ev
Ġa ch
Ġg ooien
at tje
Ġl op
Ġl aaiden
Ġl aaid
Ġl oaden
ij p
ij de
Ġop nemen
den t
Ġin sch
Ġmit kregen
Ġaan komen
oe ste
Ġr aande
Ġj ou
Ġj uuste
ken de
uu tjes
al le
Ġheur st
Ġsch aande
Ġsch ane
ĠW azzen
ĠW ees
ĠH a
Ġvr anterg
Ġoet g
Ġoet sch
Ġoet dr
Ġoet zicht
ĠM ich
ĠM ooie
tje de
sch er
Ġdoar aan
ze m
ad der
Ġle zzen
ĠJ os
Ġain ks
ĠA ukje
em mer
oak er
Ġsl icht
Ġsp reek
ĠZ ulf
ĠP ost
ĠP oaske
Ġkr uu
Ġkr oan
ĠL a
ĠL ang
ĠL oop
ĠL oater
Ġpr ik
Ġtr om
ĠR TV
Ġlu stern
Ġachter grond
Ġdo et
Ġtw ai
Ġhoes holden
oad at
oet erg
ĠSt eem
est en
est iek
eef de
Ġsn ap
ĠF or
Ġkn oop
Ġkn ikte
ink ers
Ġmen uut
Ġgl iek
Ġsm eten
Ġsm irregs
Ġzuk ke
Ġsw aalf
Ġsw iegen
ĠSch re
Ġzw iegen
be ste
str oal
Ġschr ikt
Ġschr okken
Ġschr aaien
ind elk
omm es
Ġjoaren laank
Ġstee vast
Ġtussen tied
Ġdrok t
Ġdrok ke
Ã¨r k
Ġverb ilderd
Van zulf
nijs nijs
ĠlÃ¶ cht
Ġrecht e
Gr oot
Ġred elk
Ġpad je
Ġstroat je
oaf d
Ġvou ern
waark t
iv us
ĠDuut slaand
Wel ke
sm or
Ġbesch ik
Ġvrund schop
ĠRoel of
Ġzeun tje
Ġor de
Ġzul vern
ĠBe etje
Ġdoag elks
Ġmoak te
Ġkirr els
On ze
Ġoardeg haid
Ġtem innent
Ġacht tien
Ġthe oater
ĠSw ien
ĠStr ic
Ġoetz under
Ġnuim den
Mag st
Ġaarb aid
lop eg
Ġtoer isten
Ġfluuster t
Ġversl eten
Ġverkl oaren
nem ers
Ġopdr acht
Ġnu chter
onkje w
Ġps ych
ĠEd win
ĠnÃ³ g
ĠKob us
ĠDrent he
Ġenkel e
Ġtit el
Ġonrust eg
Ġbatter ij
Ġvervol gd
Ġhikh akkerij
Ġgezell ege
Ġschudkop te
Ġaff eer
Ġpizz a
2 8
A mer
H arry
H innerk
K ees
M oust
O P
R D
R ond
T aande
V V
V ert
W anneer
W ichter
Z uk
Z ollen
Z odounde
b in
b aal
b akken
b ult
b leven
c id
d ouken
e pen
i ve
l ok
l oan
m ui
n de
n og
r ood
s neden
u ft
u vel
v ang
w as
w erd
w ordt
Ġ )
Ġ ang
Ġ uter
Ġ iets
Ġ Ìģ
Ġw ier
Ġw aaien
Ġv ies
Ġm aauw
Ġm ais
Ġm Ã³s
Ġo ompie
Ġh aauw
Ġh uur
Ġh aauwen
Ġz iel
Ġz ummers
st okken
Ġb anden
Ġb ale
el and
eu vels
Ġg oe
Ġg onnen
ou s
eg eld
Ġs angen
Ġs impel
Ġs feer
Ġst er
Ġst aai
ol kert
Ġdat ter
Ġaan kom
Ġaan legd
aar b
Ġr ing
Ġr omm
Ġr ollen
Ġj aske
Ġver ziede
Ġveur dail
Ġveur vast
le hem
ke ek
Ġheur ent
Ġsch euren
Ġsch uun
Ġsch oeven
Ġbie veurbeeld
ĠW iek
ĠW aren
Ġzo ver
ĠG R
ĠD or
Ġon ged
aai ers
Ġvr at
uw e
men s
ĠB ost
ĠS j
ĠS imon
Ġgr oazen
ĠM a
ĠM aai
Ġover kwam
Ġdeur dat
Ġdeur geven
Ġdoar in
ste m
Ġbl oes
Ġbl auw
Ġbl inde
Ġf out
Ġf aver
ĠJ oen
Ġkl oaver
Ġdr af
aal ve
is me
ĠZ etje
ĠZ uster
ĠT ou
Ã² g
ĠL aid
ĠL auw
Ġgoud s
um tieds
ĠR en
Ġpl ast
Ġpl akt
Ġachter loaten
ĠE do
ĠE mmen
Ġhoes kes
Ġstr unen
bb eld
Ġnij ste
Ġvl am
Ġvl ogt
Ġman s
ip l
ink jes
Ġ... âĢĻ
Ġre c
ust en
Ġsm oakt
Ġsm angs
oaven s
ve cht
Ġdik ste
Ġall ozie
Ġbet re
Ġged ienen
ĠSch aank
ĠSch ild
Ġjong er
Ġbel t
ĠWil de
Ġzw aaide
Ġgez oes
be sch
Ġ20 20
del t
ĠOp taikens
ubb er
Ġverg oan
Ġverl aifd
Ġlang de
Ġont dekt
ic a
Ġbew ondern
Ġro eten
Ġverk oper
ĠWat t
kr iek
Ġverb etern
Ġproat jes
Ġgruin teboer
Sch ane
ĠEl s
Ġdenk st
iv ier
iv vel
ploat sen
Ġbor reltje
Ġpot ten
Ġ201 2
Ġne it
Ġbesch aarmen
geb ied
amm o
amm oa
Ġbesl oet
Ġknip pen
Ol de
Kr ekt
ab y
ĠGod s
?? ?
Ġvern uver
Tr iene
Ġ9 8
Vraauw lu
Ġroad io
Ġpol it
Ġwoagen tje
ib ben
ĠzÃ¶rg de
Ġek kel
Ġonver w
Ġslecht e
Ġhal f
Ġonb eg
Ġprakke zaaier
ĠÃ²fw achten
gev uil
ĠHil lie
nem er
ĠPer vin
Ġschoun tjes
Ġovert uugd
Ġaldern oarst
Ġdirect eur
Ġmek ander
verb oasd
Ġtent oonstellen
joars oavend
oond ochter
ĠJeu den
Ġgooi de
Ġschuddel tje
Ġkest ail
Ġcent imeter
Ġvrol ek
Ġvlaigt uug
Ġblif st
Ġpel zaaier
Ġvraid ag
Ġenthousi ast
ĠAustr oalie
ĠUr opa
Ġvred eg
ĠSier ts
Ġnof lek
ĠBost on
0 9
A AND
B ek
B est
E efkes
G aaist
G ounent
H e
H aalf
J oop
J ammer
K en
K ar
L uuster
M es
M Ã¬nsen
O oster
S nij
Z ellen
a bel
a uffeur
b ol
b es
b ouken
d ste
d jes
d okter
f en
f or
g et
j ekn
k jes
l as
l anteern
m mer
o ien
p epier
r o
r ege
t ik
u ct
v or
v aast
w ien
z ies
Ġd eg
Ġd oal
Ġn oak
Ġw ichie
Ġv oa
Ġv ong
Ġm ak
Ġm oord
Ġt rie
Ġt uut
Ġt ax
Ġh eld
Ġz uden
Ġk el
Ġk em
Ġk eun
in tje
in ees
Ġb oa
Ġb oes
Ġb eken
el derij
eu ne
Ġa achte
Ġg oden
at oe
Ġl eb
Ġl appen
aa sten
it je
it oren
Ġs k
Ġs oc
Ġs ym
or e
Ġvan mÃ¶rn
ien s
Ġst uver
Ġst eurt
Ġin s
Ġin str
Ġin drok
Ġp eren
Ġp edde
Ġaan m
Ġaan wiezen
Ġver ander
Ġte bak
op kes
le ste
ar ten
Ġsch eur
Ġbie ster
ĠW A
ĠW adden
Ġzo genoam
ĠG rieze
ĠH ui
Ġas dat
ĠD a
ĠD Ã¬n
Ġon zeker
ag d
Ã¶ d
ten oar
Ġge s
Ġoet goan
ĠB est
ĠS h
ĠS of
ĠS unt
ĠM on
ĠM ens
re ekst
ĠK aren
ĠK oamer
ĠK erel
Ġwe et
ge sch
ter ij
ad ders
Ġbl om
Ġbl ok
Ġbl oaden
Ġbl ikken
Ġkom ple
Ġf an
ĠJ ap
ĠA k
ĠA ch
Ġkl eren
oes de
Ġbo zz
ĠN AM
Ġsl ok
Ġsl ing
uk ten
and us
Ġkr oaken
Ġkr aante
Ġwoar deur
ĠL aange
oag de
Ġeven wicht
Ġpr of
Ġpr akt
Ġtr ad
ur ger
oon de
Ġwol st
ĠÃ²f st
ĠE et
Ġhoes koamer
Ġstr ikt
Ġnij joar
aank t
dr inken
Ġvl Ã¶t
Ġonder oet
Ġonder waarp
Ġ2 8
Ġsn eller
Ġkn eep
Ġc ar
Ġc ursus
Ġc aravan
Ġvert oald
Ġgeb oar
Ġgeb aauwen
Ġdien ent
Ġsm aal
Ġsm is
ent winteg
bl aauwe
ber icht
ĠC ar
Ġgen oten
Ġgen oeg
Ġgen ezen
Ġbed rieven
ir k
str oalen
Ã¨l k
pel t
?' ,
Ġverd aild
ind s
Ġbez it
Ġbew oard
ĠHenk ie
ov a
ov ve
ov vert
Ġken de
up t
Ġallain e
ammer oad
Ġkeu s
Ġvrouger e
Ġrie m
Ġverw ondern
Ã³ l
Ã³ n
oep t
ĠEl ke
ĠEl tjo
Gain ain
wat ch
ĠkÃ¶r f
gang ers
ploat jes
ĠHol land
res s
res iden
Ġbelang rieke
Ġpers oneel
Ġvertr aauw
geb it
waar ker
Ġolder wetse
Ġstuur de
Ġket oor
vin den
Ġpol etiek
Ġgeweld ege
Vol gende
Ġbedoul de
braif ke
Ġaut ob
Pr oat
ĠKon ing
Ġnuig de
hand el
gew oon
Ġkontr ainen
Ġinter ess
Ġdomm it
Ġvij and
Ġgloepen s
ĠdÃ¶r pen
unst gaang
Ġven ster
Ġtwijd uustern
Ġbi bel
Ġaldern oast
ĠGrÃ¶n neger
Ġverzoam eln
Ġkur z
Ġteg em
Ġcont act
Ġpubl ic
nk ander
Ġteun baanke
Ġprob lemen
Ġzacht jes
ĠItal joans
ĠJon gedijk
arreg at
Ġeuliek ouken
ĠSproak wotter
Ġeerb aaien
ĠUt recht
Ġfem il
ĠSchre iber
Ġbeschik boar
ĠLauw ers
Ġkomple et
? âĢľ
H elp
K K
K unny
L aif
M ot
N ij
O M
R ieks
S ie
T w
T ube
V os
W ij
b u
b innen
d eu
f te
k oart
m oudeg
n g
p as
v eghaid
w aal
w is
w achten
z ang
z akken
Ġ !âĢĿ
en ken
Ġd oaden
Ġd orp
ai se
ai wen
Ġw aik
Ġv les
Ġm i
Ġm aauwen
Ġt ikken
Ġt oneel
Ġt oavels
Ġo ons
Ġh ul
Ġk oet
Ġk ander
st ieden
in te
Ġb oe
Ġb ilj
eu den
eu men
Ġg oat
at er
Ġl aamp
Ġs os
Ġde stieds
Ġop per
Ġop vol
Ġop zet
Ġop valen
Ġop trokken
der g
der tied
ain ste
Ġst oal
Ġst im
Ġst eeg
Ġin v
Ġin de
Ġp uten
ok e
Ġaan geven
Ġaan kieken
Ġr un
Ġr ingen
Ġr oken
Ġj en
Ġj oek
Ġder mit
Ġver beelden
Ġver antwoord
ot t
Ġveur kaant
un deg
ke st
ar re
ik o
Ġsch it
Ġsch op
Ġsch oulen
ĠW al
Ġom tou
ĠG re
ĠG oie
ĠD ai
ĠD ocht
am ilie
Ġon zicht
Ġon gev
aai der
Ġwel k
Ġal ens
Ã¶ bbeld
Ġbe sef
ui md
ĠB L
ĠB o
ĠB eer
ĠB ouw
ĠB oeten
Ġwie st
ĠK eunen
ĠK euneg
Ġdeur l
ze steg
ĠV en
ĠV aalt
ĠV AN
eld ouk
ĠA ar
Ġmo de
Ġkl inken
Ġkl oeten
Ġkl opte
Ġdr umpel
ĠO osten
Ġsl ichte
Ġsp ouk
Ġsp reekt
ĠT el
ĠT ineke
ĠP oe
ĠP ool
and eln
Ã¨ s
Ġwoar aargens
ĠL op
ĠL ammert
um mel
Ġpr om
Ġpr aai
uut sie
Ã¬n nen
ĠR Ã¶tter
Ġachter kaant
Ġdo el
Ġdo ek
dr acht
Ġvl ek
ĠJan tje
ief ke
Ġonder boksem
sl acht
sp unt
Ġleven teg
Ġdoe ven
ĠF lip
Ġkn ij
Ġc entrum
Ġgeb ed
aain en
Ġsm eer
Ġsm ale
gel n
bl oazen
Ġdai per
gr unneg
zie den
Ġbed ie
Ġgev aal
be vens
Ġnoam valen
omm els
Ġweerom me
Ġbek ind
Ġverk n
kr acht
Ġvin st
ĠBert ha
ĠAn ton
ma le
Ġken oal
aacht e
Ġallain t
Ġkeu nen
Ġvroagen d
Ġan ere
El dert
Sch ier
ĠVries emoa
Gain aine
Ġraai zeg
zeg t
Ġdokter s
Ġgrot ere
ĠJo sef
Ġaai land
ĠKin st
Ġpeb aaier
Ġple fon
Ġbren g
ged ichten
Ġwinter dag
Ġgeh ail
Ġzul ven
sh oaven
ĠBe ste
ĠJoh n
iÃ« l
Ġstoet jes
Ġrug ge
ĠPa ul
Ã¡ r
Ġkunst waark
Ġad verten
dels om
Ġklok ke
pers oon
Ġpervin sie
dem ie
Ġstoat sion
Men sen
vie fteg
wor st
mood s
Ġgevol g
Ġvaaileg haid
ĠOoster weg
Ġkar st
Ġleer lingen
hem d
gev oar
Ġscheu vels
Ġluk te
Ġvaal s
ĠDelf siel
ĠOaf ko
speul er
Ġricht ing
imm estiek
Ġsmer en
Ġontw ikkeln
Ġkur zes
Ġstiek om
Ġschep pen
Ġsuper maart
Ġcor ona
Ġdaan sen
Ġvolg de
ĠWereld oorlog
Ġsc oot
Ġaanbel angt
ĠStain hoes
Ġtelev isie
Ġkunsten oar
eff rey
Ġgol ven
ĠSchol te
ĠElis a
Ġstevel tjes
Ġpert ij
ĠDur andus
emain te
ĠDijk stra
Lang zoam
Ġresep ten
ĠlÃ¶sl oaten
ĠYou Tube
oeker ing
ipl om
Ġbetre ft
Ġongev eer
! ).
9 5
? !
G eld
G oie
H ond
K ovvie
N oadat
O nd
P N
S un
S unt
S oms
T ja
W ordt
Z at
Z oas
Z IE
b alen
b Ã¨r
f ie
g uster
g kool
h r
h oar
h est
h aaid
h lehem
j ekt
k le
k oppen
l ers
l ap
p s
r r
r ien
s leden
t woord
v d
v Ã¶r
w ert
w ester
x e
y st
z ern
z itten
Ã ĸ
Ġd am
Ġd eug
Ġn oal
Ġw iek
Ġv egen
Ġv eel
Ġv edde
Ġm al
Ġt ank
Ġh aai
Ġh ool
Ġh oazen
Ġh uzen
Ġz ing
Ġk ad
Ġk uzzen
in c
eu wen
Ġa ct
Ġg aange
at sen
Ġl iep
eg de
Ġs al
Ġs int
Ġs erv
om d
Ġst ekker
Ġst oven
Ġst aaist
Ġst oede
Ġin hold
Ġin druk
Ġp ist
Ġp ens
Ġp ioan
Ġp oÃ«zie
Ġmit waarken
Ġaan lopen
Ġaan laaiden
aar ke
Ġr as
Ġr okt
Ġr oll
Ġj ij
Ġj euz
Ġe ek
Ġe ig
Ġver slag
ee sten
Ġveur st
Ġveur woar
un e
Ġsch aive
Ġsch oondochter
Ġien st
ĠW acht
ĠW oord
ĠG as
ĠD ik
aai g
Ġvr ucht
ui zen
Ġoet w
Ġoet end
ĠB ouken
ĠB egr
Ġgr oan
Ġgr acht
Ġgr epen
ĠM ot
ĠM oak
ĠM eziek
ĠM useum
Ġwie ven
Ġover leven
sch oon
ĠK inder
ĠK etr
ĠK ootje
Ġaal gemain
Ġbl ieken
Ġbl oader
Ġf iene
ĠJ el
Ġdou ken
Ġdou che
ĠA ai
... !âĢĿ
Ġkw aam
Ġkl immen
Ġbo ek
Ġbo ske
ĠO s
Ġsl achten
Ġsl achter
iet ied
Ġbr annen
Ġsp innen
ĠZ Ã¨l
ĠZ ijl
ĠT aande
ĠP at
Ġai wen
Ġkr uden
Ã² pt
Ġwoar achteg
ĠL it
ĠL aan
ĠL im
ĠL igt
neg e
um er
ker d
ĠR ika
ĠR ikkert
Ġlu den
Ġpl oagen
Ġachter Ã²f
ĠÃ²f loop
ĠE s
Ġvol len
Ġstr omen
es lie
uil d
ĠGrunneg stoalege
Ġko okt
Ġmos sen
ĠSt oa
ĠSt oaten
ĠSt ichten
Ġonder tied
Ġkommen de
Ġdoe zenden
Ġker ken
ip pers
Ġuut v
Ġsn eu
Ġsn oavel
ĠF een
Ġkn ije
Ġmin i
Ġmin ister
Ġgel ieke
of wat
Ġsm oken
bl og
bl aauw
ĠC l
ĠC an
br il
br aand
vr oren
Ġbed oaren
ĠKl ooster
Ã¨l de
Ġboeten des
Ġneu dege
Ġverd old
ĠVer b
Ġlopen d
kl aid
ĠdÃ¶rp kes
Ġleu fde
omp sl
Ġkiek kaast
Ġbew oaren
Ġlag t
Ġmag st
Ġdrok ker
kr ing
St ad
Ġwoon derij
ĠVr ais
Ġliek oet
ĠSl amper
Ġwoorden bouk
olle b
Ġzeker e
Ġvast holden
ĠGrunnen s
Gr on
Sch iere
Ġgek haid
ook jes
ĠAl ie
ĠWester wolle
Ġwies vinger
ĠBlaauw e
Ġboom ke
Ġoavend s
Ġleef den
sm oa
app eg
Ġbesch aarm
Ġverz oepen
ĠPr oatje
ĠRoel f
Ġolder wets
Ġverv oaren
Ġbesl izzen
av vel
tt o
ĠMid den
Ġknip ke
Ġknip oog
apper oat
Ġbus ke
ĠÃ¬n ne
Kl aain
Ġ9 0
Ġfil os
kop er
Net uurlek
Over aal
Ġvien dt
fr aauw
Pa bbe
Ġgevoar leke
Ġtek Ã¶rt
Ġbraand t
ĠrÃ¶t ten
Ġblik je
ĠÃ Ń
Ġongel euf
ĠmÃ¬ns ken
ĠStr oom
Ġdis k
heb bers
Ġverdain t
act ie
Ġjeu den
Ġmel ken
Ġbal kon
Ġun s
haal s
umm ege
Ġplak je
ĠVrai sland
Ġonn uur
Ġstro ekerij
Ġgloepen d
Ġplest iek
Ger hard
Ġmilj oun
ĠBet hlehem
Ġkamer oad
Ġkamer oaden
yt ze
Ġsing le
gever ij
Ġgener oatsie
Ge orge
Ġzoad el
Ġbeu ne
Ġverpl icht
Ġaig elk
Ġcontr ol
Ġaanwez eg
Ġparkeer ploats
Ġ0 59
ĠSchrief wedstried
ĠGep ke
ĠzÃ¶ch de
Ġaals geval
Ġontdek ken
Ġfik se
Ġwoning baauw
ĠVeenk olon
Ġsitu oatsie
Ġzaa chter
A stoe
D ik
D ag
E ER
H a
I I
I L
J il
K erk
K iender
M Ã¶rn
N EG
R e
S ikkom
S orry
T E
W illen
e ment
f oto
h om
h ier
i as
j oal
k eerd
l l
l ocht
m oar
n acht
n ivvel
p a
p ekt
r ikoa
s nij
w aiten
z oamer
Ã Ĵ
Ġd oof
Ġd eugd
Ġn ul
Ġw in
Ġw ekker
Ġv innen
ie st
Ġm eed
Ġt aanden
Ġt oav
Ġo ost
Ġh it
Ġh oamer
Ġh aaide
Ġh uis
Ġh all
Ġh okje
Ġz ere
Ġk ust
Ġk uken
st oel
st rieden
Ġb om
Ġb ent
Ġb akt
Ġb onk
Ġb eudel
eu pel
Ġa cc
Ġg eur
Ġg ooid
at je
Ġl uud
Ġl oane
Ġs ou
Ġs ommege
ij ne
Ġde m
om st
om me
om era
eer s
Ġop er
Ġop kl
Ġop kn
der v
ain er
Ġp eerde
Ġp illen
Ġp oed
Ġaan dr
aar st
aar ven
Ġr amp
Ġr amm
Ġr uipen
ken oal
Ġver eg
Ġveur b
Ġveur ber
Ġveur droagen
Ġte chn
op pe
Ġdij zulfde
ar den
oat ies
Ġsch oem
Ġbie v
Ġnog aal
ĠD u
Ġon weer
Ġon gem
Ġvr oeg
Ã¶ ster
Ġge f
Ġof f
Ġoet hoalen
oo ft
ĠB erg
ĠB arbara
Ġgr outnis
ĠM ij
ĠM astland
ier d
Ġwie ken
sch reven
ĠK oop
Ġaal smor
Ġdeur br
ad a
Ġle dders
Ġf ert
Ġf lu
Ġf outen
ĠA ge
Ġmo del
Ġkw aliteit
Ġkl aauwen
Ġdr ift
ĠN S
ĠN ooit
Ġmeer dere
ĠO pen
iet eg
Ġbr og
Ġbr aanden
Ġbr ullen
ĠT oun
ĠT ammo
sen s
Ġwoar mit
ut tern
ne weer
Ġpr ikken
ig ht
Ġmou ken
oot sie
ĠR ud
iz an
ed el
Ġvot lopen
Ġpl as
Ġpl aai
ĠÃ²f lever
Ġzol aank
Ġvl akke
Ġko ff
ĠJan sen
Ġker waai
Ġkn ovvel
Ġhol d
ĠEn ne
Ġgl adde
Ġgl immen
Ġall int
Ġbet oal
bl oumen
Ġged ail
ĠSch ipper
ĠC D
ĠC ultuur
sten s
br eker
Ġbel and
Ġbest el
Ġbest ellen
Ġgew icht
Ġzw ien
Ġbed appern
Ġopen boar
Ġzok s
vv ek
pl aank
ĠVer d
ĠVer volg
nij e
ubb el
Ġbez Ã¶rgd
Ġbez zem
eun de
Ġverl ais
Ġhel m
ĠBl eef
ic t
ic us
omp s
deur en
ĠDat ema
Ġverk r
Ġtussen deur
ĠVr aizen
Ġken d
akt eur
Ġber ichten
ĠMar y
ĠdÃ¬n k
kw erd
Vr ij
Ġdreu gen
Ġkerst feest
Ġhog ere
Ġlagen d
Ġtel eur
Aal moal
Ġzoch zulf
Ġbesch rieven
Ġvis k
ĠOm dat
Ġdeu zen
Ġten te
ass o
ĠMid delsom
zo eger
ieter d
Ġ6 0
Ġboeren ploats
red die
sn oam
abb el
Ġar tik
Ġfr is
schr iften
Ġguster oavend
Ġpar redies
Ġvoetb alen
ĠAal tied
Ġaller deegs
Ġbelangriek er
ĠzÃ¶lf de
Ġlast eg
oll ege
ĠkÃ¶rt ste
uch ie
Onder wegens
Ġmuur tje
Ġked el
Ġked de
ĠBen o
Ġzaiken huus
Ġnegen teg
ĠÃ ´
uni vers
ibb el
Ġbien oam
woagen s
ĠTe is
Ġwand eln
AI N
Ġtwie veln
ĠBeg on
bed ocht
Ġaanp eerd
Ġvrez elke
Ġboot je
umm els
Ġmuz iek
ĠVuil de
Ġ194 5
Ġspiek ers
Ġmiddel boare
ĠzÃ¨ gd
Ġkwoa ie
Ġliter atuur
Ġmus eum
Ġglim laag
Ġaug uste
Ġschilderij en
Ġsmer ege
Ãº r
Ġbeker tje
Ġpruit en
ĠDrent se
ĠRom ein
Ġsig ar
Ġpetr et
Ġaanr oaken
ht m
ĠÃ³ f
ĠDÃ¶rp s
Ġgniv velde
ĠEg ill
Ġposit ief
Ġveeg de
Ġsleu dels
Ġvecht en
ĠWeerden a
ĠOabel tje
Ġhoag el
Ġpazzip ant
ĠLet ien
Ġke ze
Mis schain
SM E
Ġallerh aande
Ġstoen s
ĠJac ob
Ġgege ven
Ġproater ij
Ġaail aand
ĠFor um
onkjew ail
Ġgonnen t
Ġ98 04
Ġpioan o
ompsl omps
Ġtoav elk
Ġauguste s
. !
A uto
B S
E p
G en
H es
L ees
N oat
N euteboom
R eg
S oamen
T j
T iedens
T JE
V oader
Z ok
Z eker
a el
b uren
d elde
e x
f acebook
g n
g st
g ain
i bbe
k euren
k aans
k unde
l ook
m oes
m onteur
r oet
r iv
s je
u y
v uur
v ogels
w iend
w idde
w ichtje
y pe
z a
z eer
z ins
Ġ up
Ġ und
Ġd apper
Ġw ierde
an ze
Ġv elden
Ġv oest
Ġv irus
ie gel
Ġm ut
Ġt or
Ġt oak
Ġt us
Ġt eef
Ġt ijd
Ġt yp
Ġh ef
Ġh uver
Ġk m
Ġk oes
Ġk lem
st aal
Ġb oun
Ġb reek
eu d
Ġa gen
Ġg oar
Ġg ieren
Ġg eeft
Ġg olf
Ġl uu
Ġl ong
Ġl of
Ġl eed
it e
Ġs ub
Ġs neden
Ġop d
ain komst
Ġst um
Ġst ank
Ġst ieke
Ġst Ã¶rt
Ġin ain
Ġp ast
Ġp ane
Ġaan goan
Ġaan sloten
oe der
Ġr an
Ġr ik
Ġr aif
Ġr ivier
Ġder om
ot h
Ġveur d
il tjo
ver w
ver staand
ke derij
Ġbie dr
Ġien ainen
ĠW ij
ĠW oorden
Ġzo egen
ĠG uster
ĠG rieken
ĠG nivvel
ĠG omera
ĠH un
ĠH ong
ĠH eit
ĠH adders
ĠD ee
ĠD oll
Ġon verd
Ġon schuld
ĠâĢ ¢
Ġwel kom
Ġvr et
Ġvr ougen
Ġbe sm
Ġge denk
Ġoet l
Ġoet br
Ġoet doagen
ak je
ak ten
iek je
ĠB G
ĠB ol
ĠB oele
ĠS y
ĠS ums
Ġgr oat
Ġgr oalen
Ġgr up
Ġgr unneg
re in
re ektoal
sch ounen
ĠK ap
ĠK eun
ĠK aaizer
Ġdoar boven
ĠV rieze
eld oorn
ĠJ effrey
ĠA stoe
Ġkw astje
em eerde
Ġkl et
Ġkl on
Ġdr ong
ĠN IJ
ĠO or
Ġbr om
Ġbr ul
Ġbr ille
Ġsp oar
ĠZ et
Ġtou stemmen
ĠP R
ĠP as
ĠP olen
and a
Ġkr ist
ĠL oan
ĠL inda
chter n
Ġpr oemen
ig gen
Ġtr ee
Ġtr ots
ĠR ie
ĠR iekent
ang d
Ġlu xe
ant woorden
ĠÃ²f g
Ġhoes waark
Ġvol gd
Ġstr aand
bb el
dr oad
dr oager
Ġvl inten
Ġhou ken
Ġdoun de
vel ing
moal s
Ġsn ouk
ĠF ok
Ġkn apt
ink h
Ġhol p
Ġc om
Ġwaark ploats
of oon
Ġgl under
Doar bie
oul f
ĠSch oap
ĠSch riever
br ouk
Ġbel ken
Ġbel of
Ġkre m
Ġdai f
gr on
gr oot
Ġzw aarde
Ġzw oager
Ġme de
Ġme ens
Ã© Ã©r
Ġel ven
Ġgev angen
be h
me en
Ġboeten deure
ep pie
del ke
ank elk
pel tje
Ġspr oake
Ġstee ds
Ġhel den
ĠBl ift
ĠBl auw
ic r
ail s
Ġpak jes
Ġro om
Ġro ekt
St aait
Ġbeter e
aart ie
Ġfl inke
Ġwoon koamer
Ġversch ient
oom se
ĠU ur
zel g
Ġhaalf weg
oem ke
Ġrust ege
zoam haid
Ġsikkom s
ĠTr ijn
ĠMar tje
Ġoor dail
arr etje
ko zen
Ġstoer der
iv al
iv iteit
Aal gedureg
Ġvlai s
ĠHol lands
Ġlucht en
wie ze
ĠGron ing
Ġverz open
Ġverz uik
ĠDoar om
Ġjonk haid
Ġoog st
Ġverv aast
Ġtille vizie
Ġbeh eur
Ġbeh eer
Ġbeh ang
Ġten eel
Ġverdw oald
Ġvogel tjes
sh un
Ġidee Ã«n
Ġdoag elkse
oetb al
stand egheden
Me vrouw
uden ten
Ã¼ n
Ġblad ziede
oager ij
Ġveraander de
ĠZuud l
Ġvolle deg
Hail daal
Ġtaiken s
Ġch rist
Ġgun gen
noam e
Ġstud ie
Sl amper
Ġpre sent
Ġbord je
ĠHeur st
Ġbetaiken de
Ġschienboar liek
Ġrechter haand
Ġgesch ikt
Ġjeu d
ogr oaf
ĠMe schain
Ġaanp akken
lop er
Ġnek ke
az zel
Ġbevr ijden
off er
aanje mui
Ġoverl eefd
Ġnoabers ke
oadem elk
Ter ry
onn om
Ġliter oatuur
Ġreag eren
schil der
Ġtwijd oezend
Ġbocht e
Ġartie st
Ġloaken s
ĠRom e
Ġzwem bad
Ġgil pen
Ġpil ske
ĠEp pie
Ġcor on
koar ten
Ġpubl iek
======== ========
put eerde
Ġverbr aand
Ġperf ester
ĠNijs blad
Ġconc ert
zul ven
ĠNoor der
Ġorgan iz
ĠLut h
Joh an
Ġkraab de
ĠVand oag
kund ege
ĠHoofd weg
Ġverspr aaid
ommed ag
Ġinspir oatsie
ĠGerd a
ĠIsraÃ«l s
Kar el
Ġeek hoorn
ĠÃ²flever ns
- -
. ,
A L
B ij
D ood
D ER
E cht
H arregat
L en
L ai
M er
M eziek
M outen
O R
P im
V D
W aark
W ubbe
a ul
b ode
b oane
b ord
e h
f er
g h
g de
h op
h am
h oaven
h oof
i an
j ek
k ur
k man
k apke
l aan
l ander
m ar
m oi
p op
p pen
p lu
p art
p oten
p ort
r egen
r oem
s c
s ol
u iend
v ies
v oer
w eb
w onen
z ol
z els
z eln
z uster
z zel
z onden
Ġ oas
en sema
Ġd el
oa i
Ġn it
Ġw oan
Ġw azen
Ġw aangen
Ġv ul
Ġv aaste
ie ze
ie gt
Ġm agen
Ġm oager
Ġm uske
Ġt Ã¶r
Ġt oest
Ġt aante
Ġh op
Ġh onnen
Ġh istor
Ġk aan
Ġk eureg
st oet
Ġb id
Ġb eren
Ġb ert
el m
ch en
ch ien
Ġg appen
Ġg immestiek
ou ke
oar ten
Ġl ij
Ġl aanke
Ġl aind
âĢ ¢
eg eern
it en
Ġs ap
Ġs inds
or der
Ġop bedocht
Ġst oalen
Ġst euren
Ġst rieden
Ġmit goan
Ġmit helpen
Ġaan nomen
Ġr aauw
Ġr oos
Ġj agt
Ġe dik
Ġver de
ot er
Ġveur schien
Ġveur zain
Ġveur stel
Ġveur lopeg
op de
al ent
ar ries
Ġsch oal
Ġien tied
ĠW elk
ĠW aist
Ġhai de
Ġze i
ĠH in
ĠH aren
ĠH ov
ĠH ann
ĠD ail
ĠD ER
aai len
ĠâĢ ŀ
Ġmie s
Ġal er
Ã¶ m
âĢĿ ...
ui ern
Ġge sp
Ġge fl
Ġoet b
Ġoet zain
Ġoet keken
ĠS ap
ĠS uze
Ġgr ienen
ĠM us
ĠM eester
ĠM insen
ĠM ax
re c
Ġover leg
Ġover goan
Ġover hÃ¬n
ĠK reeg
Ġaal b
Ġdeur dr
Ġwe ekend
Ġheb t
ste in
Ġbl uit
Ġbl ues
Ġle vern
Ġf av
Ġf amilie
ĠJ onkje
ĠA iltjo
em an
Ġbo eken
oak eln
Ġdr onk
ĠN ellie
Ġsl ikken
Ġsl okje
Ġsl uigen
uk ers
Ġbr uuk
Ġbr oekt
Ġsp and
ĠZ u
ĠZ al
ĠZ aag
ĠT inie
ĠP iebe
ĠGr it
ĠGr uine
Ġkr ap
Ġkr achten
ĠL open
ĠL amme
ĠL aik
oag s
Ġden n
Ġpr onk
ig st
ig el
Ġtr eur
Ġtr am
Ġtr akt
Ġtr apt
Ġnoa ste
Ġnoa kend
Ġol ske
ĠR osette
mer en
Ġpl ots
Ġachter ste
Ġachter uut
Ġtw aalven
ast oe
Ġgoan de
Ġvol op
es se
aank s
oet sen
est ival
Ġleven d
Ġker akter
ip ke
oas de
ĠF ord
ĠF aber
Ġmen euvels
Ġvert elden
old ste
In tied
Ġaar ven
Ġsw immen
Ġaans om
oer i
ĠSch il
ĠSch udd
os s
os sel
Ġjong ere
br ij
br ood
Ġbel aang
Der k
Ġgew orden
gr oaven
gr uin
ĠWil len
ĠWil ma
Ġzw ikkie
boar haid
ir re
vv els
Ġ20 00
Ġzag gen
Ġdicht ers
ob ben
ĠVer g
Ġschr ikken
Ġschr aiven
uit en
Ġbez et
Ġverl oor
Ġverl oop
Ġverl angst
Ġbek r
Ġbek ikt
ich ard
Ġlicht er
eep t
Al bert
ĠFr eer
ĠFr its
Ġmid winter
ĠGed icht
ouw er
Ġher inn
Ġzeker woar
agt wedde
Ġvrij willeg
Ġreg eren
Ġreg ion
ĠmÃ¬n sk
Sch r
ĠAl les
Ġkerst man
ZE N
Ġwies haid
ĠGer rie
Ġant woorden
iv Ã¨r
Ġhand eg
Ġhand ouk
iep ers
iep els
ĠSp anje
Ġhui fst
Ġpers ent
Ġ201 9
Ġkrieg t
Ġregen t
Ġvertr ok
Ġbesch aaiden
uz iek
Ġjonk volk
Ġvrund in
Ġdaaier tje
ĠPr oto
Ġoog jes
Ġies dern
moak te
Ġverr Ã¶t
Ġperb aaier
jen et
ĠKom nijsterwieke
Ġmain sten
Ġplietsie s
val len
Ol lu
ĠVl agtwedde
Ġzunne stroal
Ġmelk boer
obb el
Ġkammeroad je
Ã¼ h
ons dag
Ġak ked
Ġroad sel
Ġpol der
ĠHaarm ke
Ġopl Ã¶st
Ġheufd stad
ĠOn gkool
fr aain
Br am
mid del
Ġtem po
entr oale
ĠBen nie
Ġacht en
Ġnegen tien
Ġbeeld je
meer ten
Ġkoop man
Ġgemainte hoes
Mar y
OA L
Ġopt im
Ġdreum t
izz eln
ient s
amer a
Ġschip per
ogr af
lop ers
Ġscheu vel
Ġtoer loos
ĠZun dag
Ġstom verboasd
ĠAd je
Ġterecht e
Ġbetr okken
Ġbetr ekken
Ġwen sen
laif de
ĠbÃ¨l kte
Ġliter aire
Ġovert ugen
ĠWesterket iers
Ġbiel aangs
Ġps aalm
Ġmat er
Ġverzoam eld
Ġstokken d
ĠSchr ift
ĠLud o
ĠLud ger
Ġteg els
Ap pie
Ġkrom me
Ġtre in
uzz eln
Ġtimmer man
Ġzig s
Ġmuzik anten
ĠMO R
Ġhiele moal
Ġkor te
Ġkomp j
Ġsleep t
ĠvlÃ¨ zze
ĠkÃ²l d
Ġtegenwor reg
Ġspaigelploat je
Ġwet holder
alder eerd
Ġfig uur
Ġdirekt eur
Ġschieten sbenaauwd
Ġgrom de
Ġontst on
Ã¶g te
Ġbeden kt
Ġainv oud
Ġoef en
Ġgramn iedeg
ikiped ia
Ġschild pad
Ġextr oa
Amer ik
Ġplast ic
ĠSof ia
Ġjen ever
ĠKetr iene
ĠSchudd eldouk
- ,
0 6
8 7
A m
B us
B oek
D ee
E vert
G eb
G uikema
H oog
H ans
J uust
J aantje
K ootje
L est
N aargens
O or
O abel
P ieter
P hilip
R ust
R ainder
W ied
W is
Z ee
b od
c ies
e id
f iets
g riepen
i bel
j oale
k at
k ig
k eurd
k oamers
k riet
m et
m ond
n elk
n emt
r oek
r oup
s b
t ek
t egen
t oen
t moal
u ck
w ekken
z ucht
z ivÃ¨r
Ġ Ã¡
Ġ Ã©n
Ġd on
Ġd ist
Ġn ikken
Ġn aks
Ġw oa
Ġw al
Ġw uien
Ġv ort
Ġv are
Ġv oaders
Ġm ol
Ġm em
Ġm oaten
Ġm achteg
Ġm aaien
Ġm omenten
Ġt eu
Ġt reden
Ġt ante
Ġo s
Ġo osten
Ġh ip
Ġh eug
Ġz iek
Ġz Ã¶rge
Ġk oos
Ġk unt
Ġk ab
Ġk uier
Ġk aasten
Ġk arretje
st appen
in ist
Ġb ollen
eu joar
Ġa vvek
Ġg a
Ġg euren
at ie
at ivus
Ġen zo
Ġl aauw
Ġl acht
Ġl eert
Ġl ukken
eg ast
aa d
Ġs in
Ġs ik
Ġs ikt
Ġs okkel
or k
ij vers
ien er
ien tjes
Ġde egr
Ġde ksels
Ġop kommen
Ġop nijs
ek l
ain t
Ġst eur
Ġin middels
Ġp ier
Ġp iel
Ġp oaden
Ġp uun
Ġp residen
oe i
Ġr ij
Ġr uik
Ġr illen
Ġr onnom
Ġj oagers
Ġder ien
Ġder uut
Ġder noast
Ġver moak
Ġver sloagen
Ġveur ste
Ġveur tied
Ġveur mekoar
uu nder
op p
le zzen
le ment
ke m
al ist
ar eg
ik ant
Ġsch eld
Ġsch oppen
Ġsch oade
Ġsch enken
ĠW ytze
Ġzo wel
Ġzo doan
ĠG o
ĠG ev
ĠH oan
ĠH and
ĠH of
ĠH ein
ĠD R
am t
aai ders
Ġwel voart
Ġvr eugd
Ġvr uchten
ag g
ag r
Ġal lem
âĢĿ ?
Ġbe vol
Ġge proat
Ġof stand
Ġoet kwam
Ġgr of
Ġgr Ã¬ns
ĠM og
ĠM aas
ĠM eulen
ĠM attje
te ma
ĠK ok
Ġwe der
ĠV in
ste den
egen d
rie se
rie vers
Ġbl ai
Ġbl oadern
eld ais
Ġf es
ĠA i
ĠA zzen
ĠA ine
ĠA igen
... '
Ġkl oet
Ġkl Ã³
Ġkl oppen
Ġkl inker
Ġkl euter
ĠN ummer
ĠO om
Ġsl oop
is h
Ġbr ochde
ĠZ at
ĠT eun
ĠP ers
ĠP ort
ĠGr oen
Ġai ken
sen tr
ĠL uip
Ġons zulf
oag t
Ġpr oppen
Ġtr of
Ġnoa bie
ur el
Ġbeg oan
Ġwil s
iz zel
Ġlu zivÃ¨r
oon ders
Ġpl adde
Ġpl ukken
Ġdo ekn
ĠÃ²f h
Ġtegen woordeg
ĠE x
Ġter raain
dr up
Ġvl eugel
Ġhou ke
Ġhou sten
Ġko egel
Ġko elkaast
ĠSt aait
ĠSt ientje
sp aigel
moal ege
Ġtwij en
ĠF i
ĠF in
ĠF reddie
Ġkn ikt
Ġkn ikde
ink je
Ġc omm
Ġwaark zoam
Ġsm oaken
gel iek
Ġie zer
Ġie zern
In geborg
ud elk
Ġall ern
Ġbet on
od ie
Ġaigen der
ĠSch utte
ĠC on
Ġgew aiten
Ġgen iet
gr oep
leg a
Ġzw aaien
Ġme des
Ġme menten
str oade
Ġjon ker
Ã¨l le
Ġ20 22
pl ant
pl anten
oun d
ep t
Ġjoen ent
pel ke
Ġrond te
Ġneu d
Ġverg aait
omm eld
Ġverl angen
Ġverl Ã¶zzen
Ġlang zoamer
Ġont hold
Ġhel ft
Ġbek inde
omp uter
Ġkiek kaaste
Ġdood stil
Ġbew oar
!' ,
Ġbouk jes
Ġtoen en
Ġlicht e
Ġwoon stee
ĠVr um
Al tied
Ġhond jes
aacht en
aander n
oem de
Ġduur fde
pe ct
ĠTr oanen
Ġverst oppen
Ġmis schien
akk et
Ġwoord je
Ã³ k
Ġgek n
Ġzoveul ste
Ġoor zoak
ekst oul
Ġdreu mde
Ġkerst oavend
Ġvief de
apt ist
Ġstre ekt
gang er
Ġhand douk
Ġbor den
Ġbor sten
Ġlucht eg
Ġallen deg
Ġluuster d
Ġger oup
Ġger egeld
ikke bain
Ġ200 5
sm Ã¶rgens
Ġbesch reven
Ġstap ten
Ġpas s
Ġverz Ã¶rgen
Ġvis ke
Ġvis kern
Ġtille vie
Ġ4 0
moak ers
lie st
Ġbrocht en
Ġbaar ge
stoan de
Ġterug ge
Gel uk
ach el
ĠDin a
Ġvern am
Ġsloot sw
Tr oanen
ĠGe ft
Ġlie ste
Ġlie sten
Twij de
Ġguster n
reg els
Ġsle pt
pot ten
Ġlaggen d
Ġmoak st
Ġdun ner
ĠWer kman
braif kes
ĠKerst mis
ĠAan tje
Ġjanne ver
ĠzÃ¶rg t
egr oaf
Ġopsch rieven
Ġpre cies
Ġpre ekstoul
Ġbezuik ers
Ġdis c
Ġem igr
Ġkle in
Ġzak te
Ġnuig t
Ġkilom eters
Ġverdain de
Ġonb ekende
Ġalt ijd
sterd aip
ĠHoog ez
Ġsnoet jekn
ĠÃ²fw ez
Zel st
50 30
Sm Ã¶rgens
Ġroak te
ĠvÃ¶rm s
ĠSn oekering
Ġverhoes de
ĠVrai ze
ĠVrai se
Ġstom me
Ġneef ke
unten dam
ĠbÃ¨l ken
Ġpap ier
ĠEr ic
Ġdig gel
Ġzesteg er
ĠTh ijs
ĠHogel and
Ġsche pen
Ġschoam te
ĠGeb oren
Ġhobb y
Ġamb ul
200 6
Ġlamp kes
Ġnoad inken
Ġposit ieve
Bed ankt
Ġschrieft oal
Ġlaifheb bers
Gees ke
meulen s
Ġtegenwor rege
ĠglÃ¬n ne
Ġpazzip anten
Ġorgan is
ĠMI T
Ġasf alt
Ġblaik veld
ĠOr anje
Ġmeel ie
ĠVisser ing
ĠItoal iÃ«
Ġappar te
Ġklaaink iender
Ġwenk br
ĠRoelof s
Ġonverw achts
Ġzogenoam de
ĠJap an
ĠRÃ¶tter dam
Ġnoal oaten
Ġoetend elk
ĠZijl stra
ĠProatje boksem
ĠVervolg verhoal
Ġstieke m
Ġbiedr oage
Ġonverd achts
ossel aar
Ġzodoan eg
, -
, ...
2 9
5 5
7 4
? ...
A T
A ge
F l
G l
G EN
I es
J akob
K eek
K erst
L even
M oe
N E
R I
T en
T el
U m
V is
W eg
W otter
Z et
Z eun
Z euven
Z ugst
a ze
b al
b oeten
b red
b undel
b uurman
c el
d it
d ocht
d dern
d isc
g o
h aai
h ail
i ums
j oe
k ken
k oor
k ne
k ant
k old
k aggel
m oord
m ooi
n el
p ien
p re
p ing
p eld
p oot
r s
r oom
r ische
r oute
t w
t il
v et
v ij
w eke
z ag
z eld
z ingen
z ioale
Ġ `
Ġ ait
Ġ ans
Ġ qu
Ġ univers
er es
Ġd amp
Ġn aai
Ġn ikte
Ġn ikde
Ġn ommerdag
Ġn Ã²g
Ġw ege
Ġw aig
Ġm ast
Ġm ach
Ġm ompelde
Ġm azzel
Ġt an
Ġt oud
Ġt azzen
Ġt aas
Ġt egel
Ġh ot
Ġh onder
Ġh uft
Ġz uud
Ġz uz
Ġk if
Ġk aamp
Ġk ultuur
st oat
st eern
st Ã¶rm
Ġb euren
Ġb itter
Ġb uuk
Ġb euken
Ġb ats
el oar
el ijke
eu v
eu de
Ġa re
Ġg ij
Ġg eut
Ġl oan
Ġl aten
eg t
Ġs aus
Ġs umtieds
Ġs eupel
or s
or ten
Ġvan mÃ¶rgen
Ġvan zulm
on er
on te
on str
om f
eer ne
Ġop moaken
Ġop hoald
ek aans
ek oven
je bbe
Ġst al
Ġst ik
Ġst eld
Ġst oaren
Ġst inken
Ġst oup
Ġin ne
Ġin vloud
ol lu
Ġp oalen
Ġp izzen
Ġp opke
Ġp aartie
Ġaan zain
Ġaan sproken
oe per
aar ker
as e
Ġr i
Ġr og
Ġr ied
Ġr akt
Ġj ent
Ġj uv
og er
Ġver nemen
Ġveur guster
il ke
il bo
uu ns
Ġsch onk
Ġsch oef
Ġbie goan
ĠW ood
ĠW ia
ĠW oater
ĠW idde
ĠW enneer
Ġze ek
ĠG af
ĠG reven
ĠH oas
ĠH uus
ĠH uis
ĠH elp
Ġas s
ĠD I
ĠD ieken
am ent
am ma
Ġon tr
oan de
oan dag
ag es
ui men
Ġge vecht
men de
Ġoet gebr
aauw er
ĠB re
ĠB one
ĠS T
Ġgr aag
ĠM oakt
ĠM aier
ĠM oortje
Ġwie ders
Ġover holden
sch aiten
ĠK et
ĠK eek
ĠK oakel
Ġaal tmoal
ster meer
ĠV on
ĠV ers
ĠV ogel
ge el
ter d
ter raain
ad dus
Ġbl ij
Ġkom s
Ġf ait
ĠJ ennie
ĠJ ensema
Ġain eg
Ġkw artje
Ġkl ommen
Ġdr ingen
Ġdr oaden
ĠN OAR
Ġsl ovve
Ġbr on
ĠZ aiken
ĠT oon
Ġkon stern
ĠP op
ĠP ijp
ĠP asso
Ġkr ij
Ġkr ok
Ã¨ ren
Ġwoar st
ĠL ie
ĠL oer
ĠL uuster
ĠL aip
ĠL ula
ĠL eslie
ĠâĢĺ âĢĻ
ĠI K
ker oad
Ġpr ot
Ġpr oten
Ġtr oag
Ġol joarsoavend
Ġhail moal
ant ie
Ġpl icht
Ġpl ougen
Ġdo eken
Ġdo bb
ĠE chte
Ġtw aide
Ġvol dounde
Ġstr ok
Ġnij schier
oad jes
Ġvl ot
Ġhou st
ĠJan ke
Ġzun schien
Ġonder tussen
sp el
Ġ2 9
Ġleven sl
Ġdoe fkes
Ġtwij baaident
Ġuut st
Ġsn ie
Ġsn okken
ĠF olkert
Ġkn opke
Ġc l
Ġc re
Ġc lub
Ġvert oal
Ġvert Ã¨llen
Ġmet ers
Ġre alis
old s
old oat
Ġsm oor
Ġsm id
Ġsm okt
gel de
In do
Ġsw im
ud o
bl ok
ĠDe i
ĠDe puteerde
Ġged onder
Ġbegun den
ĠSch ep
Ġkieken d
br eken
Ġbel oofd
Ġbest eld
Ġschier der
Ġgen oot
lu p
Ġbed uden
Ġap p
Ġdocht ers
Zo veul
Ġok ster
Ġboeten kaant
pl akt
Ġhem m
sw eg
Ġkinder woagen
kl opper
Ġhaand je
Ġverl icht
Ġverl open
Ġont pl
Ġont holden
Ġgaauw er
Ġhel fte
ĠBl ink
Ġbek Ã¬nd
joar ege
Ġbew eeg
Ġro ze
kommen de
Ġverb inden
Ġfl at
inter s
ĠAn neke
ille foon
Ġthoes kommen
ĠU m
ĠU it
ĠFr iedr
zel f
Ġold ske
Ġan ern
ĠOl de
Ġwied te
Ġwied vot
Ġverw onder
ell o
ell ing
Ġstok jes
Ġ3 1
Sch oul
oef ke
Ġdreu md
ĠWester diek
Ġbegr oaf
Ġsnij en
ĠNoord polder
Ġaai ber
ĠVeur joar
ĠVeur blad
ĠSp oans
Ġleeg te
wie zer
Ġpot jes
oit en
Ġstad s
stellen s
Ġregen de
Ġregen boog
Ġwinter tied
Ġwinkel centrum
uz zie
Ġverv oard
Ġaand oan
Ġvand oar
Ġschoon moeke
Ġbeh aalve
ĠMid del
Ġzul s
Ġdak p
Ġket akt
utt ekoven
sn og
Ġnaar ns
Ġgemain schop
ĠDin ie
iÃ« le
Ġvern iend
Ġvern uimd
aail ege
Ġar ch
Ġhen ne
Ġfil es
Ġfil aain
Ġlie pen
Ġheu le
Ã¼ t
Ġak ke
ins ken
Ġander haalf
ĠAin egste
Ġkirr eltje
IE D
ĠKerst feest
Ġch auffeur
ĠGel uud
Ġklaid je
19 4
Ġstud Ã¬nten
ĠSun ter
Ġbun zel
Ġrol stoule
Ġtillefoon nummer
ĠLai ve
ĠGees sie
Ġkle ine
Ġonver wacht
Ġtrap ke
Be haalve
ay a
Ġopr icht
ST ER
Ġjeu de
Ġaarb aider
Ġpersoon lek
Ġpersoon leke
Ġkap ot
Ġsek s
ĠGerrit sen
Ġpoot jes
Ġdroad jes
Ġpu de
Ġkar akter
ĠVis scher
Ġzucht te
Ġroak eldais
ĠBern ad
Ġkontr aainen
ĠHil ton
ĠSn uvvel
Ġoverl ieden
ĠVrai slaand
Ġpop ul
ĠDiek stroa
Ġdubb eltje
hou se
raai zen
Ġploug je
orm oatsie
ĠBer lien
Ġainzoam e
Ġres pekt
ÃŃ n
ĠvÃ¶r men
Ġsche elt
Ġbem uien
Ġvlaig veld
Ġsmer eg
Ġcol um
Ġcol legoa
ĠwÃ¨n d
ĠThe o
Ap moal
Ġpen zi
Ġnoag els
ĠbÃ¶l kt
Ġrom t
ĠRus s
Ġtoet sen
Ġvervel ende
Ġeerabb el
ipp i
Ġfin oal
ĠTw itter
Ġnoad ocht
Ġzus kes
onner d
Ġverbl ief
Ġlaifheb ber
Ġrez eltoat
ĠOmmel ander
ĠEem shoaven
Ġlen te
Ġsloa per
ĠMie mer
Ġfersoun lek
Ġfant as
Ġbegel aaiden
Ġnot oares
Ġprogr ammoa
ĠÃ© Ã©n
ĠMes sel
odem ieter
ĠBÃ¶rg er
ĠWesterwol de
ĠRood kapke
ĠWiek o
Mes schain
Ġdeg elk
Ġblom kes
ĠBouw man
ĠKeunen kriek
ĠLop pers
ZIE DE
ĠFeen stroa
blog spot
Ġdisk uzzie
Ġfert uut
Ġtoavelk laid
Ġran ja
Ġregion oale
Ġkompj oeter
Ġfes oun
5030 95
ĠFriedr ich
Ġpenzi oun
0 2
0 50
3 9
4 0
A K
B aaiden
B aaid
B uurvraauw
C h
D izzent
E S
F emilie
H ui
I eder
I SME
J ob
K er
K ieken
K rieg
L E
L open
L oop
L angs
N oam
S iet
S neu
T S
T em
V aaier
V ER
W elk
W achten
W ester
a pen
a bl
b aar
b ond
b uutse
c r
d ien
d aaier
d ood
f ietse
g ie
g od
g repen
g nes
h ar
h oop
i men
i oanse
i Ã¨re
j ers
j azzen
l eer
l oo
l ast
l aang
m oud
n at
n oal
n ig
n ommerdag
o x
o is
p oar
p or
r us
s ien
t el
t ege
t oald
t winteg
u ie
u ge
v out
v oerd
w oater
w erk
y l
z oon
z oad
z Ã¶cht
Ã Ī
Ã ł
Ġ oamen
Ġ !!
en ne
er tje
oa b
Ġw i
Ġw ond
Ġw oest
Ġw Ã¬ns
Ġv aark
Ġv oul
Ġv Ã¨l
Ġv ool
Ġv allen
ie ur
ie ger
Ġm ok
Ġm ul
Ġm eten
Ġm ant
Ġm ekker
Ġm oage
Ġm ont
Ġm onteur
Ġt ik
Ġt aal
Ġt ane
Ġt ikte
Ġt ude
Ġh ost
Ġh Ã²l
Ġh Ã¶gte
Ġz eld
Ġz Ã¨l
Ġk oe
Ġk Ã¨l
Ġk art
Ġk oabel
Ġk asten
Ġk alk
st ation
in i
Ġb eten
Ġb eun
Ġb oten
Ġb onden
Ġb ibb
Ġb anken
Ġa aske
Ġg al
Ġg aai
Ġg aat
Ġg aarst
Ġg eerne
Ġi Ã©n
Ġl ui
Ġl ink
Ġl oog
Ġl ift
Ġl aanden
Ġl aat
aa kt
it oal
Ġs ien
Ġs est
Ġs ec
Ġs iepels
ij nen
ien ce
de kte
Ġop nij
Ġop lopen
Ġop leverd
Ġst aan
Ġst ed
Ġst ip
Ġst ichten
Ġst oom
Ġin ner
Ġin zet
Ġp eer
Ġp ed
Ġp oul
Ġp amp
Ġp ind
Ġp up
Ġp ort
Ġp ovvert
Ġmit kommen
Ġaan komt
Ġaan leggen
Ġr ait
Ġr eerde
Ġr uier
Ġr ompslomps
ot her
Ġveur zet
Ġveur nemen
Ġveur deure
Ġveur road
Ġveur beelden
op r
ver tr
Ġdij st
ar ia
eb rug
oal eg
oat e
Ġsch et
Ġsch oet
Ġsch oamen
Ġsch illen
Ġbie t
Ġbie mekoar
Ġom denken
ĠG ar
ĠG olf
ĠG osselaar
ĠH ugo
ĠD uur
ĠD uuster
ĠD Ã¨rk
Ġon ge
ied s
Ġnoar tou
Ġvr undel
ag ed
Ġge it
Ġoet sl
Ġoet kozen
oo sten
ĠB aar
ĠB al
ĠB ar
ĠB eem
ĠB oeren
ĠB leek
ĠB aarg
ĠB uunder
ĠS P
ĠS ibb
ĠS CH
Ġgr oepen
Ġgr ommen
ĠM aar
ĠM oes
ĠM aart
Ġwie ke
tje d
tje derij
Ġover w
Ġover bl
Ġover zied
sch aauw
sch ip
sch appen
ĠK le
ĠK oen
ĠK ind
ĠK ovvie
ĠK PN
Ġaal deur
Ġaal vot
Ġdeur sl
Ġwe de
ĠV re
ĠV ER
rie tje
ge zel
ter t
ad am
Ġbl avven
En gel
En gels
Ġle sten
Ġkom bin
Ġf ijn
ĠJ aan
ĠJ ul
ĠJ onge
ĠJ aanjemui
Ġain eghaid
oor dt
ers e
Ġkw ak
Ġkl om
Ġkl ouk
Ġkl appen
Ġkl apper
Ġbo gen
ĠN eem
ĠN ansie
ĠO O
ĠO t
ĠO shun
Ġzai p
Ġbr aider
Ġsp ieren
ĠZ aand
ĠT ussen
Ġtou l
ĠP ak
ĠP ink
ĠGr as
Ġkr ul
Ġkr oag
Ġkr azzen
Ġkr anten
Ġkr aanten
Ġkr imp
Ã² p
Ã² st
ĠL as
ĠL ig
ĠL oaten
ĠL Ã¼
ĠL izan
els k
ĠI r
se steg
Ġpr onken
Ġtr oep
Ġnoa dern
Ġol dern
ĠR ond
ĠR aain
ĠR ef
ĠR onde
ĠR oulf
ĠR ichard
Ġtied schriften
Ġwil t
Ġpl off
Ġdo w
id ah
Ġkop schr
ĠÃ²f d
ĠÃ²f schaid
Ġtegen kwam
ĠE zel
Ġzol st
Ġvol holden
Ġstr iek
Ġstr Ã¶t
Ġstr eng
Ġvl ag
Ġlai gen
Ġaander mans
vel nd
sp ort
Ġdoe me
Ġtwij honderd
ip sie
Ġuut l
ĠF ieke
Ġkn iene
Ġmen neg
Ġmen sk
ug t
Ġc ond
Ġc risis
Ġmin ner
man tje
Ġwaark elkhaid
Doar veur
Doar mit
Ġsm okken
gel egen
ent winneg
ud ding
od o
od egroaf
oul dag
Ġaigen wies
ĠC ol
Ġjong kerels
Ġfiet ste
Ġbel eef
Ġbel oop
Ġbel onen
Ġbest eed
Ġdai be
Ġgew oar
Ġgen oat
gr uid
lu den
ĠWil m
Ġzw aarte
Ġme schien
ir kel
Ġgroot gr
Ġgroot sk
Ġopen boare
Ġer e
Ġrond jes
Ġneu den
Ġverd ailen
ĠVer ainen
ĠIn eke
Ġspr oak
Ġstee Ã«n
Ġbek iek
Ġbek Ã¬nde
ic i
ĠKr uus
Ġlag de
Ġtoen pad
kr uud
Ġverb aldereerd
St oef
pr o
pr od
ern d
Van oet
Ġgewoon te
ĠFr ida
goan de
zel ing
Ġhaalf male
Ġher hoalen
Ġher kennen
Ġber oerd
Ġan ner
sk und
Ġploat ske
Ġhait e
Ġbos kes
Ġschoul plaain
Ġonner steboven
kw inten
Ġlaag d
ĠNij joar
Ġhuus ke
Ġbegr oot
Ġraai st
Ġant w
Ġlaifde vol
Ġhand je
if te
Ġbor rel
Ġdaip te
ĠSp eul
ĠSp iet
ĠSp oanse
Kom st
Ġ201 6
one els
lem mer
Ġbesch r
ĠHaar fst
Ġjonk ie
Ġjonk goud
Ġdom nee
Ġschien vat
Kin s
Ġfeest doagen
Ġbesl uut
Ġ4 5
Ġverr ast
Ġperb aaiert
Ġ5 5
uf f
Ġbeh ulp
Ġbeh aalven
Ġten min
Ġum hoog
wiel er
we egs
echt e
Man lu
Ġhen gel
obb ie
ah idah
Ġ8 0
Ġak sies
Ġblad zieden
reg el
Ġpol s
Ġplat t
Ġaarg ern
Bert us
Ġvergr ai
unn ebl
Ġbep oalen
Ġtem oaten
Ġbev Ã¶bbeld
recht e
Ġch ef
Ġdw oal
ĠzÃ¶rg d
ĠGel ok
Ġaut or
Tot dat
Ġopsch aiten
ĠAr ab
Ġplan ken
Ġgespr ekken
ĠTer wiel
Ġaanb aiden
Ġjul lie
Ġwaar mer
tj et
ĠKees ke
Ġroeg te
ĠBel gen
ĠZw its
Ġonb ek
ĠDren ts
ĠBouk je
Ġnijsgier eghaid
ĠBeg riep
Ġfilm s
Ġbruu kte
Ġhor izon
ĠbÃ¶rg er
ĠSm eerd
Ġbul tje
ovv eld
Ġbevr oren
Ġpet at
ĠOnder wegens
Vot doadelk
Ġverwachten s
ĠPar ies
Ġtrappen s
Ġrieg je
ĠWesterket aaier
Ġletter lek
Ġmon ster
Ġbok ke
ĠBer rus
ĠAander doags
Ġappels ienen
Vand oage
Ġdig gels
Ġmus kes
Ġlo zer
ĠMartin itoren
ĠvÃ¶r k
Ġmek aaiert
Ġvaarf d
ĠzÃ³ l
ĠSchr eef
ĠHoes ke
Ġfot ob
Ġstreep kes
Ġtrek kers
Neder land
Neder laand
Neder lands
Ġpakje droager
koar tje
Ġkast je
ĠJeu de
Ġdrup pel
odew iek
UN NEG
ĠRus land
Ġgro dere
Ġontv angst
Ġgniv veln
Ġpart ij
ĠAll ain
Ġgeheur zoam
Ġklim oat
Ġtelev izie
ĠHem el
Per baaier
Ġsje feur
ĠAlex ander
ĠLeer ms
Ġglin ster
Ġglin stern
Ġlach en
Ġlever de
Ġdroag t
olog ie
Ġspes ioal
AD ZIEDE
Wol st
ĠMI EN
Ġmishot tjede
zeb oudel
Ġgrai men
Ġwiel ren
ĠvanzÃ¶lf s
ĠFeest doagen
Ġkweek schoule
Ġknie pen
Ġverschr ikt
ĠSlochter bos
ĠJer oentje
Ġakk oord
Ġstomm egeern
Ġklomp kes
ĠHu zeling
Ġsputter de
ĠGerm oanse
Ġdigit oale
vez iede
Ġkruu spunt
Ġprakkezaaier de
Ġaanwiezen s
Ġinteress ant
Ġbibel taik
Ġkoet se
Ġonzicht boar
ĠBL ADZIEDE
ĠPoe bel
Ãĸ R
ĠJel te
ĠÃŃ k
Ġhall ozie
Ġgedail te
htm l
Noat ied
Ġtus ken
ĠGrieken laand
Ġgroat es
ĠSchriever ij
Ġroom se
Ġmater ioal
Ġdeegr oller
ĠPort ug
urel uur
Ġsnoetjekn ovveln
Ġwenkbr aauwen
Ġkonstern oatsie
Ġdakp annen
Ġfantas ie
Ġpamp ieren
1 00
A ner
A AR
B arbara
G re
H el
H OE
L aive
L eutje
M ainste
P oar
P aardie
P iebe
R echt
R osette
V at
V ia
Z ag
b aist
c ten
c es
c ultuur
c lub
d je
d oal
d akken
e i
f um
f ijn
g riep
h ut
h ong
h ege
h ouken
h oge
i oa
i and
i oans
j acht
k ap
k sie
k ouk
k Ã¶rt
k ammeroad
l in
l id
l eren
l aiden
l ijke
n oamen
o y
p aark
p ed
p eerd
q v
r st
r aand
r isch
s ers
s eln
t as
t us
u men
v aar
v ak
v and
x em
z elde
z heim
Ã ª
Ġ eg
en ge
er eg
er eld
Ġd or
Ġd ans
Ġd reven
Ġd iplom
Ġn aait
Ġw an
Ġw oag
Ġw eep
Ġw inst
Ġv ullen
Ġv ette
Ġv ide
Ġv orst
ie el
ie ver
ie gend
ie zelk
Ġm ik
Ġm ap
Ġm Ã¶rgens
Ġm izz
Ġm icr
Ġt un
Ġt iek
Ġt uur
Ġt ip
Ġt ud
Ġt annen
Ġt atoe
Ġh iet
Ġh azzen
Ġh ingen
Ġh aang
Ġh oel
Ġh inder
Ġh ans
Ġh akke
Ġh oze
Ġh oelen
Ġh istorie
Ġz ond
Ġk al
Ġk af
Ġk aske
Ġk eet
Ġk ikst
st ief
in eg
Ġb an
Ġb ui
Ġb ouw
Ġb arr
Ġb illen
Ġb aiten
Ġb ommen
Ġb ongel
el st
eu ge
eu md
Ġa as
Ġa gend
Ġg an
Ġg ak
Ġg ut
Ġg leden
Ġg ids
at r
Ġi di
Ġl el
Ġl oe
Ġl ee
Ġl aande
Ġl ienen
Ġl oven
Ġl oze
Ġl Ã²pt
et oal
it r
Ġs om
Ġs oes
Ġs Ã¬nt
Ġs amen
Ġs oeterg
or gen
or me
Ġvan achter
Ġvan olds
Ġde ed
Ġop sloten
den d
Ġst ink
Ġst iel
Ġst oeken
Ġst aken
Ġst oekt
Ġst udenten
Ġin kt
Ġin goan
Ġin keld
Ġin pakt
Ġin dertied
ol ten
Ġp in
Ġp aauw
Ġp is
Ġp ond
Ġp ikken
Ġdat zulfde
Ġaan t
Ġaan gen
Ġaan kl
Ġaan win
Ġaan trokken
Ġaan wezen
Ġr is
Ġj uw
Ġj uig
Ġder bij
Ġver p
Ġver sie
Ġver nij
Ġveur goud
Ġveur heufd
Ġwas goud
un sten
ar ie
ar ch
eb ieter
eb rieken
Ġsch em
Ġsch os
Ġsch enk
Ġsch eel
Ġsch Ã¶s
Ġsch oelen
ĠW h
ĠW aas
ĠW iend
Ġzo cht
Ġom k
ĠG E
ĠG a
ĠG oor
ĠG ong
ĠH anna
ĠD E
Ġon recht
ĠâĢ Ķ
Ġmie tern
Ġmie gh
ag er
ag ger
Ġbe zzen
Ġbe dekt
Ġge pl
Ġge fst
Ġge droagen
Ġof stoe
Ġof zo
Ġof schaaid
Ġoet sp
Ġoet lopen
Ġoet leggen
Ġoet hoald
ak sen
aauw stern
ĠB ier
ĠB us
ĠS M
ĠS jenet
Ġgr oen
Ġgr appen
ĠM oe
ĠM al
ĠM ijn
ĠM Ã¶rgen
ĠM ans
ĠM untendam
re st
re md
Ġover weg
ing h
te v
ĠK eudel
ĠK uttekoven
Ġaal der
Ġaal doags
Ġdoar achter
Ġdoar noast
ĠV rede
rie ders
ge zicht
eld om
En delk
Ġle it
Ġkom pel
Ġf ir
ĠJ et
ĠJ oppie
Ġain sp
ĠA N
elk er
Ġmo cht
Ġmo sterd
Ġkw oade
em aal
us kes
Ġkin ner
aal k
ĠO L
ĠO ap
ĠO ude
Ġsl oat
Ġsl oet
Ġsl ieten
Ġsl ovven
Ġbinnen kaant
is es
Ġzai ke
Ġbr ud
Ġbr oest
Ġsp ot
Ġsp ouken
Ġsp ont
Ġsp ijen
Ġsp inne
ĠZ unnebl
ĠT on
Ġje s
Ġtou g
Ġtou p
Ġtou w
Ġtou stuurd
ĠP ie
ĠP le
ĠP al
ĠP ries
ĠGr ades
ĠGr addus
Ġkr oep
Ġkr oane
Ã¨ ste
ĠL er
ĠL ag
ĠL ucht
ĠI etje
Ġdie zeg
Ġpr ui
Ġpr out
Ġtr i
ĠR Ã¶
ĠR oon
ĠR ooie
ĠR uzzen
Ġpl oaten
Ġdo den
id eldom
ĠÃ²f proat
ĠE m
ĠE bel
ĠE end
Ġzol de
ft ege
sie ke
Ġvol gend
Ġvol doan
Ġstr am
es pr
uil t
Ġnij t
Ġnij baauw
kom mer
kom sten
dr achten
Ġvl uiken
Ġvl uchten
Ġko el
Ġko ft
oord ailen
ĠSt op
Ġonder st
Ġonder dail
Ġonder steboven
Ġonder waarpen
Ġker keroad
Ġsn or
ĠF C
ĠF e
ĠF oto
Ġkn oal
Ġkn appen
Ġkn iep
Ġkn arries
Ġc urs
Ġmin st
ren t
Ġre zen
Ġre pet
Ġgel oof
Ġwaark woorden
Ġgl opt
Ġdien st
Ġsm eek
In ainen
Ġsw aaide
Ġbet rek
bl i
per b
od el
od eg
oul d
uuster d
br oen
br ogge
Ġbel oven
Ġbel asten
Ġgen ottern
ĠWil derv
elde kwinten
vr oagd
Ġzw aar
Ġzw aai
aaiden s
Ġbed ainen
Ġbed ank
Ġbed aankt
be ck
eern s
pl an
pl at
pl oug
ult ur
ep oort
aalf ke
ank iel
Ġverd ikke
sw inkel
ĠIn do
Ġeten stied
Ġverg l
Ã¨n ne
Veur al
oek sel
Ġverl ichte
Ġhel emaal
Ã¶t ten
spr ingen
Ġbek je
omp e
omp ies
joar eg
Ġkeer de
Ġbew ogen
Ġro omb
Ġtussen oet
Ġtoen man
oaden s
Ġverb aand
Ġverb aargen
St oan
St oareg
Ġfl Ã²
Ġfl uustern
woar i
Ġproat te
Ġduur f
Ġdan ken
Ġdan sen
ĠGed achten
Ġan no
Ġploat st
Sch ien
ĠdÃ¬n ken
Ġred t
ĠBr aam
ĠBr oene
ook je
Gain ent
ĠAl ler
Ġvolk s
Ġboas ke
Ver der
Ġrou pt
Ġbegr af
zeg ger
Ġding sdag
Ġhand jes
Ġhand douken
zze m
ikk elk
Kom nijsterwieke
wie gend
Ġ201 7
Ġlangs oam
ĠGron ingers
Ġple z
Ġwinter s
Ġhuil e
Ġhuil en
Ġwichter tjes
ĠHaar st
Ġverz Ã¶rg
ĠPr oat
ĠPr oaten
Ġschien sel
Ġvis ken
Ġies der
Ġverr ekken
Ġpeerd je
ĠOm reden
ĠHen sema
Ġzul len
Ġknip per
auw en
Kr ek
uien de
steg ers
Ġsoamen leven
nd aam
ommel derij
stand eg
Ġrusteg er
achter grond
Ġzes de
Ġfr atsen
ah a
Ġ8 5
ĠkÃ¬n d
Ġak ker
Ġblad jes
ĠWillem s
Ġsle pen
Ġwonder liek
Ġkunst gebit
ĠZol t
Ġdiek je
Haar d
Haar st
oeg el
wen neg
ĠOn t
fr ouw
Ġwoagen s
Br uier
Onder tied
Ġtem per
ĠHer innerns
ill a
Ġstev ege
ĠGel okkeg
neu s
Ġroe men
Pr oaten
Ġnood gang
Ġnood zoak
Ġrol t
Ġrol de
ĠGl aanzie
ĠSw aarde
Ġoetz ied
ĠNederlaand se
ĠLai we
Ġkle p
Ġopr oemen
ĠZw eed
Ġschip pers
Ġgezelleg haid
AI K
ĠPekel der
ĠHar bert
Ġstrand je
ovv els
ĠBern ard
Ġinter view
Ġinter esse
ĠHil vers
erm oatsie
Ġmoes ke
onn o
ĠOaf ie
Ġkrig s
Ġstukken d
Ġdubb ele
our t
Ġkoppel tje
Vl ak
Ġstop de
Ġtrug ge
Ġglim l
Ġwr eef
Ġsukkel oamelk
Ġgod s
orp s
Ġontw ikkeld
ĠEvert s
Ġoavent uren
Ã¤ n
Ġstiek eld
Ġzen der
Ġpetr eulie
ieb eldekwinten
Aigen lieks
CH T
oav ond
Ġpe ch
Ġkraai e
ĠPieter pad
Ġrom ant
ĠKw oad
Ġkring loop
Ġontv angen
Ġham ster
Ġham pel
Ġbred je
Ġamper aan
ĠBelg iÃ«
ĠWoon t
Ġklim t
Ġsun terkloas
Ġstaarven swoar
zinneg e
ĠWaar v
Ġtap e
Ġrez el
ĠvlÃ¨ s
Ġroazen d
zul vens
Ġwai ke
mo biel
Ġkopz ere
Ġpan iek
âĢĶâĢĶâĢĶâĢĶ âĢĶâĢĶâĢĶâĢĶ
ĠAmerik oans
Mid den
ĠWit te
vek ansie
Ġkuren d
Ġasf aalt
Ġainv oudeg
Ġaantr ek
Ġvracht woagens
Ġfant ast
Aar gens
Europ ese
Ġserie us
Ġgere cht
Ġtemin zent
Ġlied zoam
ĠGrunn ings
ĠMidwol mer
ĠGew oon
Wer eld
Ġnoaz oaten
ĠGerard je
Ġgar age
Ġvergel ieken
Ġtand arts
ĠStric ker
ĠMa uchie
ĠSchild meer
ĠWatt um
Ooster weg
Ġleb ait
Ġinstr ument
ĠAk ke
ĠAnton io
Ġkeunen k
Ġadverten sie
Ond anks
Ġpist ool
Ġkruden ier
Ġfilos of
ĠÃ´ l
Ġteef ke
oth eek
ĠFok us
iviteit en
ĠZuudl oaren
Ġoas em
eid elk
Ġdoekn ekt
Ġtillevie zie
Ġans icht
omf ant
ĠWood house
Ġoetgebr aaid
Ġnijschier eg
Ġromt ommelderij
ĠSibb oeren
Ġgrootgr utter
qv ist
ĠWilderv ank
' m
0 7
0 59
6 5
9 9
A u
B O
B os
B ern
B eter
D aar
D ink
E ten
F ietsen
G o
G eern
G oidag
G emainte
H oal
H oan
H em
H euren
H oll
K Ã¶ster
L aank
M ens
O ost
P P
P ak
P ers
P eter
R ef
S j
S ommege
T he
V ek
V aar
W aren
W ind
W olf
a o
a den
b ul
b onen
b ogen
d icht
d ut
d oek
d ammer
f ab
g ries
h ek
h oud
h elf
h ova
k an
k ist
k aizen
k amer
k riegen
l s
l oa
m at
m as
m aal
m insen
m ca
n t
n y
n st
n ood
o ir
p je
p elk
p eln
p unten
r ain
s on
s le
s oamen
u menten
v h
v vers
v oeren
v oetbal
w est
w ief
z akt
z euven
á ½
Ġ +
Ġ oad
Ġ oaren
Ġ Â©
en gel
er land
er laand
Ġd uu
Ġd oame
Ġn r
Ġn iÃ©
ai me
Ġw ost
Ġw rieven
Ġw Ã¡t
an tje
Ġv uul
Ġm y
Ġm aans
Ġt eld
Ġt um
Ġt Ã¨l
Ġt Ã¬nde
Ġo b
Ġo ge
Ġo ut
Ġo ber
Ġh ast
Ġh Ã©
Ġh illen
Ġh aaileg
Ġz onder
Ġk a
Ġk ak
Ġk aauw
Ġk uur
Ġk Ã¬
Ġk oul
Ġk ooi
Ġk iep
Ġk oare
Ġk apper
st ichten
in o
Ġb ur
Ġb akke
Ġb ah
Ġb ogt
Ġb akkers
Ġb undels
Ġa g
Ġa ten
ch o
Ġg o
Ġg ekker
Ġg unnen
Ġg ammel
Ġg aaf
at ieve
ou der
oar den
Ġl it
Ġl ot
Ġl innen
Ġl aait
Ġl ip
aa len
it i
Ġs enten
Ġvan oaf
on kelke
ien a
Ġde b
ait er
de week
om or
om as
Ġop zicht
der ge
ek kers
den kt
Ġst oep
Ġst oft
Ġst ation
Ġst Ã¬nnen
Ġin woners
Ġp es
Ġp af
Ġp oep
Ġp oale
Ġp oppen
Ġp unten
ok ker
Ġmit geven
Ġaan sl
Ġaan holden
Ġaan sloagen
Ġaan loop
Ġaan vlaigen
oe me
aar tje
Ġr a
Ġr ob
Ġr appen
Ġr euk
Ġr uilen
Ġj oager
Ġj irre
og ez
Ġe elske
Ġver str
Ġver beeld
ee Ã«n
aan sie
ot ie
Ġveur k
Ġveur sp
Ġveur dailen
Ġveur rad
il e
Ġwas mesien
op ter
le et
al m
al ter
ar de
ar ken
eb e
ik i
ik jes
Ġsch o
Ġsch el
Ġsch eren
Ġsch ief
Ġsch opt
Ġsch elden
Ġsch onken
Ġsch uldeg
Ġien r
ĠW in
ĠW ies
ĠW anneer
Ġzo woar
Ġzo otje
Ġom h
Ġom standegheden
ĠG eu
ĠG em
ĠG iene
ĠG arr
ĠG inie
ĠH uif
ĠH elder
ĠH istor
Ġnog moals
Ġas best
ĠD ing
ĠD ink
ĠD ouw
ĠD ochde
ĠD ikkie
Ġon w
Ġon zin
Ġon bew
Ġon wenneg
Ġvr Ã¶
Ġvr es
Ġvr eet
ag o
Ġal gemain
ten d
ten te
ui m
uw erd
Ġoet brocht
Ġoet sproaken
ĠB R
ĠB ot
ĠB ez
ĠB urg
ĠB ultje
ĠS oam
ĠS uk
ĠS ans
Ġgr ap
Ġgr oet
Ġgr amme
Ġgr inn
Ġweer sk
ĠM eert
ĠM ep
ĠM oos
ĠM odder
ĠM ann
re fraain
Ġover geven
Ġover all
Ġover Ã¨nde
ĠK ol
ĠK iend
ĠK uper
ĠK unstgaang
ster ge
Ġdeur brocht
Ġdoar oet
Ġwe schienlek
ĠV el
ĠV ien
ĠV il
ĠV uur
ĠV UT
ĠV eujoar
rie der
ge st
ge slacht
ter de
Ġbl ast
Ġle dik
ĠJ ur
ĠJ opke
ĠJ elle
ĠA arm
ĠA AN
Ã¶r te
Ġkw is
Ġkw ast
em ed
Ġkl up
Ġkl ooster
Ġdr aaiden
Ġdr okken
ĠN acht
ĠN ap
ĠO k
ĠO era
ĠO tto
Ġsl uus
Ġbinnen deur
Ġsp it
Ġsp ellen
ĠZ ig
ĠZ ellen
ĠZ euven
ĠZ wolle
ĠZ ahidah
ĠT aal
ĠT Ã¶rf
ĠT jebbe
Ġkon d
ĠP ad
ĠGr uin
ap e
ap st
ap pe
Ġkr it
Ġkr ullen
Ġkr ougen
Ġkr ipsie
ond s
Ã¨ g
Ã¨ ns
Ġwoar en
Ġwoar veur
ĠL arrie
Ġto bbe
ker man
Ġdie ken
Ġpr et
Ġpr ov
Ġtr omp
Ġtr aauwde
Ġnoa druk
ur k
ur t
ĠR ik
ĠR ob
ĠR inus
im Ã¶rgen
Ġtied elk
Ġtied stieden
iz oen
ed der
Ġvot hoald
Ġpl aanke
Ġpl aanken
Ġachter l
Ġachter in
Ġachter heer
ĠÃ²f komst
ĠÃ²f raais
ĠE k
ĠE v
Ġzol en
Ġstr oalde
Ġnij moods
dr aaien
Ġvl ocht
Ġvl int
Ġzun nege
Ġonder dak
sl aid
Ġtwij moal
ode s
Ġbin t
Ġsn oof
Ġsn Ã¶tter
Ġkn oppen
ink els
Ġmen aar
ug s
Ġc amera
Ġmin ste
ren g
Ġre f
Ġre sept
Ġgeb l
Ġgeb eurten
oog le
Ġgl om
Ġsm iet
Ġsm uik
Ġie m
Ġie pen
Ġie zelk
otter de
ekt oakel
bl oaden
ber o
oer e
od an
aas jon
ĠSch ip
br am
br ingen
Ġloater e
Ġgew is
Ġgen ot
ees ke
lek kie
ijn tje
vr uig
Ġzw aait
Ġzw even
Ġbed inken
Ġgev oul
be etje
Ġvuil d
Ġvuil st
Ġvuil den
str oom
ĠKl onk
Ġgroot brocht
me el
vv eld
?âĢĿ .
oun der
Ġer kennen
Ġdrij ent
tr aain
sw aark
ĠVer aind
ĠIn st
Ġverg et
hol ders
Ġbez oen
Veur ege
omm ie
omm elt
Ġverl ust
Ġlang t
Ġhel dere
Ġbek w
Ġbew oog
Ġro ck
Ġverk aizen
kommen d
Ġverb al
Ġverb aauwen
Ġvin t
Ġwoon st
aiken d
ĠFr aanse
Ġtoavel tjes
ĠNeder landers
Ġhaalf schaid
Ġold jes
ĠlÃ¶ zzen
Ġber ieken
Ġploat selke
ĠTr aain
ĠTr ientje
Ġverw aarm
Ġgem is
ĠVan nijs
Ġnijs nijsnijs
ĠEl len
ook t
ĠAl le
Ġkerst dag
Ġmoan e
ĠkÃ¶r ten
ĠkÃ¶r ter
Ver b
Ver g
Ver zichteg
Ver geet
Ġbeste mmen
Ġstre ss
ooi de
vl aais
vl ouer
vl aig
ploat je
ĠHol landse
ĠSp reek
Ġbruier ke
Ġdudelk er
lem oa
sm eten
ĠKn els
ged icht
Ġwinkel tje
Ġjonk jes
ĠPr ikkebain
Ġolder ling
Ġbesl ag
Ġbesl oeten
Ġ4 7
ĠBie zunder
Ġvaar ven
Ġverr oad
av ing
Ġrad jes
Ġstuur t
ure el
Ġroam ke
Ġverdw oalde
all o
aks isch
Ġgebr uken
Ġkleur de
Ġschil dern
Bl ink
Ġzundag s
Ġzundag mÃ¶rn
Ġkan ker
eut sch
Ġnat uurlek
ĠDin o
Ġrug zak
Ġvern aild
Ġ9 6
Ġmaal joagen
ĠOet hoe
ĠCor ona
Hest oe
ket oor
Ġheu p
Ġheu pen
Ġsj aauwen
aat jes
Ġak sie
ĠVol gens
Ġstaar f
Ġstaark te
ieke moa
Ġgold jebl
Ġkunst schilder
Ġander n
Ġverder op
Ġplat te
Ġtekst red
ĠAin ege
Br on
Bert il
Ġmes ienen
Ġstoul tje
IE S
ĠPl ietsie
ĠMan nie
Ġked ootjes
Ġpro ject
ĠHer inner
ĠHer vor
ill y
ĠNoa bers
Ġbekend haid
Ġch em
Ġdw ars
ĠGel ukkeg
Ġaut om
dail d
dail s
ĠGain ain
Wil ma
Ġek sk
Ġblik jes
enn y
Ġnoamen s
Ġlest doags
ni vvels
Ġdreug de
Ġoetst ukken
ĠLeven s
ĠLeven t
Ġbrood je
Ġbrood eten
Ġvoetbal veld
ibb els
Ġbien k
Ġopp akt
Grunneg s
Be ste
heb ben
heb ber
Ġzotterdag oavend
Ġopr oup
Ġopr oupen
Ġdi al
Ġhounder hok
ĠkÃ¶ sten
ĠMe x
ĠBeg unt
ĠOa vend
Ġliggoam elk
ĠHoog elaand
zuik ers
ĠÃ²fw as
bo y
Ġstroom braifke
ĠHar rie
Ġwink elk
Ġler oares
sies oord
Ġstof zoeger
ĠLaif ke
bren g
Ġstand beeld
Ġspiek ern
Ġbaauw laand
gl as
ĠSn Ã¶t
Ġonn aaierde
Elkenain e
ĠOaf rik
ĠDiek hoezen
ĠOnder ndaam
speul d
laif d
Ġknup pel
Ġknup pels
Ġgerust stellen
Ġkovver bak
Ġreag eert
Ġappel boom
Ġmed is
our n
ĠBist oe
Kn elis
Ã¯ ne
Ġstoareg aan
ĠDie mer
Ġwoarsch aauwd
Ġget uge
Ġbon te
Ġknien tjes
Ġroaden s
Ġsche elde
Ġbedr ag
Ġlog eren
** *
best uur
Ġaanh euren
Ġmeulen s
Ġbakker ij
Ġvind st
Ġtak jes
Ġgit oar
Ġfot ot
Ġdaan st
orde on
Ġnoag oan
ĠbÃ¶l kte
ĠVert el
Ġoptreden s
Ġpor re
Ġcont ainer
Ġrel oatsie
Ġ199 0
oeter ge
________________ ________________
ikkeld road
Ġnoord elke
Ġscharr elderij
Ġfles ke
Ġswem bad
ĠOmmel aand
Beg un
Gees je
Ġsie vers
Ġvann acht
Ġroazen de
Ġkunsten oars
Ġtouval leg
Ġenthousi as
Ġkopz eer
Ġkomm un
Ġijs co
cl oud
Ġpat at
Ġspec ioale
klap s
Noord mannen
ĠMarie tje
Ġverainen s
ĠZand t
ĠZiel daip
ĠFran se
Ã´ l
stell ing
Ġrout duuster
Ġoverd reven
Ġfle zze
Ġbelk te
ĠAndr Ã©
ĠWesterwold se
Ġdok eg
ĠmÃ²t ten
ĠMich ael
ĠJos Ã©
Ġswaalf kes
Ġgoe ie
Ġstaai le
Ġromm eln
ĠGR UNNEG
Ġfaver iete
Ġpolit iek
Ġbeken nen
Ġbozz eln
Ġautob us
Ġpublic eerd
Ġverbeelden s
Ġschit tern
ĠPool s
Ġkarst doagen
Sun terkloas
vÃ¶r rels
yst eem
Ġeig elks
olleb oon
ĠStroom braifkes
Ġplaai ster
Ġkoes k
ĠHun ze
ĠHeit ske
ĠDoll ard
Ġgrunneg er
ĠGroning se
Ġbeheur lek
Ġnit tjen
ound cloud
haai m
Ġait s
ĠPortug al
Ġhaang t
Ġhoze vÃ¶rrels
Ġaanwin st
ĠZunnebl oum
ultur ele
ĠHilvers um
Ġkurend riever
helf te
Ġgramme foon
ĠModder man
emed h
Ġnijsnijsnijs nijs
! !âĢĿ
. :
6 6
A i
A arm
A AN
A ukje
B ez
B otter
B art
B akker
B egr
D uut
D oagen
D ank
D aip
E E
E M
E m
E rik
G oan
H om
H ugo
K o
L eg
L eer
L aange
L iekt
L ammert
M on
M aal
M insken
N ie
N Ã³
O pen
O altje
P ot
R oup
R adio
S CH
T C
T ekst
T uurlek
U LO
W aarm
W oorden
W idde
Z and
Z itten
b ben
b aiten
b org
b uro
b uurt
b urger
c ert
d eld
d uur
d iet
d uuts
e indelk
f ietsen
f igel
g erd
h ait
h oek
h ouw
i aan
i ren
i Ã©n
j as
j uvver
k in
k ou
k opt
k astje
l o
l iene
m acht
m aaid
m int
n ust
n eut
o se
o int
p ampier
r et
r ap
r oen
r oatsie
r oos
r adio
s ing
t wij
u h
u bl
v o
v ou
v it
v io
w aarm
w aaien
w ard
w ikkeln
w izzeln
z it
z oaken
Ġ Ã¨l
er ing
er ge
Ġd acht
Ġd Ã©
Ġd agen
Ġd ubbeld
Ġd ello
Ġn em
Ġn oakt
Ġn ichtje
Ġn duur
ai ze
ai gels
Ġw h
Ġw oak
Ġw od
Ġw ais
Ġw ins
Ġw aggel
Ġw enneer
Ġw onsdag
an sen
Ġv eg
Ġv og
Ġv oam
Ġv oag
Ġv aaiern
Ġv elen
Ġm as
Ġm aken
Ġm iste
Ġm Ã©Ã©r
Ġt ee
Ġt ab
Ġt amt
Ġo otje
Ġh ert
Ġh of
Ġh uren
Ġh een
Ġh appen
Ġh aaien
Ġh oaze
Ġz oe
Ġz il
Ġz uur
Ġz iet
Ġz uide
Ġz uchten
Ġk achel
st ege
st ip
st anders
st ukken
Ġb ou
Ġb as
Ġb alen
Ġb ont
Ġb ure
Ġb eurten
Ġb aby
eu te
eu veg
Ġa ks
ch ientje
Ġg ooit
Ġg under
Ġg unt
Ġg obb
Ġg oeien
at te
oar ste
Ġi t
Ġl elk
Ġl ank
Ġl okt
Ġl apke
Ġl oekje
eg els
aa ch
et on
it eerd
Ġs ur
Ġs inter
Ġs up
Ġs oll
Ġs ummers
Ġs oavens
on ze
on kel
on ard
on ica
ien de
eer ster
Ġop be
Ġop doan
Ġst oam
Ġst aat
Ġst ieve
Ġin k
Ġin nemen
Ġin levern
Ġp ant
Ġp obbe
Ġp untje
Ġp appeg
ok ke
Ġmit doan
Ġaan sp
Ġaan reden
Ġaan komst
Ġaan zetten
Ġaan brocht
Ġaan keek
oe ve
Ġr iet
Ġr eert
Ġr its
Ġr aim
Ġr ubber
Ġj oug
Ġe del
Ġe elsk
Ġder Ã²f
Ġver sn
Ġver ongel
Ġver pakken
aan val
Ġte st
il it
il derde
uu ft
uu kt
uu md
ver ij
ver de
al er
ar gens
eb iel
Ġwat ten
Ġsch eep
Ġsch itter
Ġien sch
ĠW af
ĠW achten
ĠW ind
ĠW aiten
Ġom b
ĠG aauw
ĠG uikema
ĠH uil
ĠH oezen
ĠH ammer
ĠH oc
ĠH oorn
ĠD i
ĠD aaier
ĠD ichten
ĠD ideldom
Ġon l
Ġon ger
Ġon mis
aai ger
Ġmie zulm
Ġvr ai
oan iums
Ġal moal
Ġbe se
Ġbe sten
Ġbe holden
Ġbe proaten
ui ers
uw s
Ġoet komt
Ġoet legd
ĠB ij
ĠB av
ĠB uze
ĠB oris
ĠS pel
ĠS int
ĠS aul
Ġgr ef
Ġgr ind
Ġgr uid
ĠM ok
ĠM ad
ĠM ir
ĠM art
ĠM ieke
ĠM ovven
ĠM Ã²t
ĠM omenten
icht eg
ier n
Ġover tou
sch oal
sch uur
sch eet
sch oenen
ing ang
ĠK ieken
ĠK ikker
ĠK rieg
Ġdeur tje
Ġdeur hÃ¬n
ĠV R
ĠV ogels
egen s
ter oad
Ġbl eken
Ġle zer
Ġf i
Ġf oet
Ġf ez
Ġf odegroaf
Ġf eidelk
ĠJ ant
ĠJ uf
Ġain egs
ĠA B
ĠA S
ĠA u
ĠA le
ĠA uwerd
Ġhet t
Ã¶r ten
Ġkw aal
Ġkw oadens
Ġkl op
Ġkl acht
Ġkl anken
Ġbo bb
Ġbo spad
us ie
ĠN oast
ĠN ord
Ġkin k
Ġkin de
Ġkin ve
ĠO otje
Ġsl uip
Ġsl oeken
Ġsl aipen
Ġbinnen komst
Ġbinnen kwam
Ġsp oul
Ġsp ijt
ĠZ ern
ĠT ol
ĠT em
ĠT hoes
ĠT immer
ĠP o
ĠP aas
ĠP etr
ĠP IE
and o
ĠGr ond
ĠGr Ã©
ĠGr ote
Ġkr oak
Ġkr uk
Ġkr oon
Ã¨ t
ĠL at
ĠL ait
ĠL iek
ĠL ul
ĠL ees
ĠL opt
Ġto eten
Ġto ets
els e
um are
ut ie
ut ters
Ġkwam st
Ġzeg stoe
Ġpr oc
Ġpr outen
Ġpr aten
Ġpr oesten
Ġpr ikkeldroad
Ġtr ankiel
ur gen
Ġol ste
ĠR oad
ĠR echt
ĠR ein
ang o
iz zer
aaier te
Ġlu stert
Ġlu sterde
Ġvot g
Ġpl aat
Ġachter baank
Ġdo c
Ġdo ekt
Ġdo ekers
id ders
ĠÃ²f t
ĠÃ²f valen
ĠÃ²f sloeten
ĠÃ²f reken
Ġtegen op
Ġtegen stellen
ĠE U
ĠE cht
ĠE le
ĠE ten
ĠE elde
ĠE ef
Ġhoes dokter
ft al
Ġvol sloagen
Ġstr oop
Ġstr Ã¶dde
es l
uil de
ĠGrunneg se
Ġvl aag
Ġvl ammen
Ġman us
Ġko elk
Ġko ekje
est ie
est ad
ĠJan ne
ĠJan Blaauw
ĠJan smoa
Ġlai wen
Ġonder nemen
Ġonder schaaiden
Ġonder zuiken
Ġworden de
sl eu
sl id
sp er
Ġker mis
Ġker oazie
Ġbin ve
ĠF ietsen
Ġkn ollen
Ġkn apte
Ġc m
Ġvert ier
Dou we
Ġgl oud
Ġgl euf
Doar deur
gel e
gel uden
Ġaar ns
ve el
Ġall ineg
Ġbet uun
oer a
oer de
per i
od umare
ĠC our
ĠC afÃ©
Ġbel ooft
Ġbest elde
liek t
lek s
lek se
ijn boek
vr o
vr und
Ġzw ak
Ġme et
Ġgez w
Ġgev ulde
Ġboven aan
Ġmoar en
str aat
oren s
Zo wat
Ġstil leg
Ã¨l ske
Ġlaand schop
Ġer g
ult ureel
ep ke
Ġrond l
Ġrond lopen
Ġdrij kwart
tr appen
tr apt
ĠVer r
ĠVer st
Ġschr aiw
Ġlopen s
Ġeen d
Ġniet s
ĠIn tern
kl ok
Ġbez woar
Ġbez Ã¶rg
Ġkovv iet
?âĢĻ .
Ġont spannen
ĠBl oud
spr ekers
Ġbek ommen
ic ol
Ġkiek ers
joar sdag
Ġale wel
Ġpak kel
Ġbew iezen
Ġbew ezen
Ġbew oonders
ich ies
Ġverk Ã²llen
Ġkloar e
ov vers
ĠStad s
kr aande
St op
inter view
ĠVr uig
ĠVr und
ĠAn nechie
laand s
Ġdoch st
Van of
ĠU LO
Ġkoamer ke
Ġduur der
Ġrust ig
sem oa
Ġaarm oude
Ġher ken
Ġber ie
Ġber oemde
derij en
Ġreg io
Ġverst omd
Ġverw aarken
Ġverw even
ell a
ell etje
Ġspeul er
aam pen
Ġstok stief
Ġ3 4
Ġ3 5
Ġ3 7
Ġoar dege
Gr ades
Sch oap
Sch rief
over kaant
irr elt
ĠEl lie
Vr und
Ġkat te
Ġdreu mer
ont wikkeln
Ver hoalen
eden k
waark ers
Ġsnij pop
Ġant i
Ġfiets ers
Ġth er
noa ste
Ġnam men
ĠSp iek
ikk et
ĠDr ees
ĠDr eum
ĠDr Ã¬nt
Heur st
Ġ200 4
oi re
ler oar
Ġbesch uten
Ġhuil p
Ġpas poort
ion ele
Ġjonk ies
pie pen
Ġwind meulens
int a
Ġor der
Ġor aanje
Ġverv oarde
Ã¶rm s
lie ste
ĠOm toalen
Ġhoop t
Ġhoop vol
ĠHen nie
Ġdeu gen
Ġschoon zeun
Ġschoon zuster
Ġten de
Ġten ail
ri x
Ġgebr uk
Ġkol leg
ab eth
hai mers
Ġdichter es
Bl oud
Ġzundag mÃ¶rgen
Ġnat te
Ġdoag liekse
Ġ18 8
Tr aauwen
Ġar b
An twoord
Ġmaal j
ann ek
ann ing
Ġfr uit
Ġhe el
ĠOet zonden
Me schien
Ġkammeroad jes
Ġkammeroad ske
Ġgedicht je
Ġgedicht jes
Ġschrief waark
Ġ7 5
Ġak sept
Ġblad je
reg at
derd aip
Ġoorlog s
Ġoorlog stied
ĠOn ze
ĠOn ner
Aander n
Ġvergr oot
ib on
unn ek
Ġked oos
Ġked ootje
Ġpro za
Ġtaiken t
Ġbain tjes
Ġklas sieke
Ġstain tjes
Ġdw oalen
Ġdw ingen
Ġmom pelt
ĠGel euf
Ġstud aaiern
Ġstud io
Ġroe me
ĠrÃ¶t zooi
ĠÃ ł
Ġstoat ege
ĠAr riv
Ġzoal s
Ġopz Ã¶cht
ĠÃ²l d
Ġopp akken
ĠTe x
Be etje
Ġvout stappen
Ġregel moat
Ġpost bode
Sp eul
Tegen swoordeg
aard ij
Ġjeu ken
ĠMe ijer
Ġmel odie
ĠOa bram
Ġbar st
Ġbar sten
haal zen
Ġsnoet je
Ok Ã©
bÃ¶rg er
Ġdroad post
Ġstroom t
Ġaang st
ĠHoag se
ĠSm ilke
hem el
Ġwink eln
Kon st
Ġboan tje
Ġverkl oarde
Ġbevr ijd
ĠMoar um
Ġswoar der
stoal eg
ĠNoorden veld
ĠWest en
ĠOldam b
Ġstam pen
Ġstam toavel
ĠOaf ke
Ġbetr apt
Ġkwoa jonges
speul t
ĠPer baaier
Vot doalek
Ġopv atten
Ġrit me
ym p
ĠPar redies
Ġhuif den
qu e
Ġmed ia
Zun ne
Ã¯ n
Ġlek ke
ole on
Ġpiep ke
Ġainzoam haid
Ġlo ert
Ġres pect
ĠTh omas
Ġglim mers
imm y
ĠEurop ese
Ġsmoak elk
Ġprakkez oatsies
Ġspier tjes
ĠEngel and
Ġcol lega
Ġhoud je
Ġschoam t
Ġnoamvaal s
Ġgest ommel
Allen t
ĠMooi ste
Ġamb tenoar
ĠNedersaks ische
het net
Ġvervel en
Ġkraa bt
Ġtrillen de
ĠÃ¨nd je
odde ma
Ġoverb odeg
Ġmuzik oale
Ġwup t
Ġtil de
ĠMO VV
gez ond
ĠdÃ¶rps hoes
streek s
Ġsier oaden
ĠDan iÃ«l
Ġtril t
Ġtril de
Bel ang
Ġhoaver klap
Ġbatter ijen
ĠRem melt
Ġdaans de
Ġlut jen
Ġsmook t
aber ij
Ġheern s
ĠStel vio
ĠGrait je
Ġgrai mde
ĠVand oage
Ġword st
Ġsegoar et
Ġmiemer n
Ġverschr ikkelk
Onner wegens
Ġaarbaiders hoeske
Ġzelf s
ikiped ie
Spr eken
Ġfun ksie
Ġspl inter
Ġjur k
ĠLi anne
Ġcir cus
Ġharm on
Ġwerkelk haid
ĠAndr ais
ĠLang qvist
Rond om
Ġuter ste
Ġfaver iet
Ġvernuver n
ĠPervin zie
Ġtax i
Ġsling ern
ĠCar l
irk jan
Ġtegem uide
Laif de
Ġbilj art
Ġopper de
ĠLit ouw
Ġ059 4
ÃĴ l
Ġpoed ie
Ġoff ic
Ġbrog je
Ġartik el
Ġmut se
Ġstum per
ĠSy brand
inkh oan
Len ie
Ġbid den
elm ijnboek
ĠLamme chientje
Ġaarven is
Ġbelaang riek
Boek ou
Ġavvek oat
ĠklÃ³ kje
Ġmedes ienen
Ġstreekt oalen
ĠZaiken hoes
ĠNoordpolder ziel
Ġsest eg
Ġvrundel ke
ĠLÃ¼ beck
Ġdow nl
ĠArab isch
Ġmicr ofoon
Ġagend a
Ġschos stain
bli otheek
Schien boar
Ġstiekeld road
Holl anders
ĠniÃ© t
Ġlaait er
ĠDouw e
aasjon oale
Ġverbal derd
ĠOethoe ster
Ġenthousias me
Ġainegs zins
ĠCour ant
ĠArriv a
! âĢĻ,
) ;
0 1
0 8
3 7
9 6
: âĢĿ
A A
A AI
B o
B is
B oom
B Ã¶rg
B oudel
B lie
B ah
D aaier
D uuster
E s
E do
G erd
G oede
H eer
H oes
H anna
I D
I S
J im
J uvver
J ampie
K ob
L I
L icht
L euf
L aat
L inks
M W
M aank
M artin
N S
N iet
P ien
R R
R oar
R ik
R em
R oad
S uk
U S
V inst
W aar
W ais
Z es
a um
a uzen
b a
b ai
b or
b ok
b eker
b ainen
b anden
b uzzen
b orden
b orst
b undels
c ken
c ourt
d oen
d ainsten
f un
f ort
f ilm
g oed
g ooid
h ad
h oamer
h akken
h oaren
h out
h angen
h istor
h oorns
h uizen
i ken
i os
i oun
j uf
k ok
k ar
k ast
k ies
k ocht
k ind
k iender
k undeg
l ied
l ig
l ust
l eker
l anden
m ag
m egen
m ure
n aacht
n ummers
n ommedag
p on
p oal
p oalen
p elde
p iep
p akket
r u
r at
r ode
r ingen
s rug
t ot
u ard
v oars
v lucht
w ar
w iek
w aaide
w onder
w onden
w odder
w ikipedia
w iki
y cl
z Ã¶rg
z itter
¢ n
Ã ¢n
É ĺ
Ġ @
en ter
Ġd ain
Ġd op
Ġd al
Ġd aauw
Ġd ainen
Ġd ir
Ġd eun
Ġd oken
Ġd uud
Ġd ÃŃ
Ġd ampen
oa z
Ġn oppen
Ġn immer
ai leg
Ġw ee
Ġw oaken
Ġw aange
an a
an se
Ġv oas
Ġv uld
Ġv aier
Ġv ader
ie len
Ġm ult
Ġm oorden
Ġm izzen
Ġm aanje
Ġm izzel
Ġt illen
Ġt uten
Ġt uf
Ġt aks
Ġt oamelk
Ġo e
Ġo el
Ġo eit
Ġh oaken
Ġh uurd
Ġz ou
Ġz achte
Ġk uk
Ġk aft
Ġk aaizer
st ol
st aait
st eken
st opt
st oulen
Ġb it
Ġb iv
Ġb oane
Ġb aanken
el ken
el eke
Ġa v
ch er
Ġg aal
Ġg if
Ġg aais
Ġg Ã¨ld
Ġg ouden
Ġg ierde
Ġen kels
Ġen orme
eur e
Ġl okken
Ġl oek
Ġl oof
Ġl ogen
Ġl ongen
Ġl eunde
aa b
aa str
et se
et ieke
it u
it ies
Ġs ent
Ġs ummege
or ven
or rel
Ġvan gt
Ġvan middag
ij pers
ien den
Ġde eg
de weerd
om in
eer sten
eer appels
Ġop he
Ġop droagen
ek d
ek r
je derij
Ġst in
Ġst oaken
Ġst oit
Ġst oeven
Ġin b
Ġin holden
Ġin breker
ol ie
ol ph
Ġp on
Ġp un
Ġp and
Ġp azzen
Ġp anne
Ġp Ã¬ns
Ġp ongel
Ġp uzzel
Ġmit waarker
Ġaan br
Ġaan zet
Ġaan rieden
oe den
aar s
as h
Ġr u
Ġr eur
Ġr ot
Ġr ink
Ġr od
Ġr oapen
Ġr oep
Ġr emmen
Ġr ibben
Ġr ails
og an
Ġe ind
Ġder noa
Ġder achter
Ġver ploat
Ġver vlogen
Ġveur Ã²f
Ġveur komen
Ġveur bij
il k
il p
Ġwas ken
ver h
ver sch
le st
un g
un egen
al s
al je
eb ok
âĢĻ :
âĢĻ ?
ik and
ik kel
oal s
Ġsch ok
Ġsch aauw
Ġsch uren
Ġsch eet
Ġsch une
Ġsch uuns
Ġien t
ĠW ied
ĠW oagen
ĠW onder
ĠW ibben
ĠW ikipedie
Ġzo oi
Ġom d
Ġom men
Ġom slag
ĠG oan
ĠG ent
ĠG olden
ĠH oe
ĠH oal
ĠH oazen
ĠH oge
ĠD under
ĠD och
ĠD VD
am es
ied ag
Ġvr oren
Ã¶ tje
âĢĿ !
Ġbe vel
Ġbe ide
Ġge in
Ġof t
Ġof schaid
men ee
men sen
Ġoet m
Ġoet t
Ġoet valen
Ġoet figel
iek se
oo dt
ĠB ek
ĠB as
ĠB oon
ĠB aaide
ĠB ekende
ĠB MW
ĠS and
ĠS pe
ĠS oamen
ĠS oms
ĠS uper
ĠS ilbo
ĠS aksen
ul en
Ġhaar te
Ġgr apke
ĠM M
ĠM o
ĠM ol
ĠM oal
re f
re et
Ġover kaande
Ġover ende
sch aarm
sch iere
ĠK iel
ĠK ever
Ġdeur b
Ġdeur ke
Ġdeur hin
Ġdeur deweek
Ġdoar ent
Ġdoar zoot
Ġwe elde
ĠV W
ĠV oak
ste ek
egen de
rie ten
ge ft
ge dr
ge spr
ge moakte
Ġbl okken
Ġbl Ã¨ren
Ġbl oadjes
Ġf eg
Ġf elle
Ġf eesten
Ġf iebeldekwinten
ĠJ ens
ĠJ oris
ĠA t
ĠA ut
ĠA gnes
oor zoak
Ã¶r k
Ġmo dern
Ġmo chten
Ġmo vven
Ġkl er
Ġkl us
Ġkl Ã²
Ġkl ank
Ġkl apt
Ġkl adden
Ġbo on
Ġbo chten
oak eld
Ġdr ai
Ġdr Ã¶
Ġdr ang
Ġdr oug
Ġdr ingt
ĠN oam
ĠN iet
ĠO og
ĠO me
ĠO nd
Ġsl oek
Ġsl oepen
Ġsl apen
Ġbinnen kÃ¶rt
is ke
Ġbr ommen
Ġsp ons
Ġsp uttern
Ġsp aigels
Ġzee st
ĠZ ij
ĠZ oas
aand blad
ĠT ommie
Ġkon sentr
Ġtou holden
Ġtou hollen
ĠP ol
ĠGr u
ĠGr uide
ap ie
Ġkr as
Ġkr im
Ġkr ummels
Ã² ns
Ġja zen
Ã¨ le
ĠL ou
ĠL ege
ĠL onden
ĠL odewiek
âĢľ ,
Ġgoud koop
Ġgoud keuren
ĠI mca
Ġpr aan
Ġpr op
Ġpr oem
Ġpr oef
Ġpr uif
Ġpr onkjewail
ig ing
Ġtr oon
Ġtr apper
Ġtr ekje
Ġtr appers
Ġnoa geslacht
Ġwer k
ĠR D
ĠR on
ĠR ust
ĠR ijn
ĠR ev
ĠR oomse
Ã²f dailen
im t
aren d
ed ie
ed ia
Ġpl uuster
Ġpl uus
eke s
Ġachter bl
Ġachter bleven
Ġwol ven
Ġdo Ã¡r
Ġkop ern
ĠÃ²f blieven
ĠÃ²f broken
Ġtegen zin
Ġhoes hold
Ġhier van
Ġvol moakt
Ġstr uu
dr okt
Ġvl og
Ġvl ekken
Ġvl iegen
Ġko bbel
ander d
ĠSt ief
ĠSt aarke
est roat
Ġlai meneer
Ġzun licht
vel op
Ġonder grond
ist isch
sl u
sl ing
sl im
sl oapen
sp oor
eerd eg
Ġker n
Ġsn oar
Ġsn ok
Ġsn akken
Ġsn uv
Ġsn idt
Ġsn uustern
Ġsn oede
Ġsn orre
As mits
Ġkn open
Ġkn apper
Ġc an
Ġc el
Ġc omb
Ġvert wie
Ġ... âĢĿ
Ġston k
Ġmin id
Ġre per
Ġre veln
Ġgeb ak
ellen s
Ġwaark de
Ġwaark ten
Ġwaark loos
ust rie
Ġgl ief
Ġgl ans
Op ains
Ġsm oel
Ġsm akt
Ġsw aar
Ġsw ier
Ġsw aait
Ġsw aaien
Ġsw oager
ud ger
Ġbet onnen
ber ichten
per ij
per gram
ĠSch oon
ĠSch anze
ĠC arry
Ġfiet sp
Ġbel le
Ġben en
Ġkre diet
enk amp
Ġbest ud
gr ode
gr oepen
gr oaver
ĠWil st
uus d
Ġzw om
Ġgez eur
Ġbed anken
Ġboven ste
Ġboven oet
Ġap pl
Ġjon ken
ĠKl ap
ĠKl inker
Ġboeten deur
oun t
ep eut
Joa wel
Ġrond str
Ġverd acht
Ġverd aip
Ġschr aiwen
amp us
amp pot
ĠIn a
Ġverg izzen
bel le
bel ang
Ġbez ig
Ġspr ing
Ġspr eker
!âĢĿ .
Ġverl Ã¶st
Ġont g
Ġont l
ĠBl ik
ĠBl ied
spr ekend
oap els
ic it
ail l
Ġkeer l
Ġnk aander
Ġbew onder
Ġbew aarkt
Ġbew uste
Ġvroag taikens
Ġklaain zeun
Ġlaang ste
ov verd
Ġlicht jes
Ã¨r tus
St ief
St ud
vol gen
vol len
Ġnkander s
ĠAn tje
ĠAn loo
Ġdoch den
oie voars
aiken s
kel ijk
Ġaarm ou
ĠSl ap
ct ie
Ġher ders
Ġan ekd
Ġvast b
Ġrie ten
Ġvrij gezel
Ġmeziek oale
ĠWie der
Ġmis br
ĠMien tje
onk o
onk elk
aam pe
ĠWoar op
doad eg
Ġ3 8
Ġoar den
Sch oon
Sch aande
Ġred ding
ĠBr om
ĠBr ouwer
ĠBr onno
Ġboudel tje
arr eln
Ġbuur te
Ġkerst verhoal
Ġstroat stainen
ĠZe eland
Ġbeste den
ĠNij laand
Ġstre pen
Ġstre ekje
Ġraai ger
Ġsnij d
Ġsnij kl
if st
if ant
Ġlet st
Ġgevuil ege
ĠHol ten
th akker
ĠSp ul
ĠSp reekst
Ġda ys
Ġblied eg
Ġkeuken roam
wie vel
Ġlief de
Ġpers onen
oit je
Ġger eer
Ġger ak
Ġger oas
Ġger oazie
Ġger oaniums
Ġoavend eten
Ġmond Ã¶rgel
ER S
Ġvertr ekken
Ġleef d
Ġsloap t
ĠKn Ã¨lske
!! !âĢĿ
Hier onder
Ġstap ke
Ġverz Ã¶rgens
ĠPr o
ĠPr achteg
ĠPr ins
Ġor dent
Ġverv oer
Ġies boan
Ġverr opt
av ia
Ġgeh eugen
Ġdeu p
Ġdeu skes
ine el
Ġbeh and
Ġbeh ongen
Ġbeh andeln
Ġmain d
Ġten ten
Ġgras veld
stoan d
ieter g
Ġbraif kes
Ġplietsie man
Ġ6 4
Ġkol der
ĠBe at
ĠBe sch
sn ieden
abb elt
Ġschil ders
Ġkan ner
Ġreken t
Ġ18 7
itter t
Ġvern eem
Ġvern ailen
ĠPa us
Ġar m
Ġrest en
Ġhe ste
Ġkammeroad skes
pad je
Ġschrief wedstried
Ġpien lek
ĠVol gende
kop e
Ġpol ten
Ġholt d
Ġvaast holden
Ġad vies
Ġaner kaant
Ġfeb rieken
fr ee
ister s
Ġlevent ege
ĠkÃ¶rt sleden
ĠVeen dammer
Ġmainsttied s
ĠZuud brouk
Ġmes j
Ġschool tied
Vol kert
Ġsnel haid
Ġsnel weg
noar s
Zol st
Ġbep aarken
Ġbev est
entr oal
Ġtek eer
Ġtaiken d
Ġtaiken de
moat ie
Ġbak stainen
ff en
noam es
Ġviefteg er
ĠrÃ¶t z
ĠrÃ¶t tege
Mar ie
Ġopsch rief
Ġschaar be
Ġkost boare
Ġbedocht en
OA K
Pr achteg
ĠDuuts er
Ġoetst okt
gem aine
Ġdis moal
Ġdis keer
Ġoetz Ã¶cht
Ġem mers
Ġverm eld
boer derij
ĠÃ²l de
Ġaanb od
Ġpepier tje
Ġonver schil
tj ie
ĠSte en
ĠSte yn
Ġsmok te
ST R
Ġpost ketoor
ĠOver aal
act ies
Ġbrand stof
AI T
ub ben
Ġaanp akt
taiken d
Ġbaal ken
Ġvre zen
ce des
age holder
spul tje
rect eur
Ġbul de
ĠZun ne
Ġlevens doagen
Ġ194 0
Ġ194 4
Ġwegen s
Ġversw on
Ġversw onden
ĠBern hard
Ġkontr ol
Ġkontr ole
off en
ĠHil da
Fr ee
Fr Ã©
ĠgÃ¶n gen
Ġpop kes
Ġpop meziek
Ġstoapel gek
laif ste
laif hebbers
ĠwÃ¬n d
ĠwÃ¬n sen
ĠwÃ¬n steg
Ġervoaren s
Ġnu men
Ġpap er
Ġpap ieren
Ġgehaai men
ĠWeer om
ris ha
Ġbotter vogel
schil derij
arb izon
Ġvieven vatteg
Ger rit
Ġpiep t
ĠJe hova
Ġmeu gel
Ġres erv
Ġbon kt
Ġ196 0
Ġjuf fraauw
Ġaldern oarste
Ġvlaig mesien
Ġmek aaierde
Ġvoel e
Ġmaark te
Ġaanh eurd
ĠQ u
Ġieder bod
Ã¶tter ij
Ġvo zzen
Ġbeker tjes
Ġjammer n
Ġhing oan
Ġzeu pke
Ġzwem boksem
Ġreu tje
Ġkwed el
Ġaansch aft
uc ces
Ġhobb el
ĠbÃ¶l ken
Ġoetv onden
ĠVert r
IN G
ĠÃ³ Ã³k
Ġsing elier
ĠRus laand
sep teren
ĠHond je
Ġkring e
Ġslinger de
ĠAll inneg
Oaf ke
Oaf ko
Ġdrie st
Ġaanbel and
Ġoverb leven
Ġoller wetse
???? ????
Ġveeg t
Ġhaail ege
Ġzanger es
Ġvrol eke
Kat rien
Verd ikke
Ġpaar tieds
Ġdattien de
Ġschoe velde
att oo
Beg riep
Ġvle zzen
Ġab sol
Ġvann aacht
spl aain
Kw oa
aut omoat
ĠEem s
olog ische
Ġvier d
Ġkomm ed
AD O
Ġverpleeg ster
ĠBon if
vek aanzie
weerd eg
Ġint ell
Ġallerh ande
Ġvari ant
Europ ees
Ġkam net
Ġaankwam en
Ġoetp eb
Ġmeld de
ĠDam sterdaip
ĠVek aanzie
Ġkoek oek
Ġdwarr eln
Ġkapt aain
Ġfle zzen
Ġpeper m
ĠDood stil
Ġgrui den
ĠLies je
Ġprod uc
Ġstoe be
Ġverve elt
ĠWaarm te
Ġzunneb ril
abr iÃ«l
Ġmais veld
Ġhaauw gen
ĠDor kwerd
ĠWilde veld
Best elmijnboek
for zheim
Ġnoak ieken
Ġsoc ioale
ĠHui ft
ĠDÃ¬n k
Ġkurz us
ĠLauwers meer
Ġvles ke
Ġjoek el
Ġverantwoord elk
Ġraaizeg er
Ġraaizeg ers
persoon s
Ġscoot mobiel
Ġveurwoar den
ĠBegr oot
ĠOs kerd
ĠZÃ¨l gn
ĠLim burg
Ġkuken s
Ġkoff ie
Ġglimmen de
ĠRomein se
Ġsigar et
Zok swat
Ġtor enk
ĠKap it
ĠKeun ing
Ġkwastje de
laan ders
part ij
roem te
ĠHin dek
ĠHov inga
ĠHann y
Ġgefl uuster
Ġplots klaps
Ġakked aaiern
ograf ie
Rust eg
tek sten
Ġsikt oar
agg elk
Ġbevol ken
Ġvleugel tjes
Ġlangzoamer haand
ĠÃ²fwez eg
ĠHogeland ster
Ġambul ance
tw itter
Ġunivers iteit
Ġwaig je
Ġhonder den
Ġkif kederij
stoat sion
ĠKet aaier
Ġsnokken d
Ġhemm eld
ĠSunter meerten
Ġbunzel achteg
Ġcolum n
ĠLoppers om
Ġmont eurs
Ġport ier
Ġkombin oatsie
ĠPink ster
Ġploff iets
Ġantw oordt
Ġmizz elk
Ġhans ka
Ġlel lek
ĠschÃ¶s stain
ĠJet ske
Ġainsp aan
Ġspont oan
ĠWaarv um
omfant elk
vh N
ĠGarr els
ĠSans kriet
ĠNap oleon
Ġtromp et
ĠHervor mde
ĠNoabers hoes
houw el
Ġsinter ij
onard a
ĠPo inte
ĠLul al
Ġdoekers bril
ĠJanne woarie
Ġkovviet oavel
Ġmaalj oagerij
BÃ¶rg meester
Ġmizzel ke
ĠWibben s
Ġdoarent egen
Ġvertwie veld
ĠverzÃ¶rgens hoes
ĠSteyn tjie
4 5
6 0
9 0
? ,
A G
A is
A nder
A fijn
B B
B ouk
B aange
B oeren
B oele
C o
C arry
D or
D ust
D uurde
E D
E K
E x
E erd
G a
H m
H ee
H and
H olden
I X
J annes
J oris
K oop
K ost
K Ã¶rt
K euneg
K neels
K irrel
K iener
L ies
L ucht
M a
M in
M elk
M ijn
M aag
N ico
N ellie
O gen
O eten
P ait
P oe
R eken
R Ã¶t
R oem
R egel
R ients
T ien
T aan
T ille
U R
U nder
V oor
V ern
V een
V aalt
V leden
V rede
W oon
W iend
W insch
b oat
b ist
b ank
b ion
b akke
b ankje
c ob
c tr
c omp
c ursus
d is
d haid
f ester
f ormoatsie
f ebrieken
g as
g oie
g rieze
h uil
h oast
h oven
h oed
h Ã²l
h aanden
h emmen
h aard
h ande
i oanen
j o
j onkje
j agd
k oet
k ont
k unst
l ij
l ee
l am
l oag
l ief
l ieden
l ere
l oazen
l ozen
m oale
m useum
n it
n ek
o ege
p ul
p eerden
p etr
r ichten
r ekend
s kerk
t et
t elk
t oer
t oene
t illefoon
u ven
u le
u les
v oor
v ege
v est
v lek
v ari
v akkers
w ozzen
z ode
z onder
z ummer
z elt
z ienen
z zer
Ã §
Ã ¹
Å į
Ġ q
Ġ ..
Ġ euvel
Ġd oa
Ġd et
Ġd ol
Ġd re
Ġd oader
Ġd aam
Ġd uun
Ġd uden
Ġd oll
Ġd aarms
Ġn ok
Ġn eb
Ġn ik
Ġn ied
Ġn aal
Ġn oot
Ġn ep
Ġn eder
Ġn aam
Ġn yt
Ġn uzz
Ġw af
Ġw etten
Ġw Ã³l
Ġw aaig
Ġv i
Ġv acht
Ġv illen
Ġm Ã¬
Ġm unt
Ġm oanen
Ġm one
Ġm ass
Ġm unten
Ġm aisten
Ġm uts
Ġm ulder
Ġm Ã²st
Ġt u
Ġt ij
Ġt om
Ġt ul
Ġt aand
Ġt omp
Ġt int
Ġt alent
Ġt aze
Ġo u
Ġo ude
Ġh inter
Ġh ern
Ġh ooi
Ġh uurde
Ġz u
Ġz eb
Ġz oagen
Ġz ieden
Ġz oezen
Ġz inken
Ġz ogez
Ġk as
Ġk ik
Ġk im
Ġk ip
Ġk aalf
Ġk euren
Ġk ouken
Ġk ureg
Ġk aampke
Ġk iste
st op
st eert
st wedde
in dt
Ġb okken
Ġb olle
Ġb oazen
Ġb ons
Ġb oll
Ġb urg
Ġb ullen
Ġb aauwde
Ġb Ã¨st
Ġb iggel
Ġb ack
el eur
el on
el oers
Ġa ale
Ġa ula
Ġg w
Ġg len
Ġg oast
Ġl ain
Ġl ak
Ġl us
Ġl Ã¶t
Ġl oezen
Ġl ich
Ġl angen
Ġl och
Ġl oade
Ġl int
Ġl achte
Ġl ande
Ġl ainde
et e
it ief
Ġs ed
Ġs orry
Ġs edel
Ġs odemieter
Ġs iren
on ten
Ġde zain
Ġde skund
de sche
eer tjes
Ġop rit
Ġop gew
Ġop luchten
ain j
Ġst en
Ġst ek
Ġst rie
Ġst ang
Ġst reven
Ġst eltje
Ġst inker
Ġst ovven
Ġst eunen
Ġst ieg
Ġst uuts
Ġst euten
Ġin w
Ġin gen
Ġin vl
ol derd
ol anda
Ġp eu
Ġp uur
Ġp oet
Ġp oas
Ġp ink
Ġp ez
Ġp oel
Ġp oort
Ġp inda
Ġdat ten
ok io
Ġmit nam
Ġmit nander
Ġmit nkander
Ġaan leg
Ġaan slag
Ġaan valen
oe perd
Ġr ouk
Ġr aag
Ġr oast
Ġr oof
Ġr ekken
Ġr ais
Ġr aipen
Ġj ak
Ġe st
Ġe fkes
Ġver zen
Ġver sp
Ġver over
Ġver ont
Ġver inne
Ġver antwoorden
Ġver alter
aan ze
ot es
Ġveur l
Ġveur nomen
Ġveur valen
Ġveur komt
Ġveur drachten
il der
Ġwas ke
op ie
op slag
ver wege
Ġik zulf
le d
le dder
un a
un steg
al om
al ten
al ius
eb ie
eb el
eb oer
eb omen
âĢĻ )
ik l
Ġwat er
oat or
Ġsch ul
Ġsch ur
Ġsch im
Ġsch onen
Ġsch up
Ġsch eurd
Ġsch ovvel
Ġsch oenen
Ġbie holden
Ġien e
Ġien s
Ġien z
Ġien woners
Ġom z
Ġom zet
Ġom trekken
Ġom toalen
Ġze ven
Ġze zze
ĠG at
ĠG ait
ĠG ol
ĠG ast
ĠG eertje
ĠG itje
ĠG emainte
ĠG ADO
ĠH it
ĠH aand
ĠH Ã©
ĠH OO
ĠH EUR
ĠD on
ĠD od
ĠD ainst
ĠD onker
ĠD Ã¼
ĠD iekemoa
Ġon be
Ġon zent
aai e
aai ze
aai dt
Ġwel eer
Ġwel ains
Ġvr eef
Ġal tern
Ġal ias
Ġbe sw
Ġbe snij
ten t
ui st
ui mde
Ġof w
Ġof te
Ġof sproken
Ġof broken
Ġoet bl
Ġoet trokken
ak de
iek ie
iek ers
oo ier
ĠB ee
ĠB ur
ĠB ere
ĠB ach
ĠB ah
ĠB uurvraauw
ĠB aptist
ĠB lekkie
ĠS ant
ĠS ikkom
ĠS oc
ĠS ientje
Ġgr eun
len daal
ĠM as
ĠM is
ĠM uik
ĠM ainst
ĠM Ã¶rn
ĠM Ã¬ns
icht ers
re plu
ier t
Ġover zet
Ġover denken
Ġover hin
sch app
sch ure
sch appers
ing e
ing o
te moal
ĠK ur
ĠK oren
ĠK oek
ĠK Ã¤
ĠK riegen
Ġaal doagse
Ġdeur hÃ¨n
Ġdoar ien
Ġwe ck
ĠV at
ĠV lucht
ĠV EUR
ĠV OT
Ġhom o
ge meen
Ġbl ommen
Ġbl oadje
Ġle vert
Ġf ok
ĠJ ust
ĠJ onk
ĠJ OAR
ĠA H
ĠA ug
ĠA be
pen burg
... ?âĢĿ
... !'
... !!
elk o
Ã¶r de
Ġmo dem
Ġkw ar
Ġkw oalek
Ġkl oun
Ġkl aaid
Ġkl ass
Ġkl inkers
Ġdr ekst
Ġdr one
Ġdr oeven
ĠN ew
Ġkin t
ĠO F
ĠO st
ĠO el
ĠO risha
Ġsl oan
Ġsl oag
Ġsl ip
Ġsl aang
Ġsl aif
Ġsl oft
Ġsl oatje
Ġsl ogan
Ġbinnen kommen
iet st
is se
Ġzai l
Ġbr ut
Ġbr aande
Ġbr oezen
Ġbr aaid
Ġbr ouden
Ġbr okjes
Ġbr oesde
Ġsp ez
ĠZ ing
ĠZ eker
ĠZ UN
ĠZ aachte
ĠT D
ĠT as
ĠT ja
ĠT onko
ĠT okio
Ġtou gang
Ġtou vaal
Ġtou stel
ĠP s
ĠP eb
ĠP art
ĠP riezen
ĠP euge
ĠP forzheim
Ġkr en
Ġkr aait
Ġkr onk
Ġkr eng
Ġkr ikjes
sen de
Ã¨ h
Ã¨ ne
Ã¨ zze
Ã¨ gd
Ġwoar of
ĠL eg
ĠL ain
ĠL uk
ĠL aank
ĠL oug
Ġto ent
ĠI J
ker ke
Ġjoar lieks
Ġdie p
Ġtr aauwe
Ġnoa dail
Ã¬n st
Ã¬n zen
Ã¬n neg
Ã¬n lek
Ġwer e
ĠR ad
Ġtied verd
mer zode
Ġwil stoe
Ġlu sten
Ġloat e
Ġloat jes
Ġvot wezen
Ġpl oet
Ġpl omp
Ġpl ane
Ġpl ukt
Ġachter deel
Ġdo de
Ġdo etje
id dag
id del
Ġeer sten
Ġeer tieds
Ġkop vol
ĠÃ²f sch
ĠÃ²f sl
ĠÃ²f val
ĠÃ²f zain
ĠÃ²f laaiden
ĠE ver
sie f
Ġ( âĢĺ
Ġstr op
Ġstr ik
Ġstr ekken
Ġstr ikje
Ġnij en
aank je
dr ukt
dr eumen
ĠSt ille
ĠJan noa
Ġlai den
vel tjes
Ġonder wiel
sl oap
oaken s
Ġwezen s
Ġbin den
Ġuut kieken
Ġuut brocht
Ġsn oft
Ġsn oeven
Ġsn ittje
Ġsn apte
ĠF rie
Ġkn ik
Ġkn ikker
Ġkn iezen
Ġhol tjes
ug gen
Ġc olle
Ġc ons
Ġvert Ã¨l
Ġre et
Ġre par
man n
Ġdag licht
Dou n
Ġwaark lu
Ġgl Ã¨n
Ġgl ibb
Ġgl idder
Ġgl ieb
Ġsm elt
Ġsm aler
Ġie zel
Ġie zeg
In d
In derdoad
In middels
Ġsw aiten
Ġdik ken
bl om
bl oud
ber gen
oer der
Ġged oun
od sma
Ġbegun stegers
ĠSch ool
ĠSch rieven
ĠSch ijpers
os c
br ak
br oene
Ġben oadern
Ġben uimen
Ġkre et
Ġschier s
Ġgen e
Ġgen ougen
gr acht
Ġzw a
Ġzw eeg
Ġzw aarf
Ġogen schienlek
Ġgez angen
boar s
Ġel le
Ġbed oel
Ġwaiten de
Ġap taik
ir t
ĠHai hai
str oek
str ument
Ġweg wezen
ĠKl inkt
Ġgroot olders
Ġgroot voader
Ġopen d
Ġstil tjes
Ġ20 21
pl oaten
pl oade
oun avvel
del tje
del tjes
Ġblie der
pel oos
ef orm
Ġneu t
Ġdrij moal
Ġper zoon
Ġverd uld
tr ek
tr ok
sw eer
ĠGeert s
ĠVer h
ĠVer ainde
ĠOp roup
Ġschr ai
Ġlopen de
Ġeen djes
ĠIn ains
Ġeten s
Ġverg eef
Ġverg if
kl oar
kl aaier
kl okken
kl euren
hol pen
Ġbez innen
Ġhaand vol
Veur eg
oek jes
oek omst
omm eln
Ġverl ang
Ġverl aaiden
Ġont f
Ġont m
Ġont sp
Ġhel ster
spr ong
spr ongen
Ġleg den
Ġbew eren
Ien ainen
aaid ster
Ġlicht je
kr oam
kr oepen
Ġverb oast
St on
St ille
St aarker
Ġfl ap
Ġfl ikker
Ġlekker roek
pr ikken
ĠVr oagen
ĠVr oug
ĠVr unden
ĠAn twoord
Al ler
Van nijs
Van wege
ille chien
ĠU fkes
Ġboer in
Ġkoamer deure
Ġkerk dainst
Noa ber
sem pl
Din o
Ġaarm oud
Ġher ten
Ġher hoal
Ġber ichtje
Ġzeker haid
ĠOl den
Ġhaard st
ĠTr ump
Ġvrij en
Ġverst oa
ĠMar cel
ĠBin tje
Ġschoul apper
Ġ3 9
Sch eem
Sch reven
Ġhoog leroar
lopen de
Ġoor d
Ġoor tjes
ere cht
ĠBr on
ĠBr us
ĠBr uier
ĠEl tje
Ġkat je
wat t
arr el
Ġbuur de
Ġbuur vrouw
Ġvie ze
ĠAl len
Ġvief en
Ġvief honderd
Ġboas kes
Ġstem d
oaf de
Ġvou erd
ko hol
ĠNij megen
Ġraai ske
Ġsnij vl
wij s
iv es
even ingen
if e
Ġth at
Ġlet ten
Ġgevuil eg
Ġdaip ste
ĠSp eulen
Ġda vve
ĠDr ink
Ġluuster den
Ġnacht dainst
ĠZo dat
Ġ200 2
Ġregen put
Ġvertr aauwt
sm eer
sm eerd
app eln
Ġbesch uut
Hier mit
geb oren
Ġverz onken
ĠPr onkjewail
ĠAm merzode
Ġdom t
ac e
Ġor ig
Ġfeest je
Ġmainst ekaans
Ġ4 8
Ġaand achteg
Ġverr ek
Ġverr oaden
av ond
av irus
Ġrad der
ĠKreuze s
Ġgeh ad
Ġdeu pt
Ġschoon haid
Ġschoon moaken
Ġmain den
Ġten nis
ass ing
all ers
Ġgras laand
Ġknip pe
Ol dste
Ġket on
Ġket ten
Ġket te
Ġ6 5
Ġgebr uik
Ġbus hokje
Ġkol on
Ġkol ler
Kr oug
Kr igst
ĠBe eld
hai m
steg el
Ġvaaier de
ĠVl aig
we eg
Ġschud kopt
abb elde
Ġschil derd
Bl aauwe
ĠÃ¬n keld
Ġzundag schoul
Kl oar
Kl opt
Ġdail t
Gel iek
Ġriek elk
oc ke
ĠPa bbe
Tr aain
Ġsoam waarken
An nie
Ġherinner ingen
ĠGe sch
ĠGe haaim
bouk jes
Ã¡ l
Ġno w
Ġvrum den
Ġzes sen
Ġfr ag
Ġfr eule
Ġfr ikand
Ġbeder e
obb eln
Ġoaf schaid
Ġmoe il
Ġ11 2
Dr ink
aat je
Ġ7 0
Ġak oest
Ġstaark ste
ikker ij
Ġwonder lieke
derd iek
ĠZol tkamp
ĠScheem te
Ġvien t
Ġad Ã¬nlek
wen den
Ġslag room
Ġaller iezelk
Ġdun en
Ġzied kaant
fr ont
Ġaarg ste
Ġbaang eghaid
Onder tussen
Ġschool meester
Ġklok luden
Ġsnel le
mes kes
Ġbedoul st
Ġpro jekt
Ġbev aalt
Ġkocht en
kn ipt
kn iepers
Ġthee schud
Ġbeeld jes
Ġaut omoat
neu ten
dem oa
Ġek soamen
Ġek sempl
ĠÃ Ĵ
Ġongel iek
Ġ15 0
Pr oost
Ġopt ocht
ĠAr n
Ġoetst appen
Ġrol stoul
stroat weg
Ġhaals gat
oze f
Ġbewegen s
Ġthe oaters
Ġzoal tje
Ġbloum ke
ow n
ow s
Ġem ot
ĠTer m
ja ze
Ġaanb eld
Ġbaist jes
iter atuur
dek ken
wol ken
Ġkle ddern
Jong kerel
Ġzak lanteern
ĠBel ang
ĠMen sen
Ġpost zeg
ĠOver ies
Ġrechter kaande
Ġonb ekend
Ġalder noaste
Ġvil aain
Ġvoar de
Ġpoe ste
Ġmoud veren
Ġkroug holder
ĠLe euw
Ġaarb aiden
ĠCh inees
ew achteg
Ġzoak je
Ġzoak jes
Hol land
kiek er
Ġbar re
ake ika
hand eg
Ġbad koamer
Ġnor moale
Ġbaal k
ĠBerend sen
Ġmobiel tjes
Ġklain zeun
Ġaanst oken
Ġaanst alten
Ġsloapkoamer roam
ĠSm odsma
Ġbod schop
ioal s
Ġond aanks
si oanen
Ġlinker kaant
Ġlinker haand
Ġvlug ger
Ġste velde
ĠLaif ste
Ġlevens gevoar
ĠÃ¬nd je
ĠKat rien
Roel f
gl ieden
gl adde
Fr ida
ĠHest oe
ĠzÃ¨ s
ĠKar l
Ġdraai gen
wed el
wed strieden
Ġbrug gen
Ġfietst azzen
Ġfietst ocht
Ġgn if
ĠHeer epoort
Ġknup t
Ġappel hof
Ġgemoud elk
ĠAchter houk
Ġmon ument
Ġmed alje
Ġapper oaten
Ġvieven zesteg
Ġketaaier tje
Zun dag
Ġwon ner
Ġdek ken
ĠJe an
Ġmeu gen
Ġmeu bel
ĠTh or
hond je
Ġopgr uien
Ġat elier
Ġsukkel oademelk
ĠOldambt meer
ĠOldambt sters
Ġmaaid je
Ġgeboorte dÃ¶rp
laid jes
Ġbejoarden huus
Ġhoor ns
Ġkok haalzen
Ġstiek els
Ġzen ewachteg
Ġaanv ullen
Ġreu zen
Ġgil pte
Ġopb aauwd
Ġwed strieden
Ġzaikte s
ĠEp po
Ġeerappel laand
Aigen liek
Ġheren hoes
Ġkennis moaken
Ġkamp eer
Ġaiweg haid
ĠMeer ten
Ġwur ms
Ġabb el
Ġlok oale
Ġsit r
nk anner
Ġelekt rische
Ġwandel route
Ġdankboar haid
Ge ft
Ġverbr aande
Ġaig elks
ĠAll ah
Ġrekl oam
Ġlamp ion
Ġinf ermoatsie
Ġpoal tjes
Ġveurnoam ste
Ġfin anc
ĠEg bert
Ġaanwez eghaid
Ġdaaiern arts
Ġgeest elk
ked uuster
Ġsun doags
Ġpaar s
ĠHem mo
ial ist
oeien de
Ġsie pel
Ġpank ouken
Ġveural snog
ull oazie
Ġtouval eg
iff emeerde
Ġzoepen brij
Ġoph ongen
Ġoetdrukken s
Ġgramm oat
Ġgramm ieteg
ĠMer cedes
ĠAmerik oanse
ĠPaiter tje
Ġgrijns de
Mid wolle
Ġlaai dt
ĠSie wert
ĠSiet ske
ĠKer ke
ĠRegen t
Ġhoak je
Ġbraiven bus
Ġverdaipen s
Ġvari anten
Ġopmaarken s
Ġonderd ukers
Aar me
Ġhang el
Ġfie fteg
ĠEer der
kleur ege
Ġgekl eurde
Ġoorspr ong
Ġoorspr onkelke
Ġhenk deweerd
Ġgege vens
Ġju bel
Ġeerns achteg
Ġakk oorden
Ġnie uwe
Ġhaaiden se
Ġpoes ke
Ġwizz eln
Ġbelk t
Ġinr ichten
Ġfel es
ĠLi udger
Ġcir kel
Ġabbels ienen
ĠHel iand
Ġgroten dails
ĠInd iÃ«
ĠWesterwold s
Ġdigit oal
Harm ke
Ġkaal mer
Ġlop st
Ġlaaid de
dent iteit
Ġoetg oaven
Ġoetzunder n
Vert el
Zuk se
Ġuter lek
Ġonged aaierte
ĠMaai jer
Ġbloes ke
Ġblauw e
ĠRen ske
Ġkem izzie
Ġins ekt
Ġaanm elden
Ġonzeker haid
Ġges oes
Ã³n den
Ġfemil ies
Sie wert
Ġopvol ger
Ġinv ullen
Ġjeuz eln
Ġbloader de
Ġbeschaarm d
Ġongeleuf lek
Ġcontrol eren
Ġacc ordeon
Ġopkn appen
Ġbiev ubbeld
ĠNS B
ĠRud olph
Ġaanpeerd je
Ġaanpeerd jen
Ep pie
Tj onge
Ġagen t
ĠOor log
gron ingen
ĠBlauw e
kur z
Ġkaan sen
ĠSap meer
Ġfav orie
ĠLaik stermeer
Ġpsaalm s
Amerik oanse
Ġnikken ak
Ġwoa zeg
Ġheug te
Ġsokkel oademelk
Ġpresiden te
ĠHein z
Ġallem aal
ĠFin laand
Ġneud ig
ĠVrum de
ĠHoogez and
Ġapparte ment
mooi ste
Ġmach inist
Ġri ool
Ġprot est
ĠSchep per
ĠRuss ische
Ġmant el
Ġschet sen
ĠDuur sma
ĠVre mde
ĠOO ST
prod ukten
Ġplatt elaand
Ġaargern is
Ġaas k
Ġjuw elier
Ġroomb otter
Ġbegraf fen
Ġtemper atuur
Ġmoeske stil
Ġaantrek kelk
ĠkÃ¬ rst
Ġvres elk
Ġweersk anten
vlaig ers
Ġtekstred akteur
Ġbienk ander
ourn alist
Ġpappeg oai
Ġomb atter
ĠHammer k
ĠMart ha
ĠEU ZE
Ġkolleg oas
Ġverploat st
Ġommen eden
ĠKever ing
Ġminid isc
Ġintell igen
Ġsiktoar is
ĠLulal aid
Oeten delk
Ġwaaig ern
Ġofte wel
Ġtiedverd rief
Ġplane et
Ġgedoun te
' )
( ?)
, ,
. (
1 000
3 8
4 3
6 8
6 9
: .
? ).
? ),
? ",
A S
A h
A cht
A acht
B er
B ar
B uren
B oksem
B iedroagen
B uurman
D es
D ail
D euren
D ochter
D uuts
D uutse
D Ã¨rk
E et
E em
F olkert
G E
G ien
G ev
G ittje
G EL
H aa
H am
H oast
H uis
H eufd
H emmen
H ounder
I ch
J o
J ez
J euden
K ok
K ist
K ikt
K ons
K JE
L uip
M F
M oakt
M akkelk
M amme
M ozzen
M astland
N egen
N oeit
N ijs
O K
O V
O aven
O tto
P aas
R iek
R egen
R oomse
S iemon
T ies
T immer
V S
V ij
V ogels
V EL
W odder
W ollen
W AI
Z al
Z uiken
Z uud
Z Ã¶lf
b i
b ait
b id
b oaden
b oem
b ouw
b aauwd
b ool
b ekken
b ekje
b egr
b uske
b oge
b aargen
d ai
d st
d as
d le
d oor
d um
d alen
d ans
d ichter
e men
f d
f emilie
f luit
f estival
f ase
g al
g eef
h o
h oak
h ang
h art
h okken
h aande
h istorie
j el
k u
k ing
k eerde
k nie
l d
l at
l oat
l eef
l oden
l atten
l oeri
m ot
m elk
m uur
m aaier
m od
m achtege
m onn
m Ã¼h
n ain
n oord
n euze
n eem
n izzen
n aks
n olog
o ve
p ij
p il
p ap
p ane
p oale
r n
r og
r ag
r oak
r oupen
s oam
s man
s ikkom
t aal
t ig
t oren
u zel
u Ã¯
v re
v uil
v ries
v aalt
v anger
w ai
w agen
w aaid
z ij
z ijl
Ã ¥
Ã ı
Ġ [
Ġ oa
Ġ oapen
Ġ Ã¼
Ġ yn
en i
en deg
en ske
er w
er den
er veen
Ġd ier
Ġd ur
Ġd oalen
Ġd ichten
Ġd inger
Ġd oaver
oa pel
Ġn eren
Ġn uske
Ġn areg
ai gt
Ġw ek
Ġw ain
Ġw oas
Ġw ank
Ġw ach
Ġw iekt
Ġw oagd
Ġw Ã²r
an aatjes
Ġv it
Ġv oer
Ġv aart
Ġv aarde
Ġv ochten
ie pen
ie zer
Ġm aid
Ġm izze
Ġm okken
Ġm onden
Ġm ars
Ġm iggel
Ġm Ã¶g
Ġt eer
Ġt ol
Ġt ier
Ġt af
Ġt Ã©
Ġt alen
Ġt onge
Ġt aim
Ġo ud
Ġo vr
Ġh i
Ġh y
Ġh uw
Ġh Ã¶r
Ġh Ã¶l
Ġh Ã¶m
Ġh unnek
Ġz oa
Ġz Ã²
Ġz oag
Ġz ieken
Ġz euren
Ġz inneg
Ġz aailen
Ġk ul
Ġk uske
Ġk ulloazie
st uur
st elde
st uver
in en
in et
in es
Ġb ai
Ġb re
Ġb ond
Ġb ang
Ġb iz
Ġb oren
Ġb under
Ġb oem
Ġb oef
Ġb ard
Ġb ounen
Ġb omb
Ġb ouldag
el ie
el ten
el ingen
el aain
eu kel
eu zel
Ġa u
Ġg ok
Ġg oatjes
Ġg ym
Ġg aangen
Ġg uikema
Ġg ommes
at eur
at ied
ou stel
oar tjes
Ġi l
Ġi ck
Ġl ul
Ġl iet
Ġl oagen
Ġl os
Ġl Ã¨l
Ġl oage
Ġl oi
Ġl elke
Ġl ab
Ġl ichie
eg ie
eg un
eg te
it o
it ia
Ġs er
Ġs at
Ġs or
Ġs il
Ġs len
Ġs omm
Ġs oft
Ġs ysteem
Ġs ucces
Ġvan neu
Ġvan zelf
ij ken
Ġde est
om geven
om nee
Ġop gel
Ġop br
Ġop sloagen
Ġop noame
ek ten
ek ul
ain komsten
je ste
Ġst ikken
Ġst elen
Ġst oarde
Ġst arten
Ġin z
Ġin sloagen
Ġin sturen
Ġin holdt
Ġin iti
ol and
Ġp ik
Ġp iek
Ġp ikt
Ġp Ã¨n
Ġp oaske
Ġp ulen
Ġdat ste
ok ern
Ġaan kiek
Ġaan sloeten
oe ft
oe zie
oe zel
Ġr oa
Ġr oes
Ġr ies
Ġr os
Ġr agen
Ġr eep
Ġr uden
Ġr ib
Ġr eudel
Ġj oag
Ġj ank
Ġj akker
Ġj ub
Ġj agd
Ġj eloers
og a
Ġe ff
Ġe euw
Ġver ven
Ġver ste
Ġver ge
Ġver be
Ġver zetten
Ġver ploatsen
ee sie
Ġveur r
Ġveur vaal
Ġveur steld
Ġveur nkander
Ġveur ganger
il a
uu zen
ver v
ver keer
ver volg
ver drait
un ne
nen d
ke a
ke b
al ler
ar l
ar le
ar ren
eb oudel
âĢĻ ...
ik el
oal ies
Ġsch oren
Ġsch appen
Ġsch oakel
Ġsch atten
Ġbie zetten
Ġbie tieds
Ġbie proaten
Ġien lopen
Ġien druk
Ġien derdoad
Ġien formoatsie
ĠW Ã¶r
ĠW aal
ĠW ichter
ĠW hen
Ġom valen
Ġom kieken
Ġze id
ĠG O
ĠG un
ĠG eld
ĠG old
ĠG abriÃ«l
ĠG eesie
ĠH o
ĠH aai
ĠH ul
ĠH es
ĠH onderd
ĠH otel
ĠH aving
ĠD eu
ĠD oorn
ĠD IJ
ĠD uurt
ĠD vhN
am e
Ġon mid
Ġon kruud
Ġmie l
Ġvr ift
Ġvr aten
Ġvr oger
oan den
oan dags
ag a
ag ne
ag gels
ag ina
Ġal kohol
Ġbe f
Ġbe s
Ġbe hold
Ġbe veur
Ġbe sn
Ġbe antwoord
ten oaren
ui z
Ġge meen
Ġof sch
Ġof sproak
Ġof wachten
Ġoet ge
Ġoet str
Ġoet rust
Ġoet laag
Ġoet goave
Ġoet vinden
Ġoet geverij
ak o
ak jes
ĠB a
ĠB lu
ĠB ob
ĠS W
ĠS le
ĠS am
ĠS oort
ĠS ami
ĠS ietse
ĠS IL
ul i
Ġhaar k
Ġhaar baarg
Ġgr oes
Ġgr out
Ġgr oeten
Ġgr oeterg
Ġgr eune
len s
ĠM ond
ĠM aag
ĠM aans
ĠM uz
ĠM aiden
ĠM elle
ĠM aarten
ĠM Ã¬nsen
ĠM aastr
re en
re zen
re zzen
ier inga
Ġover sch
Ġover hoalen
Ġover zain
Ġover hÃ¨n
ĠK W
ĠK ie
ĠK or
ĠK eer
ĠK ne
ĠK ost
ĠK Ã¶rte
Ġaal baaident
ster en
ster laand
Ġdoar onder
ze oan
ĠV iet
ĠV onder
ĠV elden
ste mm
ge meester
ter ge
ter ras
ad ies
ad verten
Ġbl oas
Ġbl inken
Ġbl aft
eld eg
Ġkom kommer
Ġf ier
Ġf ante
Ġf eng
Ġf estival
ĠJ oager
ĠJ OE
ĠA st
ĠA re
ĠA dr
ĠA iglieks
ĠA IN
... âĢĿ,
... ),
Ġmo bie
ers hou
Ġkw oal
Ġkw aalm
Ġkw elder
Ġkl ik
Ġkl azzen
Ġkl oetje
Ġkl uts
Ġbo x
Ġbo el
oak ers
Ġdr Ã²
Ġdr ankje
Ġdr ifte
ĠN am
ĠN uus
ĠN Ã¶rg
ĠN icol
ĠO ET
ĠO adam
ĠO arend
Ġsl open
Ġsl aag
Ġsl ikt
Ġsl angen
Ġsl uipen
Ġsl ikkerij
is ha
Ġbr an
Ġbr aai
Ġbr okken
Ġsp eer
Ġsp ook
Ġsp Ã¨llen
Ġsp ijde
Ġsp anning
ĠZ ain
ĠZ onder
ĠZ ollen
ĠT re
ĠT ip
ĠT oren
ĠT ine
ĠT ureluur
Ġtou sproak
Ġtou zeggen
ĠP e
ĠP il
ĠP ier
ĠP ir
ĠP older
ĠP oÃ«zie
ĠP ovvert
Ġai veghaid
Ġkr oakt
Ġkr aaide
Ġkr oage
Ġkr eus
Ġkr oept
Ġkr ises
ben deg
Ġwoar noa
ĠL amm
ĠL ay
ĠL oh
ĠL angs
ĠL uc
Ġto ek
ĠI MF
um a
Ġeven kes
Ġpr opke
Ġpr ikje
Ġpr ima
ig d
ig h
ig er
Ġtr an
Ġtr ans
Ġtr ommel
Ġtr ammel
Ġnoa joar
ĠR h
ĠR ist
ĠR ozen
ĠR utte
ĠR ients
im d
im in
ang zi
mer ij
Ġwil den
Ġhail nd
aark te
ed r
ed den
Ġvot kommen
Ġachter koamer
Ġwol k
id delt
Ġkop pie
Ġkop schud
ĠÃ²f k
ĠÃ²f kommen
ĠÃ²f staand
ĠÃ²f schaaiden
ĠÃ²f sproaken
ĠE ur
ĠE efkes
Ġtw inter
Ġtw ei
Ġvol t
Ġvol komen
Ġstr elen
Ġstr enge
Ġter r
bb es
dr ol
oet s
Ġvl a
Ġvl ees
Ġvl uik
Ġvl iegt
Ġman nelk
Ġko ers
Ġko elen
Ġko ekel
ĠSt ap
ĠSt offer
ĠJan Willem
Ġzun neg
Ġzun ege
ief de
Ġonder uut
Ġonder hold
Ġonder goud
Ġonder schaaid
Ġonder zÃ¶cht
sl uut
Ġkommen t
sp art
ies der
Wat er
Ġuut geven
Ġuut zain
Ġuut keken
Ġsn ert
Ġsn ort
Ġsn ieb
ĠF oppe
Ġkn ies
Ġkn Ã¶t
Ġkn oap
Ġkn uter
Ġkn ooien
Ġkn ibbe
Ġkn ibbels
ez el
Ġmen aaiern
Ġmen ister
Ġc avia
Ġmin selke
ren ds
Ġmet oal
Ġre is
Ġre vol
Ġre pert
Ġre actie
Ġre acties
Ġgeb Ã¨lk
Ġzulf gemoakte
Ġdag je
Ġgel aif
Ġstoan de
Ġwaark woord
Ġwaark volk
Ġverh ilderd
Ġgl orie
Ġsm acht
Ġsm aart
Ġsm uie
gel t
Ġzuk kent
ent ie
Ġaar de
Ġsw eeg
Ġsw inters
Ġsw iegend
bie ten
Ġall Ã¬nneg
bl ikken
ber e
Ġmoal tied
ĠDe en
Ġged oan
od elk
Ġbegun st
Ġbegun ners
aas d
Ġzitten d
ĠSch enk
ĠSch eveningen
Ġkrie t
ĠC r
ĠC eres
Ġbel anden
Ġbel aggelk
Ġben oader
Ġben aauwde
Ġbest oat
Ġdai ven
Ġgew as
gr onden
lu ik
ĠWil stoe
vr uchten
vr unden
Ġzw ommen
Ġzw anger
Ã© Ã©
Ġgez egd
boar d
Ġel ken
Ġel ftal
Ġbed rie
Ġhar d
be wegen
Ġpa bbes
Ġap aarde
str eep
Ġweg wies
ĠKl eur
ĠKl aid
Ġgroot se
Ġopen ing
Ġstil l
vv elk
Ġslim me
pl inter
Ġzag st
ep ie
del en
del ing
del oos
Ġuur ke
inder n
Ġneu zen
Ġneu ten
Ġverd orie
Ġelk nain
ĠGeert r
ĠVer geet
ĠVer drait
Ġschr aauwde
Ġschr iften
ubb els
Woar veur
Woar schienlek
Ġeten drinken
Ġverg ing
kl aai
kl oare
kl eureg
Ã¨n delk
Ġnoam e
Ġbez w
Ġbez Ã¶cht
Ġont sn
Ġont slag
Ġont zag
Ġhel e
Ġhel leg
ĠBl Ã©
Ġwui fde
spr ak
spr eker
spr aak
Ġbek ommer
Ġbek euk
Ġleu ke
Ġpak ket
Ien tied
Ġro okt
Ġverk eern
Ġkloar moaken
Ġlicht kaans
kr odde
Ġverb and
Ġverb Ã¶rgen
Ġverb aiden
St ok
Ġfl ad
Ġfl aren
Ġfl ikt
Ġfl itter
Ġfl its
Ġfl arden
Ġlekker ste
Ġversch rik
pr acht
pr oeksel
ĠAn ne
ĠAn gel
ĠAn kie
Van oavend
Ġken nes
up ers
up po
woar e
ĠU ffen
Ġproat ers
Ġliek bendeg
ĠFr ance
kel der
und s
Ġmid dern
Noa bers
Ġkeu veln
ouw d
ĠSl oap
Ġgruin tet
Ġher k
Ġher kende
Ġber oep
Ġber iekt
ĠOl ymp
!âĢĻ .
Ġwis sen
iend oezend
ĠMar i
ĠMar ion
aaiern d
ĠWie ke
Ġmis l
ell ers
Ġspeul ers
El s
ĠWoar in
Ġonner wies
Ġonner waal
Ġ3 6
Ġoar de
Ġoar eghaid
Gr uin
Ġhoog st
Ġgek ke
na c
na val
irr eln
Ġred akteur
ĠBr ink
ĠBr aif
ĠBr az
ĠBr oab
ĠBr inta
onne ment
annen d
Ġhoast eg
Ġlaag je
Ġlaag den
och em
ĠAl ina
Ġvief entwinneg
ĠWester kwart
ger m
sel tjes
Ver drait
Ġvou tje
illen d
ĠNij moodse
ĠhÃ¬n nen
ĠhÃ¬n goan
Ġhuus holden
Ġbegr odelk
iv o
iv id
zeg er
Ġhand eln
Ġhand zoam
iep t
Ġth ema
vl ak
vl akte
ĠHol t
ĠVeur dat
th nolog
oed elde
Ġkeuken tje
nie der
wie ten
ĠDr aai
ĠDr up
ĠDr okte
Ġlief zeer
Ġpers oneels
Ġheer lek
Ġ200 3
Ġregen d
Ġsloap zoal
sm useum
ĠmÃ¶rgen vroug
Ġtien tje
Ġple eg
waar te
Ġpas hokje
ĠHaar d
ĠHaar kemoa
uz a
Ġzuik tocht
Ġwit look
Ġvrund innen
ac ten
Ġrad i
Ġ5 6
Ġwos sen
jen ten
Ġroam kes
Ġhoop te
Ġschol ler
ĠHen ry
uv ven
Ġzingen d
Ġdak g
ri b
Ġum dat
Ġwoater kaant
auw erd
hai den
ĠVl oam
ĠVl ieringa
Ġsoamen steld
ks ma
Ġzunne schien
Ġgemain teroad
oc atief
Ġrug gen
Ġvern emt
ĠPa penburg
An ton
achter deure
Ġtraain en
Me vraauw
ket ier
Ġ8 6
Ġheu pe
Ġheu vels
Ã¼ nie
Ã¼ nd
Ġsj ek
Ġsj aauw
Ġsj ars
ĠhÃ¨n neweer
Ġpol etieke
Ġvlaigen d
Ġlocht en
Over al
Ġopl etten
Ġpar keerd
Ġpar replu
ĠAal tje
Haar kemoa
ĠOn stwedde
Ġaller beste
fr ikoa
Ġfoabel tje
On g
On t
oll ing
Ġvergr elde
ĠZuud wenden
IE K
ĠPl oatje
ĠPl att
mes ienen
Ġgevoar te
Ġgevoar elk
Ġbev il
ĠKerst doagen
ĠAan je
Ġbak jes
ĠGel iek
bak je
ĠGroot h
Ġmeester s
Ġhonderd doezend
Ġstud int
Ġstud aaierd
Wil de
Wil stoe
Ġek on
egr ap
Mar nixs
Mar lene
Sl oap
enn ers
Ġopsch oten
Ġpre st
Ġongel ok
Bist oe
Ġopt aikend
Ġoetst okken
Ġsep t
Ġopz oad
gem ieterd
Ġvoetbal ler
Ġdis kr
Ġgoed koper
Ġdruk de
ow boy
Ġbien ander
Ġem ootsie
Ġaanb egun
Ġvlak bie
Ġrook te
Ġrechts Ã²f
ĠAp eldoorn
huus ke
wol f
Jong s
Ġlees boar
mis loeri
Ġopr oemd
Ġsmok jes
Ġraais de
Ġspeult oen
Sp eulen
Ġbrand t
Ġtwie vels
ĠWinsch oter
ew Ã²l
Hol st
Ġkap it
Ġkant ine
ĠHoog e
ĠHoog ebrug
hand eln
Ġsek onden
Ġeet verhoalen
Ġcomputer s
Waist oe
Ġbaal tje
Ġbaal keduuster
Ġdroad je
Ġstroom de
douk je
Ġaanst eld
Ġtelefoon tje
baank je
kamp ioen
Ben eden
Ġlinker aarm
Ġlinker bain
az ers
Ġmuz ek
ĠstÃ¶rm de
Ġind ioan
Ġplak jes
Ġstand oard
winter s
Ġpie len
Ġpie be
Ġpie pe
gl oepen
ĠvÃ¶rm t
Ġoverl iedens
Ġverhoes den
Ġbeleven izzen
Ġmiddel ste
Ġonn aaierd
Ġstoapel tje
ĠzÃ¨ zze
Ġband iezen
ĠOaf rikoa
ĠDiek hoes
Ġdraai gend
ĠJans je
laif st
Ġfietst azze
hou ke
Ġknup pen
Ġneem t
Ġkovver tje
ami an
Ġspannen de
Ġletter liek
hen ne
Ġmon ter
ĠNien oord
wil gen
Ġven ien
Ġven tje
ĠNie uw
Ġtwijd uuster
Ġbedoulen s
Ġappels ien
Ġeerd bevens
Ġwr ift
sche pen
Ġ196 4
Ġ196 7
Ġkoren veld
Ġbedr ogen
Ġlog eer
Ġlog isch
ĠKop pel
** **
Ġaanh ang
Ġtraauw erij
Ġvriend innen
Ġjammer de
Ġbestuur der
teb ak
zoal eg
Ġseg oare
zied eg
Ġaanr oaden
Ġreu s
ĠLud olf
Ġstreep ke
Ġtie pel
Ġgil pt
Ġmaag s
Ġkast elaain
Ġeigen lijk
Ġdrup pen
bew oners
Ġlood je
ĠHe iko
Ġvertel st
Ġmug ge
Ġtre vven
Ġzuit e
ĠVert oalen
Ġbliksem s
Ġstroal den
Ġsing el
Ġgooi den
iss eur
steb eurt
Ġvervel ens
Ġvervel end
ĠHond srug
Ġbroek te
Ġ198 1
hel m
oers e
Ġbeu dels
200 9
Oaf rikoa
Ġdrie ster
Ġinf o
Ġveurnoam e
Ġbiebel taik
ĠEg yp
ĠBelg ie
Ġmand je
Ġsleu pt
Ġbegrip st
Ġparkeer ploatse
Ġwiz zel
Ġteun baank
Ġperf ekt
Te ake
Ġfles kes
ĠNijs siesoord
ix ie
Ġvle dder
udd elde
Kw oad
aut om
Ġwai ge
Ġakt ief
Ġakt iviteiten
Ġlut j
ĠKan ker
aiw se
Ġstoadeg aan
Ġblui den
Ġfluit en
ĠAustr oal
Ġbood schop
ĠGep pie
ĠSk ots
ĠSnij t
Ġhoogte punt
Ġlaai der
Ġpest oor
Ġverpleeg hoes
Ġgrom t
Joaren laank
Ste ven
Th ijs
Ġgier st
Ġstreu pen
Ġmieter d
Ġverzeker n
iete ma
ĠhÃ¶rn tje
Ġkie wieten
Ġasiel zuikers
Ġoetp oesten
Ġklaaink ind
Ġoorspr onkelk
Ġju chtern
ĠVek ansie
ĠLu xem
ĠÃĴf schaaid
ĠChrist y
kund egen
Ġhaaiden s
Ġlam len
Ġveran ern
ĠWE ST
Ġbesp oaren
Ġspl it
hal te
Ġprod ukten
Ġstruun de
OT TER
Ġoap e
ĠWaarm e
Ġomdr aaid
Ġomdr aaien
plek ken
Ġinsch onken
Ġswaalf ke
ĠSwien iegel
Vert r
Ġang el
Ġaankom end
ĠDor ien
Ġkloaver jazzen
Ġekkel bomen
Ġonbeg riep
ĠPervin zioale
Ġboa ses
atoe ba
Ġverander n
ĠMon ster
Ġfan at
Ġvenster baank
Ġtegem uit
Mot or
Ġbilj arten
Ġsos joale
ĠGre etje
ĠBeer te
ĠAar g
ĠOosten riek
ĠPaul us
bÃ¨r re
Ġdeug t
Ġhaai boas
Ġroll ator
Ġbrannen de
Gron ingen
Ġoper oatsie
ĠDu o
Ġvroeg er
ĠKoop man
ĠDÃ¶rps stee
ĠBol hoes
Ġbrom de
ĠPR ON
Ġbelof te
Ġkrem oatsie
Ġjeud se
ĠLuth erse
ĠtÃ¶r ven
Ġverde d
Ġfav or
Ġdenn eboom
ĠFreer k
ĠFreer kje
Ġherinn ert
Ġvrijwilleg ers
Am sterdam
Oor log
Ġmem int
Ġrillen s
Ġvermoak elk
kem izzie
ĠGev uil
agr am
Ġblai ke
ĠAi bels
Ġslootsw aal
Ten min
Ġstik stof
Ġjent eg
Ġjuv vers
Ġdringen d
Ġstrok eton
Ġbeweeg t
Ġbegroaf ploats
Ġarch ief
ĠMiemer oatsie
Ġfesoun lek
Ġsted aaierde
Ġpoul tje
Ġveurnemen s
aged oorn
ĠBaar gt
ĠBuunder veen
ĠRaain der
ereld s
Ġvide o
Ġidi oot
Ġpin eut
Ġaangen oamer
Ġgepl aas
Ġaalder wegens
Ġtoup azen
ĠRÃ¶ ppen
Ġcurs ussen
Ġrezen oabel
Ġbetrek kelk
Ġbedank te
ĠZweed s
Ġfantast isch
059 4
bul ten
fab et
ĠGeu ko
ĠMann heim
ĠKnels ie
ĠBiezunder e
ĠOafrik oanse
Ġkopzeer e
ĠGRUNNEG ER
aach s
ĠBav velt
Ġgezw ister
Ġpakkel arrie
ikket oares
Ġnoamvaals vÃ¶rm
Blie de
Ġbiv ve
ĠSand ra
gespr ek
Ġlaimeneer st
Ġswaar vers
ĠBlik veld
ĠSlap sma
Ġordent elk
Ġopschrief boukje
Ġabsol uut
ĠBonif alius
ĠGarrels weer
Ġdoll ar
Ġstuuts iek
Ġpoel egrap
Ġkwar tjes
ĠPeuge ot
Ġtoent jen
Ġfavorie te
WAI L
dalen a
Ġwain eg
Ġonmid delk
ĠMaastr icht
ĠViet nam
ĠLoh ues
Ġrepert oire
ĠWesterkwart iers
thnolog ue
' ve
( !)
) -
. âĢĺ
3 3
3 5
4 2
7 0
9 8
A F
A t
B aptist
D i
D Ã¶rp
D omm
D Ã¡t
D ammee
D ainj
E d
E k
F oto
F ilm
G een
G eppie
G oals
H in
H il
H oge
H ome
H BO
H allo
H uh
I EN
J onge
J ozef
K V
K an
K eer
K le
K oamer
K oos
K adde
L ie
L ag
L arrie
L uppo
M C
M O
M og
M ui
M ich
M ainsten
N O
O G
P ap
P eerden
Q u
R aai
R ed
R ood
R ieden
R oek
R ikoa
R obbe
R iekent
S o
S mid
S KE
S oavens
T eun
T EN
T inie
T ineke
U G
V en
V ries
W eken
X IX
Z ul
Z aand
Z ingen
a ster
a sters
b ien
b ke
b ellen
b eln
b Ã¶rgen
b akker
b aanden
b eurs
c y
c ol
c ker
d et
d ieks
d oeven
d uutse
f onie
g eur
g ar
g ies
g oaten
g ids
h n
h ere
h inne
i oenen
j eg
j ongen
j ele
k as
k ee
k um
k ege
k ost
k iend
l le
l im
l opt
l Ã¶zzen
l euk
m on
m ek
m aar
m us
m ut
m ees
m ost
m angs
m uziek
n as
n iet
n ooit
o ber
o str
p hen
p elnd
p ath
r ee
r ing
r eln
r ogge
r ooie
r ock
s al
s oen
s elde
s orry
t ies
t ip
t liek
t winneg
t rent
u chter
u tern
v eer
v oud
v es
v onden
v onnen
v izzen
v ullen
v orm
w a
w ier
w aait
w ez
w aart
w eerde
w ongen
w are
y b
y en
z n
z ek
z um
z oag
z oek
z oamen
z iÃ«
Å ĳ
Ġ uu
Ġ Ã¬
Ġ ________________
Ġ oaze
Ġd Ã³
Ġd okt
Ġd aamp
Ġd orie
Ġd ainde
Ġd ainsten
Ġd vd
Ġd areg
oa per
Ġn eur
Ġn ikt
Ġn uzzeln
Ġn ivo
Ġw alen
Ġw arm
Ġw apper
Ġw anner
Ġw aachten
an i
an is
an jes
an man
Ġv oal
Ġv oet
Ġv oug
Ġv ocht
Ġv oeten
Ġv oeren
Ġv oesten
Ġv Ã³nden
ie fteg
Ġm eg
Ġm op
Ġm aand
Ġm eren
Ġm ailen
Ġm Ã¶rns
Ġm ommelde
Ġm iÃ©
Ġm ilit
Ġt aar
Ġt aai
Ġt unn
Ġt uug
Ġo t
Ġo ven
Ġh an
Ġh els
Ġh oaten
Ġh oof
Ġh Ã³
Ġh echt
Ġh ieten
Ġh apte
Ġz oalen
Ġz ichten
Ġz aarken
Ġz onen
Ġz aaien
Ġk og
Ġk oo
Ġk ier
Ġk and
Ġk eert
Ġk ussen
Ġk ass
Ġk ampen
Ġk orde
Ġk ijken
st on
st anden
st eertje
st ubber
in zen
in tjes
in tr
Ġb v
Ġb oar
Ġb iks
Ġb les
Ġb uien
Ġb ukt
Ġb ange
Ġb oalie
Ġb Ã¶rge
el pen
el oze
Ġa ren
Ġa achter
ch em
ch ibon
Ġg oot
Ġg oas
Ġg oatje
Ġg aisten
Ġg ouwen
Ġg oidag
at us
ou me
oar der
Ġi P
Ġi de
Ġi dentiteit
Ġl ammer
Ġl oanen
Ġl ampen
Ġl eng
Ġl ives
et ters
et tie
it z
it se
it oatsie
Ġs el
Ġs oesde
or f
or r
or om
or tje
or ia
on oa
on tr
on iem
ij f
ij ver
ien eke
Ġde ftege
de den
om eter
eer ten
Ġop k
Ġop sl
Ġop ent
Ġop vr
Ġop kr
Ġop goan
Ġop kwam
Ġop ins
Ġop sturen
Ġop moakt
Ġop trekken
ek ra
ek raai
ain egste
Ġst icht
Ġst Ã¬n
Ġst aart
Ġst een
Ġst oeten
Ġst aail
Ġst eel
Ġst Ã¬nt
Ġst utter
Ġst ude
Ġst urf
Ġst uttern
Ġst iever
Ġin geven
Ġin zicht
Ġin stellen
Ġin hoalen
Ġin zain
Ġin tussen
Ġin pakken
Ġp al
Ġp aail
Ġp ootje
Ġp uul
Ġp odde
Ġp oz
Ġp uutjes
Ġp oetsen
gen oat
Ġmit valen
Ġmit dailen
Ġmit waarkt
Ġmit holpen
Ġaan z
Ġaan sproak
oe id
oe zer
oe zeboudel
aar ns
as se
Ġr ekker
Ġr aiten
Ġr aauwe
Ġr app
Ġr erend
Ġr ots
Ġr uiern
Ġr aime
Ġr enners
Ġj am
Ġj aren
Ġj aauwstern
Ġj Ã¨h
Ġj ournalist
og nac
Ġe i
Ġe con
Ġe indelk
Ġe euwen
Ġder of
Ġder onder
Ġver j
Ġver len
Ġver fr
Ġver ainde
Ġver kennen
Ġver teren
ot a
ot te
ot laand
ot sk
Ġveur t
Ġveur in
Ġveur val
Ġveur waarpen
Ġveur moalege
il t
il et
il de
op ag
ver slag
le i
un es
nen t
ke wat
ke do
al in
al og
al lie
al da
ar ven
ar te
ar ist
ar ium
eb stee
âĢĻ !
âĢĻ âĢĻ
ik oog
ik opter
Ġsch ik
Ġsch ele
Ġsch ommel
Ġsch eurde
.. ,
.. âĢĿ
Ġbie h
Ġbie ainkomst
Ġien h
Ġien kommen
Ġien zet
Ġien gang
Ġien gew
Ġien for
ĠW O
ĠW em
ĠW iet
ĠW es
ĠW ief
ĠW os
ĠW ir
ĠW iel
ĠW inkel
ĠW ieren
ĠW edde
ĠW odan
zen f
zen de
Ġzo v
Ġom sw
Ġom schrieven
Ġom stebeurt
ĠG ien
ĠG ijt
ĠG ientje
ĠG ounent
ĠG emain
ĠG rietje
ĠG nivvels
ĠH ok
ĠH oo
ĠH um
ĠH eren
ĠH aas
ĠH oast
ĠH ev
ĠH elen
ĠH ema
ĠH illechien
ĠH agedoorn
ĠD el
ĠD ol
ĠD ant
ĠD ries
ĠD aarde
ĠD ale
ĠD ichter
ĠD Ã¡t
am s
Ġon gen
Ġon tied
Ġon deur
Ġon veur
Ġon road
Ġon gewoon
Ġwel licht
Ġwel beh
Ġmie zÃ¶lf
Ġvr agen
Ġvr achteg
oan ze
ag s
Ġal vaast
Ġal fabet
Ġbe valen
Ġbe antwoorden
ui den
uw achteg
Ġge intje
Ġof g
Ġof l
Ġof kommen
Ġoet weg
Ġoet gang
Ġoet slag
Ġoet komen
Ġoet keren
Ġoet trekken
Ġoet vreten
Ġoet pakt
ĠB or
ĠB ien
ĠB un
ĠB otter
ĠB ell
ĠB ev
ĠB eune
ĠB Ã¨rtus
ĠB arbizon
ĠS c
ĠS el
ĠS ad
ĠS us
ĠS aand
ĠS lu
ĠS ole
ĠS orry
ĠS ipke
ĠS oundcloud
Ġhaar n
Ġgr aacht
Ġgr oaf
Ġgr app
Ġgr int
Ġgr iender
Ġgr undel
Ġweer s
len dal
ĠM at
ĠM ou
ĠM elk
ĠM aank
ĠM ost
ĠM ins
ĠM aarkt
ĠM outen
ĠM erie
ĠM Ã¼n
ĠM aya
ĠM olleboon
Ġover n
Ġover uren
Ġover lopen
Ġover gang
Ġover loop
Ġover komen
sch en
sch oem
sch rievers
ing el
ing ste
ĠK a
ĠK ou
ĠK oos
ĠK ort
ĠK etten
ĠK orn
ĠK Ã¶rt
ĠK unst
ĠK OM
Ġaal om
Ġaal aan
ster baank
Ġdeur leven
Ġdeur stoan
Ġdeur rieden
Ġdeur gaait
Ġwe ekende
Ġwe elder
ĠV ief
ĠV alen
ĠV eerster
ĠV VS
Ġbl oed
Ġbl uzzen
Ġbl oeze
Ġbl ote
Ġle pel
Ġf ees
Ik ke
ĠJ um
ĠJ im
ĠJ ack
ĠJ oke
ĠJ enny
ĠJ olanda
Ġain den
ĠA les
ĠA uto
ĠA dam
ĠA ja
Ġhet te
... "
... ).
oor l
oor der
Ã¶r md
ers oon
Ġkw akken
Ġkw iel
Ġkw int
Ġkw aamp
Ġkw estie
em or
Ġkl oag
Ġkl eurt
Ġkl apte
Ġbo sw
Ġbo zzem
Ġdr oak
Ġdr eugd
ĠN or
ĠN es
ĠN ovember
ĠN uts
ĠN ijntje
ĠN AIT
oam d
oam t
ĠO b
ĠO ter
ĠO ard
ĠO ompies
Ġsl akken
Ġsl oden
Ġsl obb
Ġsl ougen
Ġsl ongel
Ġbinnen ste
is de
is je
Ġzai pe
Ġbr ij
Ġbr ing
Ġbr oaden
Ġbr aaien
Ġbr onnen
Ġbr ollen
Ġbr Ã¶s
Ġsp ij
Ġsp its
Ġsp ektoakel
ĠZ uu
ĠZ ang
ĠZ eun
ĠZ anne
ĠZ uden
ĠZ ugst
aand re
ĠT eu
ĠT im
ĠT uurlek
ĠT uun
ĠT oentje
Ġkon ter
Ġkon kl
Ġje wel
Ġtou heur
Ġtou zegd
Ġtou vertr
ĠP ijt
ĠP aider
ĠP vd
and ic
Ġai d
Ġai ve
Ġkr at
Ġkr ant
Ġkr ud
Ġkr euze
Ġkr eunen
Ġkr oantje
Ġ' '
Ġja zze
Ġwoar aan
Ġwoar onder
Ġwoar nemen
Ġwoar deren
ĠL am
ĠL est
ĠL aang
ĠL ains
ĠL eeg
ĠL AI
ĠL ess
ĠL eutje
Ġto verde
Ġgoud je
Ġgoud kope
um d
ut jen
oag el
ne pen
Ġdie zel
Ġpr ost
Ġpr ooi
Ġpr iv
Ġpr izzent
Ġpr ommelde
uut gang
Ġtr op
Ġtr io
Ġnoa sten
ur ken
ur ege
Ġbeg ereg
Ġol lers
Ġol lere
ĠR o
ĠR el
ĠR eg
ĠR ap
ĠR aait
ĠR Ã¶t
ĠR iem
ĠR oemen
ong s
im e
im pels
mer e
Ġwil le
Ġlu zzen
Ġlu dt
ant oor
ed am
Ġvot geven
Ġvot hoalen
Ġvot kwam
Ġpl uk
Ġpl oag
Ġpl ons
Ġpl ankje
Ġachter deure
Ġwol ke
Ġdo vve
id dern
id delde
Ġveul ste
Ġeer lieke
Ġkop er
Ġkop tillefoon
ĠÃ²f br
ĠÃ²f leverd
ĠÃ²f voerd
ĠE thnologue
ĠE HBO
Ġzit s
Ġhier mit
Ġhier noast
Ġstr uk
Ġstr amp
Ġstr ikken
Ġniks naks
Ġnij kom
Ġnij moud
dr oag
oet in
oet sloagen
Ġvl amme
Ġvl ijde
Ġman n
Ġko ch
Ġko ste
Ġko opt
Ġko ele
Ġko vvers
ĠSt ok
ĠSt uur
ĠSt uk
ĠSt and
ĠSt okje
ĠSt oetje
ĠJan neke
Ġonder n
Ġonder aan
Ġonder holden
Ġonder wiezer
oen sn
sl am
sp ir
Ġdoe zen
Ġker d
Ġker kt
Ġuut g
Ġuut p
Ġuut z
Ġuut sp
Ġuut kommen
Ġuut zicht
Ġuut doagen
Ġuut drukken
Ġuut zenden
Ġuut zuiken
Ġsn ik
Ġsn aren
Ġsn oef
Ġsn apt
Ġsn okt
ĠF ar
ĠF ort
Ġkn oapen
Ġkn itter
Ġkn ientje
Ġkn allen
Ġkn obbe
Ġkn uvvel
ez eltoat
ert oal
Ġhol st
Ġhol thakker
Ġc o
Ġc ommer
Ġc ultureel
Ġvert els
Ġ... ?'
Ġmin uut
Ġmin ske
Ġmin stens
ren d
ren s
man nechie
Ġgeb Ã¶l
Ġgeb oden
Ġzulf standeg
Ġgel ag
Dou den
of te
Ġgl oop
Ġgl itter
Ġgl ieve
Ġgl uiende
Ġgl oeperd
Ġgl oeiende
Ġsm olten
Ġdit moal
gel ukkeg
Ġie l
Ġie mand
ve chten
ve egd
Ġsw erelds
ud i
Ġbet unt
Ġbet oalde
bl oa
bl oum
Ġaigen oar
ĠSch ient
ĠC O
ĠC ampus
Ġjong k
Ġjong ern
Ġbel aand
Ġbel ast
Ġgen en
liek boar
ĠWil l
.âĢĻ âĢĻ
Ġkreeg st
lek ker
lek eureg
vr aauwen
Ġzw eef
Ġzw aaiden
Ġzw akke
Ġzw eefde
Ġzw ilk
Ġme i
Ġme elk
Ġme zzen
Ġel eg
Ġbed oard
Ġboven kaant
Ġboven lip
Ġwaiten d
be ven
ir urg
str u
str omen
str oeken
Ġweg je
Ġweg goan
ĠKl ok
me ijer
Ġzok ken
Ġboeten hok
vv eur
pl ain
pl ak
pl icht
Ġer f
Ġvon st
Joa p
Joa zeker
ank stel
pel oar
Ġper d
Ġverd ainst
tr ee
tr ib
sw aart
sw aarde
ĠVer onica
omen ade
ubb o
ĠIn gels
ĠIn di
bel angen
Ã¨n d
Ġbez in
Ġbez unders
Ġhaand jes
Ġspr aken
Ġspr ookjes
Veur lopeg
oek te
oek sj
eun t
Ġkovv iek
uster s
Ġverl am
alen der
teg haid
ĠdÃ¶rp splaain
Ġont kwam
Ġont dekte
ĠBl ad
ĠBl iede
Ġleu gens
Ġleu jong
omp t
omp eln
Ġkiek st
oezen den
oezen dt
Ġdood goan
Ġdood slag
joar sn
Ġbew aarken
Ġbew onderd
Ġ19 50
ĠKr ien
ĠKr aai
Ġvroag st
Ġvroag taiken
Ġklaain ste
Ġverk rieg
Ġkovvie pot
ov velde
Ġmag geld
ĠStad sk
ĠStad jers
Ġdrok kerij
Ġvanzulf sprekend
euren de
Ġverb oal
Ġverb aarg
St ain
St aark
Ġbeter n
ĠBert hold
Ġfl eer
Ġfl ot
Ġversch oel
Ġstuk kie
pr il
pr ogr
ĠAn d
akker d
Al t
Van zÃ¶lf
Ġken nizzen
up iter
woar deg
ĠU S
ĠU w
ĠU nder
ĠFr anken
ĠFr odo
Ã¶rg els
Ġes sen
zel tje
Ġkerk elk
Ġkerk volk
Ġgruin tes
Ġher tje
Ġber iek
Ġber ucht
Ġan kom
Ġvast legd
Ġvast leggen
ĠOl hoof
ĠOl odumare
Ġrecht en
Ġliggen de
Ġvrij er
Ġreg lement
Ġverst eld
Ġverst aait
Ġverw ie
Ġverw aarkt
Ġgem ien
Ġmis moudeg
riek t
Ġbos sen
Ġwoord jes
Ġonner wiel
Ġonner dak
Ã³ t
Ġ3 2
Gr anaatjes
Sch rieven
Sch rik
over s
Ġhoog oet
Ġhoog spannen
kw eek
Ġpad jes
Vr oug
arr ege
Ġzin s
ĠbÃ¨r reg
Ġbuur jong
ĠAl tied
ĠAl di
Ġvolk stoal
ĠkÃ¶r rel
zicht ig
Ver gr
ĠTom s
wij k
Ġhand els
ĠBlaauw estad
vl oog
vl inder
vl eugels
Ġmensen leven
ĠVeur aal
th a
th aik
ĠSp aanje
Ġboom st
wie gen
ĠDr int
Ġlief ke
Ġger ommel
Ġstad je
Ġstad ion
Ġmond je
Ġregen bak
Ġmens dom
Ġstief oet
Ġsloap koamers
Ġple cht
ĠKn ot
app ert
Ġbesch aaid
Ġbesch oadeg
geb aauwen
waar f
Ġpas p
Ġpas se
Ġverz Ã¶rgd
Ġvrund je
ĠPr acht
ĠPr uus
ĠRoel and
ĠAm ber
Ġoog houken
zer g
zer ij
Ġvis ker
Ġvis sers
Ġor kest
Ġverv angen
Ġies k
ĠhÃ¨ t
Ġfeest ke
Ġfeest elk
Ġ4 3
Ġ4 6
Ġtoun moalege
Ġvaar ver
av ans
Ġperb eert
Ġperb aaierden
Ġ5 9
Ġ5 00
ĠOm mes
Ġgeh andic
Ġgat je
Ġschoon moakt
uv uzel
Ġhaal dal
Ġhaal verwege
ine zen
ine se
ĠKom st
ĠKom men
Ġten m
ijk s
all ing
all ege
Ġmer el
Ġ, ,
Ol d
Ol len
Ġket oortje
aks ische
Ġ6 6
Ġ6 7
apper d
Ġgebr eken
Ġdeel leggen
Ġkou staal
ĠBe i
ĠBe w
ĠBe vr
Ġboeren ploatse
Ġboeren verstaand
sn el
abb els
Ġschil ler
Bl eef
Ġzundag middag
Kl eur
Gel ok
Ġriek er
Ġvat ten
oc ent
ĠDin oa
Ġvern ail
oden dr
Tr ek
Ġ9 9
aail anden
An no
Ġvuur tje
Ġrest aur
Ġhe et
Ġfil e
Ġmelk febriek
Ġlie m
Ġlie ke
schr eef
meester s
Ġoaf lopen
Ġmoe der
des s
20 11
20 14
20 13
Ã¼ r
Ġsj iek
uid a
Dr aai
Ġblad zie
ĠMoeke s
pot h
Ġpol ler
Ġwonder boar
ĠHaarm s
ins els
Ġgold vis
Ġgold geel
Ġopl oaden
Ġkunst waarken
Ġpar fum
Ġad vert
Ġad min
ĠAal gedureg
Ġaller laifste
Ġland schap
ĠAin rom
Ġgrie zel
Br aif
Br oene
Ġ? ...
Ġvergr Ã¨lde
Ġkont akten
Ġtoe sterg
Ġtoe zeboudel
Ġgezel schap
Ġoom kes
stern ak
stern ust
Veul s
ĠBen ne
Ġkoar de
jong s
Ġbekend ste
moat ege
Ġstain tje
Ġjanne woari
Ġthee drinken
Ġch a
Ġch ips
ĠwÃ¶r den
ĠwÃ¶r ren
Ġpervin zies
neu dege
Ġgun st
Ġlaiverd je
Ġcomp on
Ġcomp leet
tal len
egr aaf
ĠToal spul
Ġstoat us
Ġ15 00
ni us
Ġbun ker
Ġkost boar
Ġaankommen de
Ġoetst el
Ġoetst ukt
Ġrol stoel
Ġbuurt schop
ha upt
zz eln
ĠSw ait
gem ak
Ġgespr oken
Ġdruk ker
Ġtillefoon tje
Ġnust en
ĠÃ²l ste
Ġmoat schop
ĠLai w
gier eg
dek ker
licht jes
grond se
Ġbuut sen
Ġschuur deur
Ġzom oar
Ġtrap pe
Pl oeg
Ġzak de
Sn el
ets jer
Ġjeugd her
Ġvrouw en
ĠZw eden
ĠZw oantje
Ġsmok ing
Ġrechter kaant
Sp reekst
act eur
wor reg
Ġgesch reven
Tegen over
Ġlinks Ã²f
Ġjeu k
Ġnoaber schop
Ġtwie velde
ommer dags
ĠWinsch oten
ĠPekel derdaip
ub a
ĠBeg unde
ĠLe onarda
ĠCh ina
ĠCh ris
bed ainen
Ġintern ation
Ġintern aasjonoale
Ġaanp aast
Ġaanp aasd
Ġliggoam elke
Hol t
Ġwaain ege
Ġkap ke
Ġvatteg ste
Ġveujoar sdag
Ġbad meester
Ġeet ter
Ġvinger tje
Ġkep odde
ĠVraauw lu
bo zzel
Ġvond st
Ġpu tjes
Ġklain dochter
Ġgul le
Ġaanst aait
Ġaanst eken
Ġaanst eker
Ġrommel maart
Ġex p
ĠVis maarkt
Ġsloapkoamer tje
hem meln
Ġbul kte
Ġler oaren
Ġopst eld
Ġvaal se
Ġmuz eum
Ġschiet beetje
Sm Ã¶rns
Ġmainen s
ĠLaif st
Ġfluuster nd
erv a
Ġversw ienen
unders moa
ompen at
Ġoverl oaten
Fr aans
stoal egen
Ġverkocht en
erm aaierden
Ġho elde
Ġsport veld
Ġbetr oande
Ġkadde bak
speul de
par k
sj oaren
Ġneef fie
Ġvij f
Ġbrug je
OE OE
Ġopv aalt
Ġopv ouden
ĠHeer e
ĠHeer en
ĠMag dalena
Ġovert u
ĠPait ershou
ĠPar is
Ġappel bomen
Ġgehaai me
Ġvrede snoam
qu es
ĠBer gen
Ġvlucht te
Ġapper oatje
Ġvieven datteg
Ġbegriep elk
Vand oar
Ġveurz Ã¶rg
Ġeerd appels
Ġvet pot
ĠkÃ¶n den
Ġlo ve
ĠMartin i
Ġglim lag
ÃŃ t
ÃŃ en
ĠzÃ¶cht en
ats jen
Ġ196 3
Hen derk
Ġbem uit
Ġbedr aai
ĠEngel aand
wacht ers
ieft ien
Ġverzoam el
Ġmilj oen
Ġmilj ounen
Ġaanh anger
Ġtraauw dag
ĠEd ward
Ġcol a
MÃ¶rgen vroug
Ġtak je
Le zen
Ġkok os
Ġverkeer s
Ġzen uwachteg
Ġinst appen
Ġfot ogroaf
Ġopb ellen
Ġpil oot
Ġpil sje
Ġengel n
Ġengel tje
Ġengel tjes
Ġloer den
Ġaansch oten
Ġtachteg er
euw se
Ġvolg orde
Ġkamp ioen
Ġonm acht
Ġtre f
Ġzuit jes
Ġstroal t
Ġwur m
Ġmoag ere
inn etje
Ġpoesten d
Ġlok oal
Ġlok te
iss ingen
Ġgener oatsies
Ġzang ers
Ġvers ieren
Ġ198 5
Ġschuddel baank
Ġwandel oars
Ġvak bond
Ġbeu gel
Ġaanl angen
Ġverpl ichten
Ġverpl ichte
Ã¶ch de
Ġstroalen d
Ġcontr act
Ġcontr ole
Ġlamp ke
Ġsh ow
Ġpoal tje
Ġaanbel aand
ĠTw ent
Ġoller wets
Ġaanwez ege
Ġwup k
Ġtil t
ĠMO I
ĠJez ebel
ĠSchier monn
Ġvlaigt ugen
Verd old
zun ne
Ġsier leke
Ġschoe ft
ĠTop Dut
Ġtril den
iedens kenoal
Ġ197 0
Ġ197 5
Ġdomme et
Her innerns
Haarm ke
Per ry
Ġscharr eln
ĠMin oa
ĠMin ister
Ġkomp uter
Ġeerlek haid
Ġlaifheb ben
Ġsleep te
Ġswem pak
ĠkÃ²l le
Ġab str
ĠHaalf watt
Ġlever worst
Ġ195 3
Ġ195 6
Ġ195 7
Ġhoag eldoorn
Ġkouk jes
Ġakt ie
Ġlut ke
Ġrabb elde
Ġfig uren
Ġspin oazie
beg oafd
Ġma or
Ġschilder waark
jon gens
Ġspes ioale
Ġspes joal
ĠUr op
ĠElis e
Joh annes
bet oald
ĠBon zo
Ġweeg t
Ġweeg schoal
Ġspec ioal
Ġtocht je
ĠRegen de
Ġmishot tjed
Ġschoel t
Ġverzeker d
oats eb
oats iek
Ġgep oest
Ġfie tern
Ġhemels e
Ġhemels noam
Ad je
ph p
Ġmeld t
Ġhut ten
Ġju te
Ġoverd rieven
ĠJer uza
Ġkoek jes
Ġresep sie
Ġhaaiden dom
Ġkapt oal
Ġaank ond
ĠWE ER
ĠHam bÃ¶rg
Ġmail tje
Ġball oade
Ġinr icht
ĠGriep skerk
Ġharm onie
Ġextr a
Ġabbels ien
Ġoer aanje
Ġkez ien
Ġkez ienen
oning ana
Ġspuit en
iÃ«n t
Zuster s
ĠJos ien
ĠZulf de
Ġtrom ke
Ġoetzunder lek
Ġang steg
Ġwier den
Ġzummers e
ĠMaai ke
ĠWilde boer
Ġpolit ici
Ġdoal k
Ġdoal der
Ġmak kelke
Ġtrie sterg
Ġbeken den
Ġsym bol
Ġindrok wekken
Ġverander d
ĠWA AR
Ġblok fluit
Ġsling ert
Ġprof iel
Ġcar naval
KK EN
Sie men
Tw ai
bu zze
ng s
Ġsteeg ie
Ġjoek els
ĠWal ing
Ġonzicht boare
ĠKeuneg in
Ġdeurl eerd
ĠVen et
ĠPool se
wester kwartier
inc ip
Ġveurst Ã¨llen
ĠGas sel
ĠZÃ¨l ng
ĠStoaten ziel
ĠKlooster holt
Ġfilos oof
Ġopkn apt
Ġaandr ingen
Ġramm elt
Ġtechn isch
Ġongem ak
Ġvisk ovver
ĠRomein en
Ġsigar etten
Ġagen ten
ĠBG TC
Ġkwastje d
Ġbrul oft
Ġkrist elke
Ġcom ment
Ġchrist elke
================ ================
Ġeekhoorn tje
Mer oakels
Ġtaante s
Ġmies derg
Ġdeurdr ingen
Ġbruuk ten
OAL EN
Ġainvoud ege
Ġdist rib
Ġhip hop
Ġronnom rond
Ġscheld t
ĠKok sioanen
Ġkleuter schoule
ĠFi veling
Ġcomm un
Ġemigr eerd
ĠHoogez aand
Leven s
kne cht
kne pen
ĠHuis man
ĠBre men
ĠKoakel henne
Ġblij ven
Ġkrij gt
Ġdobb er
Ġfiles et
Ġsloaper ge
cr ipt
har dt
Ġkart on
Ġinner leke
Ġpind ak
Ġoverw innen
ĠKle ine
pro ject
Ġbokke blad
Ġfotob ouk
Ġfotob ouken
Gre etje
Vat tien
ped itie
Ġdiplom a
Ġtatoe oatie
Ġhakke mak
Ġgan zen
Ġsoes derg
Ġris ico
Ġvernij d
unsten oar
Ġschenk t
ĠVrede wold
ĠLer us
Ġprui fde
espr ek
Ġrezel uut
Ġkrudenier swinkel
á½ Ħ
Ġag gew
Ġverbeeld t
Ġveurk eur
ĠVil nius
ĠSchip hol
Ġbekw eem
Ġmedis ien
Ġfotot oustel
Ġschittern d
Ġkoesk illen
ubl iek
ĠÃ¨l ks
Ġbure au
Ġopbe denken
Ġstoam elde
Ġonl ine
Ġonger ust
Ġbese vven
ĠMir a
ĠNord horn
ĠPetr us
Ġplaat s
ĠEle ma
Ġmanus cript
sleu dels
Ġgebruk elk
Traauwen s
ĠTex el
Ġharmon ikoa
Goede middag
borst je
Ġophe ven
Ġstin zat
ĠWoagen bÃ¶rgen
gedr ag
ĠGru oningana
ĠRev oir
Ġkrediet koart
Ġrondstr unen
Ġverdaip t
Ġbepaarken s
Ġkommed ant
ĠKapit Ã¤n
ĠmÃ¬ t
Ġbiggel den
Ġsed eltje
ĠHit ler
ĠDÃ¼ desche
Ġaltern atief
schapp ij
Ġzwaarf k
ĠAllen neg
Ġsnijvl okken
ĠOveries sel
Ġsitr oun
Ġbegraffen is
Jez us
Ties sens
Ġil leg
jeste it
ĠAre opag
Ġmobie le
ĠTip peloar
ĠLamm et
ĠLuc as
Ġhailnd al
Ġkopschud dend
ĠknÃ¶t wilgen
ĠGeertr uida
ĠBlÃ© court
Ġmiddern acht
Ġliefzeer te
ĠHooge veen
Ġverded egen
Ġfavor iet
ĠBaargt op
Ġoaze m
chibon us
ekra Ã¯ne
ĠDant uma
ĠSaand ploat
ĠSlu tema
ĠVeerster veld
ĠJum bo
ĠAja x
ĠZanne weer
Ġjewel ste
Ġtouheur ders
ĠPaider boeren
ĠLess ing
oensn oen
Ġcommer c
ĠgebÃ¶l k
Ġbetunt eld
Ġverkrieg boar
uvuzel a
ĠPaitershou ve
ĠSchiermonn ikoog
ĠTopDut ch
ĠJeruza lem
ĠAreopag us
! .
' '
, âĢľ
, âĢĺ
. ?
5 8
6 4
7 8
7 9
8 4
8 8
: :
? -
? .
A k
A ai
A and
A ut
A ig
A aid
A dam
A anders
A ha
B eer
B ok
B ier
B omen
B aist
B ouken
B aarg
B ultje
B reng
C arl
D ek
D ing
D uur
D under
D irekt
D ammeet
D oags
D ames
D amian
E zel
E ST
E DA
E mmer
F eest
F lip
F ietse
G ait
G ee
G old
G af
G riep
G epke
H oezen
H aart
H up
H onderd
I G
I K
I CHT
J on
J os
J onk
K ur
K aren
K onnen
K EN
K ovver
K unstgaang
K PN
L iek
L and
L ig
L eek
L aang
L OA
M o
M ek
M ok
M aai
M oet
M aist
M Ã¬ns
M oortje
M oandag
N N
N or
N ed
N uver
N emedh
O r
O ompie
P O
P ar
P re
P ries
R us
R est
R ikkert
R enske
S E
S i
S ien
S IE
S ummege
S winters
T T
T oug
T ent
T IED
T ieger
V inden
W B
W in
W egen
W ell
W izzen
W erk
W anner
W inkels
Z ig
Z Ã¶rg
Z unde
Z otterdag
Z uskes
` ,
a ve
b le
b oud
b Ã¨l
b ums
b uuts
c i
c ur
c ode
c omputer
d f
d se
d ast
d iplom
e elt
e menten
f eren
f urt
f ietst
g ingen
g haid
g af
g liek
g oaren
g aange
g ooien
h h
h i
h s
h ee
h oo
h Ã¶r
h um
h oas
h aarde
h onde
h azzens
h oake
i oat
i que
j am
j aas
j anne
j uli
k aar
k Ã¶r
k eln
k lu
k rietje
l uu
l oon
l eerd
l ichten
l ijn
l aander
l oage
l oanen
l inker
l Ã¶cht
m oan
m est
m eert
m Ã¬nt
m edel
m ovveld
n nen
n aaid
n elis
o eld
o be
p i
p an
p it
p ol
p kes
p oel
p ir
p aarken
p reek
p ootjes
p residen
r ou
r eb
r am
r eld
r Ã¶t
r ich
r up
r illen
r unnen
r ozen
s eg
s ee
s id
s doagen
s stain
s kracht
t y
t uur
t ippi
t ape
u te
u pen
u eel
u vveld
v ing
v vel
v ief
v Ã©
v euren
v ouer
v ieven
w n
w ait
w ee
w innen
w oud
w and
w ond
w Ã¨l
w akker
w Ã²l
w ill
w ay
w assen
y ste
z t
z oagen
z ug
z ainen
z Ã¶rgen
z aaiern
z aam
z ine
z aik
Ã £
Ã »
Ã ī
Ä ĵ
Ġ Î
Ġ us
Ġ eren
Ġ oale
Ġ !!!
Ġ oavond
Ĩ Ĵ
en e
er oal
er ger
Ġd ied
Ġd ul
Ġd art
Ġd oppen
Ġd rief
Ġd aind
Ġd ress
Ġd Ã²p
Ġn est
Ġn eern
Ġn uster
Ġn aaid
Ġn aaien
Ġn even
Ġn iem
Ġn uzzel
Ġn ight
Ġn argens
ai ste
ai slaand
Ġw eten
Ġw ent
Ġw ir
Ġw anden
Ġw eem
Ġw aast
Ġw Ã¨r
Ġw int
Ġw urg
Ġw insen
Ġw appern
Ġw oeste
Ġw Ã²ns
Ġw oensnoen
an el
an it
an im
Ġv ai
Ġv aren
Ġv ellen
Ġv Ã©
Ġv uren
Ġv eulen
Ġv oage
Ġv Ã¶l
Ġv Ã¬nt
Ġv Ã²t
Ġv aak
Ġv uvuzela
ie men
Ġm un
Ġm ier
Ġm um
Ġm ez
Ġm onk
Ġm ieren
Ġm oest
Ġm all
Ġm achtege
Ġm umm
Ġm Ã²r
Ġm igr
Ġm yst
Ġt on
Ġt ok
Ġt ur
Ġt ang
Ġt elde
Ġt aauwen
Ġt huis
Ġt oef
Ġt oaf
Ġt anks
Ġt ikje
Ġt ype
Ġt rechte
Ġt ureluur
Ġt iendoezend
Ġo de
Ġo to
Ġo onze
Ġh oam
Ġh oek
Ġh iep
Ġh aauwde
Ġh oeze
Ġh apke
Ġh Ã¶rns
Ġh imm
Ġh uul
Ġh Ã³l
Ġh onnerd
Ġz Ã¶
Ġz Ã©
Ġz onk
Ġz oep
Ġz end
Ġz eum
Ġz org
Ġk Ã²
Ġk oap
Ġk appen
Ġk iem
Ġk ipp
Ġk ounavvel
st ek
st ap
st ond
st oaf
st aine
st ango
in ier
in ig
in hold
in ele
in ses
in ette
Ġb a
Ġb at
Ġb eb
Ġb aai
Ġb reden
Ġb uis
Ġb ukken
Ġb eurde
Ġb euk
Ġb eurs
Ġb oute
Ġb akkie
Ġb urger
Ġb abbel
el leg
eu pen
eu ner
eu ske
eu kt
eu mde
eu veln
eu keld
Ġa c
Ġa qu
Ġg im
Ġg etr
Ġg aalm
Ġg ankje
Ġg apte
Ġg oede
at las
ou pl
Ġen velop
oar deg
Ġl ellen
Ġl ent
Ġl oie
Ġl oom
Ġl oden
Ġl ike
Ġl intje
Ġl Ã¨lk
Ġl Ã¶tterij
eg orie
aa le
et ain
it a
it uut
it Ã©
it ionele
Ġs oe
Ġs ummer
Ġs ein
Ġs oorte
Ġs urf
Ġs opr
Ġs oeterge
or a
Ġvan wegens
Ġvan avond
on st
on tje
on ius
ij ham
Ġde vies
de st
om er
om an
om dat
om isch
om verboasd
om standegheden
eer ders
Ġop n
Ġop s
Ġop oef
Ġop komt
Ġop kieken
Ġop zetten
Ġop rieden
Ġop hollen
Ġop nam
Ġop plakt
der ik
der land
ek ie
ek op
Ġst aain
Ġst af
Ġst uit
Ġst aine
Ġst ommel
Ġst inkt
Ġst ippen
Ġst Ã¶tter
Ġst ovvel
Ġst eertje
Ġin ten
Ġin kl
Ġin kommen
Ġin gang
Ġin stemmen
Ġin breng
ol ogen
Ġp c
Ġp it
Ġp innen
Ġp iet
Ġp oer
Ġp aauwen
Ġp ure
Ġp red
Ġp utje
Ġp orren
Ġp euter
Ġp udde
Ġp ian
Ġp udding
ok kop
Ġmit r
Ġmit leven
Ġmit zingen
Ġaan hold
Ġaan stellen
Ġaan val
Ġaan hoal
Ġaan vreten
Ġaan genoam
oe ders
oe zeld
as i
Ġr op
Ġr am
Ġr ui
Ġr uk
Ġr ang
Ġr uil
Ġr eerd
Ġr ent
Ġr okken
Ġr onne
Ġr oaf
Ġr oepen
Ġr oest
Ġr okje
Ġr olden
Ġr ibb
Ġr aimke
Ġr impel
Ġr aggen
Ġr oasde
Ġj ust
Ġj ouw
og eln
Ġe der
ken nis
ken ende
Ġis ol
Ġver ten
Ġver sm
Ġver broken
Ġver pakt
Ġver joagen
ee ee
aan b
aan joagen
ot on
Ġveur goan
Ġveur dracht
Ġte bl
Ġte sten
il en
il eum
uu nd
op ers
op laaiden
ver st
ver sie
ver ske
ver skes
ver zeker
ver koper
le y
un kt
ar o
eb ak
ik keg
oat um
oat se
Ġsch and
Ġsch olen
Ġsch enen
Ġsch opte
Ġsch immer
Ġsch upt
Ġsch iefke
Ġbie bleven
Ġbie beh
Ġien w
Ġien moal
ĠW C
ĠW oud
ĠW old
ĠW up
ĠW izzen
ĠW OAR
ĠW iefke
ĠW ikipedia
zen der
Ġzo den
Ġzo og
Ġom v
Ġom w
Ġom aarm
Ġom zetten
Ġom ploug
Ġze it
Ġze sen
Ġze elu
ĠG ij
ĠG Ã©
ĠG ele
ĠG oaske
ĠG SM
ĠG oogle
ĠG undersmoa
ĠG esprek
ĠH al
ĠH Ã¨
ĠH ere
ĠH onden
ĠH aaileg
ĠH BS
Ġas mis
ĠD ig
ĠD ook
ĠD ooie
ĠD ay
ĠD waars
ĠD AT
ĠD irkjan
Ġzien s
Ġon e
Ġon f
Ġon eer
Ġon Ã²f
Ġon oet
Ġon beste
Ġon regel
ied t
ied kw
ied jen
Ġwel is
Ġvr Ã¶n
Ġvr auw
Ġvr aizen
Ġvr aide
Ġvr eterij
Ġvr ome
oan boar
oan del
oan dern
ag st
ag eren
Ġal p
Ã¶ chtern
Ġbe at
Ġbe ven
Ġbe spreken
Ġbe oordailen
ten is
ui ch
ui se
Ġge sl
Ġge pr
Ġge sn
Ġof goan
Ġof loop
Ġof sloten
Ġoet d
Ġoet k
Ġoet zet
Ġoet holden
Ġoet komst
Ġoet moakt
Ġoet proat
Ġoet gever
Ġoet lag
Ġoet zenden
Ġoet sneden
Ġoet eindelk
iek el
aauw erij
ĠB ou
ĠB ul
ĠB and
ĠB ang
ĠB ast
ĠB uren
ĠB ep
ĠB aange
ĠB red
ĠB ientje
ĠB au
ĠB eppie
ĠB udo
ĠB esl
ĠS ara
ĠS inees
ĠS LI
ĠS eni
Ġgr Ã¨l
Ġgr onden
Ġgr iff
Ġweer woord
len der
ĠM il
ĠM oet
ĠM ekoar
ĠM uit
ĠM enn
ĠM oand
ĠM iss
re sten
Ġover sloagen
Ġover blieven
Ġover hemd
sch aar
sch ouw
sch oven
sch ieter
sch oulen
sch rief
te el
ĠK L
ĠK O
ĠK R
ĠK il
ĠK aamp
ĠK apte
ĠK OP
ĠK ammeroad
ĠK upers
ster ie
ster achter
Ġdeur sn
Ġdeur zetten
Ġdeur mekoar
Ġdoar hÃ¬n
ze d
ĠV aar
ĠV oor
ĠV ond
ĠV od
ĠV ool
ĠV ib
ĠV eel
ĠV atter
ste vels
ste yn
ge vel
ter oatsie
ad derd
Ġbl z
Ġbl Ã¨r
Ġbl okje
Ġbl inden
Ġbl okjes
Ġle v
Ġle verd
Ġkom pen
Ġf at
Ġf ied
Ġf ies
Ġf olders
Ġf onte
Ġf erw
ĠJ oaren
ĠJ ammer
ĠJ AN
ĠJ immy
ĠJ upiter
ĠJ okkop
Ġain ton
Ġdou ve
Ġdou chen
ĠA L
ĠA is
Ġhet ten
pen hoezen
pen sion
ers nood
Ġkw ait
Ġkw oalen
Ġkw ets
em s
em elk
em eerd
Ġkl ing
Ġkl oot
Ġkl ip
Ġkl onken
Ġkl etter
Ġgain ains
Ġbo eg
Ġbo ekje
Ġbo bo
Ġdr uigen
Ġdr ugs
ĠN a
ĠN on
ĠN iek
ĠN eef
ĠN ust
ĠN euze
ĠN oatuur
ĠN emedh
ĠN oint
ĠN OG
oam de
aal d
Hai lendaal
Ġmeer der
ĠO gen
ĠO dy
Ġsl ur
Ġsl amp
Ġsl aauwe
Ġsl eut
Ġsl oeg
Ġsl uzen
Ġsl oagd
Ġbinnen kaande
uk se
is e
is sie
is mar
Ġbr ek
Ġbr ook
Ġbr och
Ġbr obb
Ġbr ommer
Ġbr annek
Ġwor rel
Ġsp oot
Ġsp ans
Ġsp elen
Ġsp oarde
Ġsp reektoal
Ġsp orten
Ġzee man
ĠZ eek
ĠZ Ã¶rg
ĠZ omor
aand el
ĠT ien
ĠT ag
ĠT oen
ĠT ieden
ĠT iggel
ĠT ieger
ĠT wievel
ĠT attoo
ĠT oekomst
ĠT atoeba
ĠT oezeboudel
Ġkon tje
Ġje m
Ġtou zicht
Ġtou komt
Ġtou loaten
ĠP ot
ĠP re
ĠP ap
ĠP adde
ĠP eerden
ĠP uch
ĠP eet
ĠP atten
ĠP otje
ĠP zn
and el
and se
and iÃ«
Ġai laand
Ġai wege
Ġkr i
Ġkr oeke
Ġkr oeg
Ġkr Ã¬nt
Ġkr atten
Ġkr aantje
Ġkr uzen
Ġkr ukje
Ġkr oaters
sen d
Ġwoar ien
Ġwoar de
Ġwoar over
ĠL eef
ĠL ocht
ĠL aag
ĠL ekker
ĠL oek
ĠL EU
ĠL oane
ĠL inden
ĠL aangs
ĠL akeika
Ġto gen
Ġto chten
Ġto ilet
Ġgoud keurd
ĠI t
ĠI EN
ĠI kea
Ġzeg s
Ġzeg eltjes
se cten
Ġjoar liekse
Ġdie et
Ġpr oot
Ġpr ud
Ġpr opt
Ġpr utt
Ġpr ullen
Ġpr ett
Ġpr oemke
ig ie
ig de
ig haid
Ġtr og
Ġtr ainen
Ġtr oage
Ġtr ouw
Ġtr ouwen
Ġtr oosten
Ġtr aum
Ġtr oalies
Ġnoa kende
Ġnoa denkt
Ã¬n te
Ã¬n zie
oot man
Ġwer ken
ĠR iet
ĠR and
ĠR ode
ĠR ussen
ĠR amp
ĠR oek
ĠR ia
ĠR oeken
ĠR OL
ĠR oz
ĠR inkjes
ĠR obbie
ĠR ietema
im an
ang els
Ġtied stip
mer ries
Ġwil l
Ġlu ster
ant ische
oon s
oon boar
ed dy
Ġvot stuurd
Ġpl ee
Ġpl us
Ġachter waark
Ġachter mekoar
Ġachter blieven
Ġachter heufd
Ġdo eke
id se
ĠÃ²f nemen
ĠÃ²f hoalen
ĠÃ²f nomen
ĠÃ²f sloten
ĠÃ²f gelegen
ĠÃ²f vroagd
Ġtegen st
Ġtegen woord
Ġtegen hollen
ĠE in
ĠE uro
ĠE elko
Ġtw ief
Ġtw itter
Ġhoes vraauw
Ġhoes hollen
Ġhoes genoot
Ġjoe zÃ¶lf
Ġhier op
Ġhier hÃ¨n
Ġvol de
Ġvol doun
Ġvol hollen
Ġvol dut
Ġ( âĢľ
Ġstr ip
Ġstr ekt
Ġstr eut
Ġstr iekt
Ġstr ompelde
es j
es is
es kes
aank riek
dr oa
dr aank
dr onken
dr oadje
Ġvl oud
Ġvl age
Ġman ke
Ġhou den
Ġko eltje
Ġko ib
Ġko egels
ander n
oord aild
Ġmos lim
ĠSt ar
ĠSt oat
ĠSt of
ĠSt Ã¶rm
ĠSt ation
ĠSt reektoal
est ro
ĠJan co
Ġlai st
eren s
Ġzun doags
ief d
ist r
ist entie
sl a
sl ie
sl eten
sl agt
sl oane
sp oren
sp uild
sp ersoon
ood s
Ġ2 50
De ze
eerd haid
Ġleven sw
Ġdoe zelg
Ġtwij ling
ip st
ip pe
oug h
Ġuut b
Ġuut goan
Ġuut sproak
Ġuut kiek
Ġuut brengen
Ġsn ibb
Ġsn ack
Ġsn aachs
ĠF re
ĠF aarms
ĠF ixie
Ġkn iek
Ġkn ist
Ġkn ees
Ġkn iv
Ġkn ikken
Ġkn ow
Ġkn uff
ĠEn d
ug ge
Ġc en
Ġc at
Ġc oun
Ġc arr
Ġc arb
Ġc owboy
Ġmin achten
Ġmin noar
ren a
Ġmet ain
Ġmet oalen
Ġre v
Ġre der
Ġre ster
Ġre ff
Ġre Ã¼nie
Ġgel eerde
Ġwaark st
Ġverh eug
Ġverh alen
Ġverh ogen
Ġgl ie
Ġgl euven
Ġgl ommen
Ġgl inne
Ġgl etsjer
Op t
Doar in
Ġsm eken
Ġsm ouk
Ġsm oezen
Ġsm akte
Ġsm urf
Ġsm elten
gel uud
hoes kes
In tern
ĠIk ke
Ġaar d
ve ill
Ġsw et
Ġsw ommen
ud u
ud elke
Ġaans wat
Ġall aang
Ġbet aik
Ġbet oalt
ocht e
bl ief
bl ommen
ber iek
ber oemd
oer eg
Ġmoal ofwat
Ġged oe
Ġged aan
oul t
Ġlig st
ders hoes
Ġaigen kl
ĠSch le
ĠSch iet
ĠSch ippers
ĠSch rievers
ĠSch Ã¼t
ĠSch ewÃ²l
os sen
ĠC it
ĠC omp
ĠC he
ĠC ool
ĠC entrum
ĠC DA
ĠC BS
ĠC ismar
af ke
af one
eln ij
eln oam
br ink
Ġbel l
Ġbel ed
Ġbel onnen
Ġbel oond
Ġbel emmer
Der kie
Ġgen oa
Ġgen ut
gr uien
gr ote
gr uine
ĠWil d
leg ie
leg ies
leg ere
aag se
Ġzw oanen
Ġzw emt
Ġvroug te
Ġme der
Ã© t
Ġgez onde
Ġgez egde
boar der
Ġel ement
Ġbed aild
Ġgev oulen
Ġgev uul
Ġboven bainen
be wijs
be dekken
str eud
Ġweg legd
Ġweg hoald
Ġok sters
ĠKl oar
ĠKl as
Ġgroot olden
me elf
Ġwieder e
Ġstil z
Ġstil ler
Ã¨l s
vv ie
ikt oares
pl akken
Ġdicht sloagen
ob lemen
oun tjes
Ġer kend
ep ar
ep ieren
ep tie
ank ouk
Ġwereld v
Ġrond weg
Ġrond hangen
ef ester
art on
Ġneu m
Ġneu de
Ġlaank s
Ġper c
Ġper i
Ġper m
Ġverd an
tr ol
tr oal
tr ap
sw in
sw eerd
sw oorden
ĠVer leden
ĠVer schil
ĠVer laifd
Ġschr aaide
Ġschr if
uit jes
Ġeen de
Ġwotter s
amp agne
okken s
ĠIn gen
ĠIn derdoad
Ġverg unnen
Ġkinder en
bel even
kl inkers
Hou zo
Ġnoam iddag
hol ten
Ġbez oek
Ġbez unegen
Ġspr ille
Ġspr oakel
Ġspr utter
Ġlaif s
under loa
oek ers
agen t
omm irreg
oavel n
Ġlang ste
Ġont h
Ġont valen
Ġont komen
Ġont doan
Ġhel ikopter
ĠBl ok
Ġweerom raaize
Ġbek n
Ġbek oren
Ġbek euren
Ġbek nepen
ic al
ic eren
ic oanse
Ġleu jonges
ail aand
omp eld
Ġdood s
Ġdood se
Ġdood sbenaauwd
Ġdood schoten
Ġbew oonde
Ġro se
Ġro eger
ich er
Ġ19 00
Ġ19 20
Ġ19 17
Ġ19 16
Ġ19 24
ĠKr ing
ĠKr ist
Ġklaain ere
Ġkloar moakt
Ġmag n
Ġdrok de
kr oan
kr aant
kr ans
Ġverb o
Ġverb eter
Ġverb oasde
St iek
St onnen
Ġfl eur
Ġfl otter
Ġfl oep
Ġfl odder
Ġfl oiten
Ġversch onen
Ġversch aiden
pr ov
ĠVr ee
ma ol
Ġauto sleudels
Ġgeern t
Al der
Ġken st
Ġken on
woar dege
Ġthoes kwam
ĠU MC
Ġecht poar
aiken laand
ww en
Ġproat stoul
Ġboer d
ĠFr y
ĠFr anc
kel u
zel en
zel eg
Ġhaalf schaaid
Ġmid deg
Ġmid deln
Ġmid dle
oof de
Ġkerk klokken
Ġduur den
Ġduur ven
Ġrust dag
erd oagen
Ġvroagen de
ct or
ct ief
ct tape
Ġgoa ve
Ġher denken
Ġher kent
Ġber usten
Ġber oerde
olle ma
weg haid
Ġan kommend
Ġvast zet
ĠOl joarsoavend
Ġwied woagen
Ġwis woar
sk i
sk unde
Ġliggen d
Ġreg i
Ġreg elde
Ġverst aarkt
Ġverst uurd
ĠMar ina
Ġmog ten
Ġmot oren
Ġmot to
Ġmot blik
Ġverw eer
Ġverw iet
Ġverw ant
Ġverw end
Ġverw onderd
Ġverw ieten
Ġverw aarmen
ĠVan Ã²f
Ġmis doad
Ġkomen de
akk ies
Ġspeul s
Ain ege
Ġstok te
Ġschoul kammeroad
ĠWoar e
ĠWoar haid
Ġblieven d
Gr as
Gr outnis
Sch ait
Sch il
Sch iet
oef en
Ġnijs kes
Ġgek oper
Ġgek wedel
irr els
Ã« ren
kw oad
ĠBr ont
ĠBr aauwer
ĠEl ine
ĠEl la
inger ij
Vr ais
Ġheurde st
ĠbÃ¨r ren
ont jen
ĠAl der
ĠAl ice
ĠAl gemeen
Ġkerst spul
Ġkerst verhoalen
Ġkerst stol
Ġstroat toal
Ġstem m
Ġkind s
Ġlaid tekst
Ġlaid teksten
ko sten
ko vvie
Ġrou er
Ġrou st
ĠGer ry
ort el
ĠNij t
ĠNij moods
ĠhÃ¬n zet
Ġsnij bui
Jan Willem
hoog ste
Ġmeschain s
Ġhand sen
if ik
if anten
ĠDij ken
Ġth eek
Ġkun deg
Ġvlai ger
ĠHol dt
ĠHol lander
ĠHol stein
Ã¶n g
Ã¶n gen
Ġaai s
th al
ĠSp an
ĠSp in
ĠSp oor
oed d
ĠKin s
Ġboom t
nie ten
res sie
wie leg
wie zers
Ġbaaiden d
ĠDr ibbel
Ġmeugelk haiden
Ġpeb aarde
Ġger ageholder
dern d
dern oast
Ġnacht merries
Ġvertr ek
Ġvertr ekt
Ġverdrait ege
sm Ã¶rns
ĠmÃ¶rgen zun
Ġtien de
Ġzeuven de
Ġple verk
ĠKn apper
ged achten
ged achte
app elk
Ġbesch ikken
!! !âĢĻ
waar per
Den ken
Ġdaaier tjes
ĠAm b
Ġolder dom
ac c
Ġwonen s
ga ven
Ġies kold
akke mak
Ġfeest week
Ġfeest tent
Ġ4 1
Ġ4 4
moak erij
Ġvaar vers
Ġvaar fde
Ġverr oppen
Ġverr azzens
Ġverr assen
av id
av ve
Ġ5 3
Ġ5 4
Ġ5 8
Ġzummer tied
Ġzummer vruchten
ĠOm toald
ĠHen driks
Ġdeu k
Ġschoon olders
Ġhaal sk
Ġbaar ke
Ġbaar gt
ukken t
Ġverdw oasd
all eerd
dder d
Ġalle en
zo egen
stoan boar
Ġdak terras
Ġknip te
Ġknip pert
Ġkiender joaren
val eg
Ol der
Ġket aar
ri oal
Ġ6 1
Ġ6 2
Ġgebr om
Ġgebr oekt
Ġgebr uukt
Ġbus halte
Ġkol enk
Ġboeren ploatsen
utt o
sn at
Ġvaaier kaante
ĠVl inder
ĠVl issingen
ĠVl oandern
Ġstoef bij
Ġvekaan z
abb eln
Ġsoamen stellen
Ġschil derde
Bl ied
Bl oots
Ġzundag oavend
Ġfietsen hok
Ġdail de
Ġdail nemers
Ġnat ion
Ġreken s
Ġreken schop
vert oal
Man ske
nd je
Ġdoag el
Ġbouken kaast
ukt ie
oetb allen
ĠDin sdag
Ġnoat ur
Ġboksem piepen
Ġmins elk
Ġar ts
Ġar riv
An dr
Deur dat
achter kaande
Ġtraain tje
Ġherinner de
Ġrest anten
Ã¡ n
Ġfr ans
Ġfr anje
Ġhe Ãºr
Ġhe ftege
Ġlie sters
ĠCor nelis
Ġkil te
schr ikt
kwam men
obb eltje
ĠOf schaaid
ah n
ah Ã£
ket ing
doun d
Ġheu kel
Ġschrief blok
uden t
Ã¼ d
Ã¼ Ã¼t
Ġsj an
Ġsj okte
Ġsj oeksj
Ġsj ompenat
Dr ok
Dr aank
Ġ7 7
ĠkÃ¬n s
ĠVol vo
oorn tjes
reg ister
Ġbloud drok
Ġbestoan de
Ġwonder n
Ġ! âĢĿ,
Ġpar as
Ġpar ket
ĠScheem der
ĠScheem ter
Ġander haalve
Ġvoetb allers
Ġad rezzen
Ġstreektoal proat
ĠWol t
ĠOn n
Ġslag ter
Ġaller god
mor gen
Ġlast en
Br and
Br oek
mid t
ĠkÃ¶rt s
Pa ul
ib olt
IE F
ĠPl oug
Ġbedoul t
Ġam ateur
Ġbep oalt
Ġspaigel ploade
Ġvolle yb
ĠHer r
ĠHer mans
Ġmaai mesien
Ġzaiken bezuik
Ġunder zuik
Ġdw oas
Ġklaid jes
Ġklaid koamer
Ġpervin zioale
Ġbraand de
Ġbraand weer
proat je
Ġbier tje
Ġlaiverd s
Ġroe mer
Ġcomp rom
Wil s
Wil t
ĠrÃ¶t gang
ĠAb eln
Ġkoop lu
Achter Ã²f
Mar tje
ĠÃ Ī
Ġtaande s
Ġopsch eept
Ġpre zen
Ġpre vel
Ġlest ent
ni ken
Ġbun kers
Ġkost te
Ġnood l
Ġopt ie
Ġdreug t
Ġoetst apt
Ġoetst urven
komen de
mel ingh
stroat je
ĠKon st
Ġmeert moand
ĠSw aalfke
Ġwaist oe
Ġzoal eger
izz eld
Ġvoetbal d
Ġvoetbal ploatjes
Ġdis co
Ġoetz onden
ĠÃ²l len
Ġzijn de
Ġaanb ren
Ġaanb ellen
Ġrechts of
woagen tje
ĠAp ping
Ġbuut swoorden
Ġzom etain
Ġkle pke
Ġtrap te
Jong elu
Pl oats
tj er
Ġveuroet zicht
ĠSte f
Be w
Sn achts
Ġdu cttape
Ġlees de
ĠBel even
Ġzotterdag mÃ¶rgen
ĠZw ait
ĠZw em
Ġgeluk kig
Ġverdain sten
Ġraais d
Men neg
Zulf de
Ġgezelleg er
ĠDren ten
ĠDren te
Ġdink st
ĠMe is
ĠMe wolle
iets benaauwd
Ġpoe der
Ġpoe ier
Ġmoud eg
ĠLe waai
ĠLe euwen
Ġplek kie
Ġaarb aaiders
Ġvaaileg er
Ġaanp azen
Ġun if
Ġkap stok
Ġkap itoal
Ġrek re
ĠHoog eland
Ġveujoar s
haal zend
Ġbad mint
Ġsek onde
Ġeet toavel
ĠOoster m
ĠOoster huis
ĠOoster poort
Ġbaal ke
ĠÃ²fw ieken
Ġpu blik
uif d
gew as
gew eld
gew one
Ġkar re
Ġrommel pot
ĠVis p
ĠVis maart
ĠSm Ã¶rgens
Ġnek vel
Ġond udelk
umm egen
Ġopst oken
Ġopst appen
Ġopst uurd
Ġvaal g
Ġvaal k
Ġtaauw ke
ĠstÃ¶rm lanteern
Ġind ustrie
Ġschiet boudel
Ġdeurgoan de
Sm irregs
Ġste eke
Ġlevens vroagen
Ġ194 3
Ġ194 7
Ġ194 8
EL D
bren gst
Ġroak ten
Ġspiek erd
Ġverstand eg
Ġboan tjes
Ġbaauw den
Ġbaauw vakkers
Ġversw ient
Ġverkl oard
Ġkontr aain
Ġvrundelk er
ĠY ork
Ġschuld gevuil
Ġfeber woari
Ġverjoardag s
Fr an
Ġpuut holder
Ġmiddel aiwen
Ġmotor rieders
Ġkepot te
Ġkepot jes
ĠWest f
ĠAd vent
Ġho sp
Ġstam men
Ġpet ries
Ġsport ief
speul ers
Ġhoger op
Ġlol leg
Ġopdr aaien
Ġhart man
ĠVrij dag
mien westerkwartier
Ġgn ees
Ġopv ud
Ġrit je
ĠMag st
Ġbraid oet
Ġknup de
ym risch
Ġhoan ebieter
Ġbot ten
ĠbÃ¨l kt
Ġpap pe
Ġve enk
ĠSpr eken
Mainst ekaans
orm andiÃ«
ĠLen a
ĠLen stra
wil lekeureg
Ġhiel p
Ġspoor brug
Ġtwijd oezendt
Ġvieven twinteg
Ġbundel tje
Ger rie
Vl inder
Zun ner
jebl oumen
Ġstop licht
Ġpiep te
Ġwoarsch aauwt
Ġeerd beven
Ġbi oloog
Ġget ugen
Ġlo open
Ġlo zeghaid
ats ion
sche id
Ġ196 9
ĠvÃ¶r ken
Ġkoren velden
Ġjuf frouw
ĠEngel stoalege
air o
Ġmat te
ation al
Ġverzoam elde
Ġgeboorte streek
ON D
laid schriever
Ġmilj eu
Ġkeb of
verainen s
ĠEd uard
ĠSchr ijvers
Ġmist r
verb od
ĠBet oal
Ġbejoarden wonen
Ġzuver e
Ġbestuur ders
ron ingen
Ġschoam de
zied s
zied ege
Ġsig r
Ġgest Ã¬n
ys otsk
Ġteg oud
Ġdec or
Ġopb eld
Ġverbie stern
Ġsleudel tje
ĠEp penhoezen
Ap pels
Ġsuper maarkt
Ġweerde vol
Ġpaas den
ĠJeu dse
Ġdrup pels
Ġvolg ers
ĠHe ijn
ĠHom me
ĠMooi broek
Ġvertel ster
ĠSlim misloeri
stuk jes
ĠbÃ¶l k
Ġpoest te
Ġschaarm ke
Ġoetv oeren
ĠVert elde
ĠTille moa
Ġstroal tje
ĠsmÃ¶rgens vro
Ġmai slaand
Ġrom an
ebl oug
Ġvertoalen s
Ġoard bevens
elek o
Ġlok oatsie
Ġstroek elnd
Ġgener oatie
Ġkikker laand
Ġkikker rit
Ġvers ierd
Ġelekt ron
Ġ199 4
ĠFrank furt
OO M
Ġzig st
Ġkaar zen
Ġpart y
Ġpart ijen
Ġaanl angd
Ġverpl egen
Ġstroalen de
Ġbeloof den
Ġbank reken
Ġinf or
Ġveurnoam elk
Ġoverb oord
Ġbranden de
Ġnoad loos
Ġverrazzen d
Ġamper an
Ġwup te
Ġmand ar
Ġgeest elke
Ġsleu pen
Ġvergeet achteg
Ġgriep t
Ġbril leg
Ġ197 9
Ġtit els
Ġsje vveur
okk ege
Ġvervolg de
ĠWaar st
ĠMin sk
Ġknap pe
Ġtap ijt
Ġkoor lid
ĠBart eld
Ġswem boksem
Ġmaist ied
Ġmaist tied
Ġhup zelen
Ġvann ommerdag
ĠItal ioanse
ĠItal ioans
ĠRem ko
brand t
Eer lieks
Sw ait
Ġrabb eln
ĠKan ade
ĠVaaier hoezen
Ġspin r
Ġwaitenschop pers
Ġsukker baiten
beg un
beg repen
haar fst
Ġma jesteit
Ġzand weg
verl oren
Ġke i
Ġbood schap
Ġbood schappen
Ġlap kes
ett i
Ġoph uil
Ġgramm ieterg
ĠMer as
ĠRe inder
Joh n
bet oalen
Ġlaam pen
Ġpat r
Ġverpleeg huus
ĠBon te
Ġontst onden
Ġmishot tjet
zai kte
Ġhikh akken
ĠzÃ¶ch st
Ġgier t
Ġgier den
Ġgrai md
ĠMidwinter tied
ĠMidwinter sdoagen
Ġzulver pepier
Ġvred ege
Ġkruus ke
Ġbegel aaid
heufd daip
mak er
Ġna o
Ġneg atieve
Ġoef end
ator ium
Ġse izoen
Ġmiemer oatsies
ĠZiel hoes
ĠItoal ioans
Ġknop kes
Ġappar oat
Alle wel
ĠFran sen
ĠFran Ã§
Ġspieker boksem
Ġhoorn t
Ġkolen boer
stell ers
ĠVek aansie
ĠVeenk elon
Ġkool zoad
Ġtemin zen
genoot schop
Ġomr oupen
Ġdeurlopen d
ĠÃ²fl opt
Ġ193 7
oller schaauw
ĠGriep stroa
Ġoverst appen
Ġaarger de
Ġmesschain s
Ġsol o
Ġstoe ver
Ġverve eld
Ġsputter t
ĠIS BN
ĠKlaain zeun
ĠInd ia
Ġvergoader d
vez el
Ġwoensdag middag
ĠHa vvelk
Ġsnap de
ĠSwien epar
ĠStric kers
Ġnuchter e
Ġpsych oloog
Zuk swat
lok oal
Ġwaaien de
Ġsimpel e
Ġstaai ger
Ġromm elt
ĠSj ak
ĠSj akkie
ĠTou komst
ĠRen Ã©
Ġachterloaten d
Ġonbeg oanboar
Bek iek
get ieden
uct eur
Ġmak kel
Ġtuut aai
Ġkeun k
Ġboa zeg
Ġboes kool
Ġsoc ial
iens ap
Ġbiester boan
ĠWA T
ĠWadden zee
Ġzogenoam d
Ã¶d se
Ġtrad itie
Ġcar avans
Ġriem ke
ĠkÃ¶rf ke
Ġkurz isten
KK ER
Tw ee
Ġboe zer
ĠKeunen k
Ġvaaileghaid s
Ġscoot ers
Ond aanks
Sun ter
Ġkuzzen s
Ġserv ic
Ġpens ioun
Ġveurst elde
Ġoetw ozzen
ĠLit ouwen
ĠEs bÃ¶rg
ĠEs sent
Ġuutv onden
Ġuutv oeren
ĠCan ade
ĠCan ada
Gron inger
Klaain e
ĠVeenkolon ioals
Ġwin noar
Ġhit te
Ġluud sprekers
Ġopkl anderd
Ġveurb oat
Ġveurber aaid
Ġbiev Ã¶bbeld
Ġongem akkelk
Ġdeurbr oak
Ġbrullen d
Ġkoff er
ĠÃ´ f
Ġtyp isch
Ġtyp erend
Ġsub iet
Ġveurd ast
Ġveurd aileg
ĠHong ar
ĠDoll erd
ĠNIJ S
gron inger
Ġcoron atied
Lai verd
jek ten
Ġtoest and
Ġhop elk
ĠHov ing
Ġgesp utter
ĠZu der
Ġtrakt aaierd
Ġachterste veuren
Ġgoande weg
Ġvrijwilleg er
Ġnegentien de
ĠÃ¡ Ã¡l
Ġdon ders
Ġwoa zege
Ġkab ben
ikant eghaid
ĠHand vest
Ġallem achteg
sentr um
ĠluzivÃ¨r s
ĠÃ²fh ankelk
Ġallern oast
Ġallern oarst
Ġslootsw ale
Ġambul anc
Fl aauw
docht ers
onstr oatsie
Ġstinken de
Ġkrok ed
Ġswim boksem
ĠMiddel ne
Ġheule moal
Ġpopul air
Ġpopul aire
ĠMiemer n
Welk om
imen oade
Ġwoest ijn
Ġzeld zoam
Ġzeld zoame
Ġkalk oun
Ġlaat ste
Ġsec onde
Ġped oalen
Ġpup kes
ĠBal kenende
ĠBaarg hoes
Ġdeursl oken
ĠIr an
ĠRond je
Ġkopschr aben
Ġuutl angd
Ġmenneg ain
Ġcond ucteur
Ġbegroot te
Ġbeschr eef
Ġpols stok
Ġvergrai md
Ġautor ieden
ĠZwits erland
ĠzÃ³l st
Ġglinster den
Ġglinstern de
Ġwielren ner
Recht s
doal der
hong er
Ġtud elt
Ġbarr ebie
elst eertjes
ĠSM S
rest aurant
ĠAN WB
Ġspinne web
Ġtoug ankelk
Ġtri omfantelk
Ġsmeek te
Ġverdikke me
Ġvergl ieken
ĠflÃ² iten
Ġplez ier
AIK U
ĠPekelder heufddaip
Ġgliml ach
Ġromant isch
Ġrezel v
Bos schoppen
Go imÃ¶rgen
Mens ken
Pers ies
sle pen
zeuven teg
Ġoad el
Ġoaren d
Ġob st
Ġpes jenten
Ġpaf ke
ebe is
Ġienr icht
Ġonw izze
ĠvrÃ¶ mde
ĠBot jes
Ġgrinn ekte
ĠMeert moand
Ġledik aant
ĠÃ²fraais d
Ġgebeurten izzen
Ġiepen kriet
ĠInst agram
Ġverkaizen s
Ġmoane schien
Ġgoldjebl oumen
Ġgoldjebl oum
Ġeksk uus
Ġdial ekt
ĠMex icoanse
Duut sland
Ko elkaast
gerd ienen
rap ad
Ġnem st
Ġtab ak
Ġootje zegger
Ġaks Ã¬nt
Ġlank zoam
Ġsur veill
Ġsoll is
Ġpant ovvels
Ġmiezulm s
ĠMok umer
ĠKikker polder
Ġfoet erde
ĠJant iena
Ġspoul kom
ĠTem po
Ġproc es
Ġstilleg haaid
ĠVerst ommeld
ĠIntern et
ĠVrund schop
Ġherken boar
Ġdreumer g
Ġther oap
Ġdeugen nait
Ġvergroot glas
ĠOldamb ster
Ġopvatten s
Ġsplinter nije
Ġdownl oaden
Gerd a
Kob a
Ġduud elk
Ġmoorden oar
ĠDunder dag
ĠklÃ² pte
ĠOnd anks
ĠRon ald
Ġcomb in
Ġfietsp oaden
Ġbestud aaierde
ĠPro bleem
Ġbehand eld
ĠBeat les
ĠrÃ¶tz ood
Ġonverschil leg
Ġmeugel ke
Verdikke mie
Ġtorenk lok
Ġainspaan jer
Lies je
Ma uchie
Regel moateg
Vern uver
Winsch oot
boat ster
vlek ken
vari ant
Ġdoa vert
Ġzeb rapad
Ġzogez egd
Ġlich oam
Ġsiren es
Ġingen ieur
Ġinvl ouden
Ġraag de
Ġverinne weerd
ikl oas
Ġbesnij de
ĠBee Gee
ĠBere steyn
ĠSant a
Ġdrekst oup
Ġkren gen
Ġdiep vries
ĠRad boud
Ġstrop akken
Ġrepar eren
Ġglieb oane
Ġherhoal t
Scheem de
Ġoord opkes
ĠBrus sel
Kroug holder
Ġnow here
Ġfrikand ellen
Ġmoeil ek
Ġalleriezelk st
Ġtheeschud deltjes
ĠÃĴ l
ĠEgbert s
Ġjubel eum
Ġaanpeerdje d
Timmer man
mÃ¼h l
Ã¥ ngs
Ġtalen ten
Ġhi Ã©r
ĠhÃ¶l p
Ġkul kouk
ĠlÃ¨l ke
Ġvanneu den
Ġjub ileum
Ġmiel Ã¶s
Ġbesn uvveld
Ġoetlaag d
ĠBa zel
ĠZonder man
ĠPir ahÃ£
ĠLay la
Ġtoek omst
Ġtrammel ant
Ġkoekel oeren
Ġsnieb onen
Ġgedoan te
ĠCeres ka
Ġbedrie veghaid
ivid udu
Ġsjek kie
Ġopzoad eld
gloepen dste
Ġoverliedens bericht
ĠAustroal iÃ«
MO I
Mich ael
mek ander
yen oord
Åĳ nig
Ġmop pert
Ġkand id
Ġleng te
Ġrekker tje
ĠHev eskes
Ġwelbeh oagen
ĠMÃ¼n ster
ĠKorn elis
ĠOter dom
ĠPvd A
Ġprizzent oatsie
ĠRaait daip
ĠRiem ke
Ġkerkt oren
Ġmeelk oekjes
ankstel le
Ġgehandic apt
Ġtenm innent
ĠBevr ijden
ĠBenne wolle
Ġcomment aar
ĠFiveling o
ĠLammet inus
ĠTopDutch ke
Well icht
Werk man
presiden t
Ġniem and
ĠwÃ²ns dag
Ġtureluur s
Ġsoorte ment
sterachter weg
ĠVod afone
ĠVeel erveen
ĠPatten burg
ĠROL AND
Ġcoun tr
Ġbetaik nis
ĠSchÃ¼t zenf
Ġgevoulen s
ĠBront sema
Ġpleverk ouk
ĠKnapper tjes
Ġstreektoalproat ers
ĠHavvelk oar
Ġbarrebie sies
ĠBeeGee Haa
' d
) !
) ?
. -
. ),
0 3
0 5
4 8
5 3
5 00
6 3
: âĢĻ
: ..
A V
A ing
A arb
B i
B et
B ad
B oas
B leek
B ord
B ianca
B etoal
B edenk
B liekboar
C C
C T
C omp
C ha
C irkel
D D
D u
D om
D is
D ingen
D aif
D ooie
D onker
D oames
D uvels
D omme
D irkjan
E de
E ul
E igen
E chte
E VEN
F rit
F ebriek
F ijne
G oe
G as
G ar
G ier
G ert
G liek
G olden
H O
H op
H ong
H eren
H oop
H oi
H aha
H OALEN
I C
I T
I AN
I ST
J oar
J ac
J oppie
J immy
K ee
K il
K Ã¬n
K amp
K olle
K ook
K unnen
K eudel
K unst
K riegen
L eu
L eren
L eef
L ud
L opt
L uit
L oader
L EN
L amme
L euk
L aiw
L izan
L udo
M oes
M oezen
M ama
M aandblad
M eleur
M oanden
N A
N a
N ek
N ummer
N ah
N ST
N IJ
N oatuur
O me
P R
P eerd
P annen
P ass
P IE
P oei
R u
R ie
R ad
R oep
R ev
R emmer
R obbie
R oege
S H
S K
S old
S oep
S uper
S uze
S imon
S umtieds
S oldoat
T on
T oe
T oon
T iene
T illefoon
T rix
U L
U W
U n
U w
V oa
V ers
V remd
W ast
W est
W aain
W ir
W ost
W aarken
W onen
W ichtje
W oensdag
W astoe
W odan
W illy
W ubbo
Y ou
Y ork
Z u
Z ij
Z iet
Z omor
a es
a les
a ziel
b s
b eer
b oe
b aai
b oor
b eren
b eek
b aang
b oel
b aaide
b aks
b ootje
b uuk
b odem
c or
c ok
c ar
c kt
c ere
c ember
c aravan
c entroale
c ules
d w
d oa
d an
d izze
d aarm
d aaiern
d uvel
f in
f it
f ig
f les
f iel
f ulie
g s
g ait
g aan
g aanse
g oidag
h it
h or
h ui
h ak
h ode
h aart
h ogen
h ekken
h onden
h aail
h ttp
h oareg
h uzen
h ibbel
i i
i at
i am
i re
i aal
i ool
j eugd
j onken
j onge
j euden
j egast
k or
k innen
k us
k oren
k ans
k olen
k ikker
k aamp
k oarde
k ikkers
k lup
k orps
l eur
l on
l ain
l ang
l ink
l of
l uuster
l uip
l agen
l oten
l ich
l angen
l igt
l ogen
l uipen
l ette
l apke
l etter
l oantje
m ai
m ke
m ant
m ed
m ast
m ug
m os
m out
m ainst
m elden
m eter
m ins
m Ã¶rgens
m ars
m uts
m Ã¬nsen
m ament
n oag
n ne
n hoes
n daal
n aaiern
n aiten
o ert
p ek
p oe
p ieken
p ool
p oep
p ages
r t
r um
r id
r aande
r onde
r ais
r abb
r isten
r opper
s st
s ap
s um
s ong
s oezen
s oep
s centrum
s gebaauw
s gevuil
s ite
t i
t ak
t onen
t uzzen
t mÃ¼hl
u veld
u ele
u age
v oa
v em
v old
v oel
v ubbeld
v eger
w t
w al
w aren
w ang
w es
w ieken
w illen
w onnen
w ale
w rit
w ierde
y r
y den
z aal
z ig
z eren
z zie
z uit
z olen
z ere
z iers
Ã Ł
É ¨
Ġ ?âĢĻ
Ġ ?âĢĿ,
Ġ oans
Ġ oaders
Ġ !!!!
en den
en te
er der
er een
er zooi
Ġd egen
Ġd ege
Ġd onk
Ġd iv
Ġd waar
Ġd anger
Ġd ainder
Ġd Ã¶rms
Ġd oodt
oa ien
oa bers
oa bÃ¶rg
Ġn en
Ġn ien
Ġn ip
Ġn eger
Ġn edde
Ġn avvel
Ġn oorder
ai men
ai kt
ai kte
ai gend
Ġw ou
Ġw ot
Ġw aai
Ġw aand
Ġw oog
Ġw ogen
Ġw rief
Ġw oagde
Ġw appert
an en
an ke
an gens
Ġv al
Ġv ing
Ġv uut
Ġv Ã¬n
Ġv eerd
Ġv eert
Ġv akken
Ġv oort
Ġv aail
Ġv ulde
Ġv Ã©r
Ġv eertje
Ġv Ã²llen
Ġv oandel
ie le
ie veld
ie gende
Ġm oor
Ġm ud
Ġm olle
Ġm ilie
Ġm aauwe
Ġm uzzen
Ġm atten
Ġm Ã¶zzen
Ġm udde
Ġm otterde
Ġt al
Ġt ing
Ġt is
Ġt eken
Ġt ast
Ġt oavend
Ġt appen
Ġt Ã³
Ġt apt
Ġt oppen
Ġt oart
Ġt red
Ġt eut
Ġt uurde
Ġt itten
Ġt ild
Ġt att
Ġo le
Ġo zzen
Ġo ur
Ġo ep
Ġo oie
Ġo vver
Ġh as
Ġh oo
Ġh ant
Ġh ink
Ġh ob
Ġh alen
Ġh euf
Ġh oanen
Ġh oort
Ġh utje
Ġh Ã²r
Ġh Ã²llen
Ġh uvven
Ġh bs
Ġz a
Ġz eur
Ġz open
Ġz ink
Ġz oage
Ġz achter
Ġz aais
Ġz gn
Ġk ee
Ġk ers
Ġk oaken
Ġk eerd
Ġk ieren
Ġk isten
Ġk ammen
Ġk aauwt
Ġk oakeln
Ġk orps
Ġk oatseb
st oer
st ille
st okje
st repen
st ippen
st ovven
st apke
st orm
st Ã¨llen
st ukje
st reekt
in f
Ġb h
Ġb y
Ġb eur
Ġb ait
Ġb il
Ġb ik
Ġb ig
Ġb ong
Ġb ast
Ġb azzen
Ġb ir
Ġb Ã¶rgen
Ġb ienen
Ġb eest
Ġb aanden
Ġb ais
Ġb rief
Ġb uzen
Ġb onkje
Ġb oge
Ġb ouwen
Ġb oeien
Ġb amb
Ġb ome
Ġb ukte
Ġb uizen
Ġb iggen
Ġb uiten
el y
el ieden
el ine
eu der
eu deg
eu gende
ch ip
ch oule
Ġg ai
Ġg or
Ġg ap
Ġg ig
Ġg oog
Ġg oaren
Ġg okken
Ġg und
Ġg aans
Ġg amm
Ġg oare
Ġg aail
Ġg are
Ġg Ã¶rt
Ġg avven
Ġg oude
Ġg ips
Ġg oien
Ġg obbel
Ġg aankje
Ġg adderd
at i
Ġen ten
Ġen ter
Ġen orm
oar iks
Ġl at
Ġl ier
Ġl im
Ġl oad
Ġl ander
Ġl ies
Ġl ekt
Ġl ekken
Ġl amme
Ġl abb
Ġl anc
Ġl inten
Ġl ije
Ġl azen
Ġl inde
Ġl uier
Ġl oantje
Ġl ater
Ġl aint
Ġl imenoade
eg oa
et or
et ied
et ische
it oat
it ster
it ske
it tern
it ect
Ġs en
Ġs ok
Ġs iek
Ġs eld
Ġs pen
Ġs ege
Ġs etje
Ġs ust
Ġs ikke
Ġs ikken
Ġs oest
Ġs yn
Ġs ax
Ġs auzen
Ġs yste
or ing
or enk
or idders
Ġvan g
Ġvan zulven
Ġvan zulvens
on es
on ate
on air
on aise
on stegel
ien es
ien gang
Ġde kt
Ġde ern
Ġde fteg
Ġde pre
ait e
om de
om ir
eer kes
Ġop m
Ġop ger
Ġop koamer
Ġop sm
Ġop komst
Ġop stand
Ġop slag
Ġop volg
Ġop leggen
Ġop lucht
Ġop zeggen
Ġop goave
Ġop noames
Ġop vlaigers
Ġop hemmeln
der eg
ek amp
ain ers
ain ege
ain tjes
ain delk
den de
Ġst a
Ġst out
Ġst ool
Ġst elden
Ġst int
Ġst riep
Ġst ew
Ġst ovv
Ġst ald
Ġst eutje
Ġst oapels
Ġst oekte
Ġin sl
Ġin teg
Ġin kieken
Ġin zetten
Ġin grepen
ol ine
Ġp ok
Ġp ong
Ġp ieken
Ġp oen
Ġp oepen
Ġp ette
Ġp ompen
Ġp ess
Ġp ipper
Ġp aardij
Ġp ovverd
Ġp agina
Ġdat ve
gen t
gen is
gen ootje
ok oal
ok ko
Ġmit dee
Ġmit voaren
Ġmit proaten
Ġmit speulen
Ġmit kriegen
Ġmit waarkers
Ġmit nkanner
Ġaan hoalen
Ġaan stoan
Ġaan voaren
Ġaan broken
Ġaan vallen
Ġaan gezicht
oe zz
oe bad
aar n
aar ber
as c
Ġr eer
Ġr il
Ġr oat
Ġr ag
Ġr Ã¬
Ġr oer
Ġr ees
Ġr anden
Ġr uiken
Ġr und
Ġr ouken
Ġr oppen
Ġr iggel
Ġr Ã²g
Ġr impels
Ġj al
Ġj aauw
Ġj achteg
Ġj oegel
Ġj oint
og h
og ema
ven ant
ven ir
Ġe b
Ġe is
Ġe chter
Ġe ed
Ġe ske
Ġe vol
Ġe dele
Ġe zels
Ġder noar
Ġis lam
Ġver eren
Ġver onder
Ġver woar
Ġver moaken
Ġver leggen
Ġver gez
Ġver zegd
Ġver kommer
Ġver oordailen
aan ders
ot erd
ot if
Ġveur man
Ġveur blad
Ġveur kwam
Ġveur olders
Ġveur gangers
Ġveur schreven
il leg
il oatsie
il ioanse
uu ten
uu gt
Ġwas kel
Ġwas lien
Ġwas kniepers
Ġwas lapke
op v
op noames
op lÃ¶zzen
ver m
ver koop
ver laifd
Ġik ke
le man
un k
un ner
Ġdij e
Ġdij s
al ing
al isten
al oans
ar et
ar dess
ar omir
âĢĻ (
âĢĻ -
ik on
ik anten
Ġheur n
Ġheur s
Ġheur zÃ¶lf
oal der
oat ische
Ġsch oor
Ġsch oak
Ġsch of
Ġsch af
Ġsch ijn
Ġsch oater
Ġsch onden
Ġsch eurt
Ġsch elp
Ġsch uppen
Ġsch ichteg
Ġsch ietsbenaauwd
.. âĢĻ
Ġbie stoan
Ġien v
Ġien ter
Ġien ies
Ġien tussen
Ġien dertied
ĠW K
ĠW aai
ĠW ed
ĠW eke
ĠW eep
ĠW odder
ĠW enen
ĠW OL
ĠW opke
ĠW EL
ĠW IN
ĠW oeste
ĠW ebstee
zen dens
Ġzo ol
Ġzo zeer
Ġzo dound
Ġom s
Ġom mer
Ġom kommen
Ġom weg
Ġom mel
Ġom handen
Ġom baal
Ġom toald
Ġom trent
ĠG aai
ĠG oast
ĠG aiten
ĠG aaist
ĠG aanzen
ĠG riet
ĠH at
ĠH oar
ĠH ert
ĠH oaven
ĠH aaide
ĠH uver
ĠH och
ĠH ill
ĠH iem
ĠH inke
ĠH ommes
ĠH aalve
ĠH arregat
ĠH AAR
ĠH igh
Ġas nog
ĠD om
ĠD as
ĠD re
ĠD em
ĠD oagen
ĠD ust
ĠD oek
ĠD ic
ĠD ientje
ĠD oezend
ĠD OE
ĠD oav
ĠD omme
ĠD astoe
ĠD AG
Ġon g
Ġon woar
Ġon wies
Ġon gedureg
Ġon gez
Ġon willeg
Ġon besch
Ġon gesch
Ġon wis
Ġon griep
Ġon gezond
Ġon droag
aai zeger
Ġmie gen
Ġmie jong
Ġvr ing
Ġvr aag
Ġvr uzz
oan es
oan stied
ag eb
ag ist
ag nie
Ġal arm
Ã¶ per
Ã¶ kken
Ġbe ders
Ġbe volk
Ġbe sproken
ten de
Ġge ver
Ġge men
Ġge vel
Ġge me
Ġge schr
Ġge slacht
Ġge Ã¯n
Ġge isha
Ġof k
Ġof sp
Ġof dailen
Ġof levern
Ġof vroagen
Ġof rekend
Ġof gemieterd
men u
Ġoet h
Ġoet je
Ġoet spr
Ġoet leven
Ġoet zetten
Ġoet dailen
Ġoet best
Ġoet vlogen
Ġoet bloazen
Ġoet groaven
iek jes
iek oaters
aauw den
oo hoo
ĠB eu
ĠB ok
ĠB aauw
ĠB ad
ĠB Ã¶r
ĠB ond
ĠB Ã¬n
ĠB oel
ĠB omen
ĠB oom
ĠB aist
ĠB oksem
ĠB IE
ĠB aaident
ĠB unen
ĠB uurman
ĠB undels
ĠB abel
ĠB illy
ĠB liekt
ĠB uist
ĠS e
ĠS at
ĠS eb
ĠS ter
ĠS ig
ĠS me
ĠS ic
ĠS oest
ĠS iem
ĠS enn
ĠS ina
ĠS oldoat
ĠS alom
ĠS OV
ĠS KV
ĠS ibolt
ul lie
Ġhaar ve
Ġgr in
Ġgr and
Ġgr es
Ġgr achten
Ġgr Ã¶t
Ġgr ollen
Ġgr uun
Ġgr ovve
Ġweer geven
Ġweer stoan
Ġweer zain
ĠM uur
ĠM aal
ĠM ug
ĠM ale
ĠM oby
ĠM ill
ĠM insch
ĠM ieg
ĠM ainste
ĠM oeder
ĠM uziek
ĠM uuns
ĠM oandag
ĠM odel
ĠM ouder
ĠM aandblad
ĠM edia
ĠM emor
re id
re euw
ier ten
Ġwie ske
Ġwie bel
Ġwie ler
Ġover ge
Ġover sp
Ġover haid
Ġover nijs
Ġover zicht
Ġover vl
Ġover doan
Ġover mÃ¶rn
Ġover kaante
Ġover goave
Ġover ainkomst
Ġover groot
sch ot
sch iet
sch ienen
sch oeven
sch uldeg
ing le
ing sp
te m
te st
te ek
ĠK ot
ĠK oud
ĠK Ã¬n
ĠK est
ĠK old
ĠK euze
ĠK oater
ĠK aans
ĠK ool
ĠK wat
ĠK adde
ĠK oll
ĠK iender
ĠK ikkers
ĠK IN
ĠK ÃĸR
ĠK ymrisch
ĠK airo
ĠK Åĳnig
Ġaal weer
Ġaal temoal
Ġdeur zicht
Ġdeur zet
Ġdeur ging
Ġdeur nander
Ġwe cken
Ġwe inig
Ġheb zucht
ze dde
ĠV eg
ĠV ak
ĠV rie
ĠV ic
ĠV elt
ĠV oart
ĠV aaileg
ĠV oele
ĠV adder
ĠV VD
ĠV alent
ĠV riese
Ġhom zulm
egen t
egen teg
egen woord
rie pelke
ge vers
ter ie
ter ziel
ad or
Ġbl innen
Ġbl aank
Ġbl uis
Ġbl onken
Ġbl okk
Ġle w
Ġle dem
Ġle dek
Ġle peltje
Ġkom me
Ġkom pl
Ġf et
Ġf it
Ġf rie
Ġf ed
Ġf erd
Ġf aiten
Ġf oeken
Ġf eit
Ġf erm
Ġf ijne
Ik zulf
ĠJ acht
ĠJ oagen
ĠJ uust
Ġain lieks
Ġdou st
Ġdou ane
Ġdou kje
ĠA F
ĠA ner
ĠA zie
ĠA ca
ĠA frikoa
... ?'
... ?âĢĻ
elk amp
Ã¶r ven
Ġmo stoe
Ġkw oader
Ġkw asten
em el
em eerden
em arken
uur tje
Ġkl ot
Ġkl ier
Ġkl ink
Ġkl achten
Ġkl uus
Ġkl ikt
Ġkl oaren
Ġkl aiden
Ġkl uske
Ġkl Ã¶zzen
Ġkl oagd
Ġkl eumen
Ġkl opde
oes ke
Ġbo zzel
us en
us ief
Ġdr op
Ġdr ama
Ġdr ubbel
Ġdr utjen
ĠN I
ĠN ar
ĠN ies
ĠN ep
ĠN atuur
ĠN oapels
eul n
aal ken
aal moal
ĠO de
ĠO am
ĠO ad
ĠO ud
ĠO ele
ĠO ale
ĠO terd
ĠO VER
ĠO zeoan
Ġsl ie
Ġsl ee
Ġsl iet
Ġsl ode
Ġsl of
Ġsl oep
Ġsl ankje
Ġsl oept
Ġbinnen b
Ġbinnen komen
uk s
uk ker
uk sie
is eerd
is oatsie
Ġbr ag
Ġbr oes
Ġbr oer
Ġbr omm
Ġbr illen
Ġbr aken
Ġwor sten
Ġwor ld
Ġsp e
Ġsp il
Ġsp oan
Ġsp ant
Ġsp ell
Ġsp oit
Ġzee stoe
Ġzee Ã«n
Ġzee diek
ĠZ ok
ĠZ oaken
ĠZ ingen
ĠZ uver
Ġdin s
aand acht
ĠT oavel
ĠT wen
ĠT egel
ĠT our
ĠT ON
ĠT OAL
ĠT urk
ĠT ebeis
ĠT ankstelle
Ġkon front
Ġtou lopen
Ġtou keken
Ġtou ging
Ġtou holdt
Ġtou liekt
Ġtou standen
ĠP U
ĠP Ã©
ĠP eerde
ĠP ale
ĠP akte
ĠP olling
ĠP esj
ĠP ankouk
ĠGr en
ĠGr ai
ĠGr oag
ĠGr ood
ĠGr uit
ĠGr aauwe
ĠGr ieks
ĠGr ube
ĠGr outnis
ĠGr iekse
ĠGr aikenlaand
ap s
ap de
ap eut
Ġai r
Ġkr u
Ġkr ingen
Ġkr amp
Ġkr aacht
Ġkr oanen
Ġkr ub
Ġkr umm
Ġkr ompen
Ġkr eunde
Ġkr aandel
sen ten
sen hoezen
ond it
ond haid
Ã² k
Ġja zz
Ġwoar um
Ġwoar aarns
ĠL il
ĠL Ã¶
ĠL oo
ĠL id
ĠL os
ĠL uit
ĠL een
ĠL ammer
ĠL oos
ĠL ib
ĠL OA
ĠL ara
ĠL euk
ĠL etter
Ġto om
âĢľ âĢľ
els n
Ġgoud haid
ĠI st
ĠI ren
ĠI dee
Ġzeg ebok
Ġjoar ege
Ġjoar lekse
ne der
Ġdie pe
Ġpr il
Ġpr ak
Ġpr ut
Ġpr etje
Ġpr ikt
Ġpr inter
Ġpr aaien
Ġpr ont
Ġpr oest
Ġpr ins
Ġpr omenade
Ġpr incip
Ġpr inses
Ġtr oef
Ġtr app
Ġtr oane
Ġtr ogr
Ġtr akte
Ġtr ommelde
Ġtr abbe
Ġtr oonde
Ġnoa it
Ġnoa dert
Ġnoa denk
Ġnoa drok
ur kje
Ã¬n ne
oot sies
Ġbeg even
Ġol ief
Ġol joarsdag
ĠR oar
ĠR eur
ĠR as
ĠR og
ĠR un
ĠR ui
ĠR es
ĠR opt
ĠR oos
ĠR eden
ĠR obb
ĠR oute
ĠR uy
ĠR asters
ĠR aaizeger
Ã²f stand
im uur
im um
im oand
ang h
ang de
Ġwil gen
Ġwil leg
iz abeth
iks plinter
iks iekoaters
Ġloat je
Ġloat ste
ed ders
ed otes
Ġvot r
Ġvot komt
Ġvot ging
Ġvot joagen
Ġvot stopt
Ġpl a
Ġpl azzen
Ġpl oage
Ġpl oade
Ġpl azze
Ġachter Ã¬nde
Ġachter poten
id d
Mor zo
Ġeer bet
Ġeer guster
Ġkop ie
Ġkop pies
ĠÃ²f goan
ĠÃ²f slag
ĠÃ²f kn
ĠÃ²f vroag
ĠÃ²f speulen
ĠÃ²f speuld
Ġtegen sp
Ġtegen swoord
ĠE erde
ĠE arle
Ġzol s
Ġzol ler
Ġtw oal
Ġtw aalm
Ġhoes daaier
Ġhier over
Ġhier noa
Ġvol st
Ġvol oet
Ġvol mond
Ġ( =
Ġstr en
Ġstr om
es p
Ġter ziede
Ġter epie
bb els
Ġnij bakken
aank te
Ġvraauw spersoon
oad eloos
dr ij
dr iek
dr ift
dr aaid
oet st
oet gang
oet voeren
Ġvl o
Ġvl oagen
Ġvl akken
Ġvl onder
Ġvl okken
Ġvl ijd
Ġvl aggen
Ġvl intjes
Ġman k
Ġman ier
Ġman ager
Ġko de
Ġko okk
Ġko iern
ĠSt oul
ĠSt oef
ĠSt reek
ĠSt aaist
ĠSt amppot
Ġlai gt
eren de
Ġnet ten
Ġnet te
Ġnet zo
Ġonder ste
Ġonder haand
Ġonder dailen
oen s
sl ien
sl Ã¶t
sl achteg
sl achter
sl Ã¢n
sp ellen
De den
Ġdoe vet
eef sel
Ġker onoa
Ġtwij tal
Ġtwij persoons
Ġbin hoes
Ġuut d
Ġuut lopen
Ġuut spreken
Ġuut perb
Ġsn ip
Ġsn uuster
Ġsn appen
Ġsn aauwde
Ġsn Ã¶dde
Ġsn akte
Ġsn ipper
Ġsn okte
Ġsn obbeltje
As of
ĠF il
ĠF le
ĠF inner
ĠF ins
ĠF edde
ĠF ersoun
Ġkn oagen
Ġkn of
Ġkn alt
Ġkn eus
Ġkn utern
Ġmout ve
Ġmen nen
oop t
dag smÃ¶rgens
Ġhol le
ĠEn delk
ĠEn nem
ĠEn dje
Ġc v
Ġc as
Ġc ellen
Ġc ab
Ġc amper
Ġc ollege
Ġc entroale
Ġc ognac
Ġc oupl
Ġvert onen
ren nen
Ġmet nomen
Ġmet roos
Ġmet hode
Ġre vel
Ġre velt
Ġre joal
Ġre fraain
Ġre cher
Ġgeb ogen
Ġgeb oort
ouk je
ellen de
Ġzulf stand
Ġgel euv
Dou destieds
aain s
Ġwaark ers
Ġwaark nemer
Ġverh olden
Ġverh uzen
Ġverh eugde
oog st
oog sch
Ġgl oa
Ġgl eren
Ġgl uien
Op r
Ġsm s
Ġsm oes
Ġsm eerd
Ġsm ieteg
Ġsm oezel
gel open
gel eerde
Ġie gels
hoes holden
ent oal
ekt or
Ġaar ten
Ġaar men
Ġsw om
Ġsw aal
Ġsw eerd
Ġsw ieg
ud oa
ud ie
ud io
bie den
bie bel
Ġdik dakken
Ġbet ers
Ġbet oog
Ġbet oamt
bl ues
bl oume
ber re
ber haupt
Ġged ien
Ġged ounde
per n
per ience
ĠWas sing
Ġaigen ders
Ġaigen dom
Ġaigen zinneg
Ġaigen tliek
ĠSch at
ĠSch uit
ĠSch ort
ĠSch lemmer
ĠSch oorl
Ġkrie w
ĠC ry
ĠC la
ĠC roeze
ĠC omputer
ĠC enter
ĠC aes
Ġfiet sten
Ġfiet sk
af f
eln ee
br on
br og
br ekt
Ġben ijen
Ġben zin
Ġben uimd
Ġbest r
Ġbest oa
Ġbest uren
Ġbest elt
Ġdai pen
Ġgew in
Ġgew eren
Ġgew azzen
Ġgew ichten
Ġgew eest
Ġgen re
Ġgen otter
Ġgen iep
gr eep
gr aauwe
lu tje
Ġzet el
Ġzel ve
Ġzel stoe
lek oal
lek haid
leg de
leg ger
ijn ders
vr ees
Ġzw eer
Ġzw im
Ġzw aarten
Ġzw ieg
Ġme in
Ġgez ag
Ġgez innen
Ġel fkes
Ġbed acht
Ġbed ochde
Ġbed uild
Ġbed uusd
Ġgev oaren
Ġhar regat
Ġboven koamer
Ġwaiten schappers
be c
be haalve
Ġpa ole
Ġap septeren
aant ou
ĠKl underloa
Ġgroot ollen
me ier
deg r
Ġboeten landse
Ġboeten mod
Ġ20 23
pl aai
Ġhem mel
Ġdicht waark
ep el
del ingen
Ġuur waark
aif de
ank riek
Ġwereld kampioen
Ġwereld beroemd
Ġrond kieken
art ie
art iest
art ikel
Ġneu men
Ġneu md
Ġneu troal
Ġdrij honderd
Ġdrij entwinteg
Ġlaank uut
Ġverd uren
Ġverd ienen
Ġverd reven
Ġverd rieven
Ġverd aarf
Ġverd uveld
tr ommel
tr abbe
sw ientje
Ġelk aar
ĠVer n
ĠVer kn
Ġschr aai
Ġschr oapen
Ġmekoar s
Ġwotter g
Ġwotter laaiden
amp ke
amp oo
ĠIn tied
Ġverg oaren
Ġkinder tied
Ġkinder joaren
bel asten
kl as
kl oot
kl aain
kl azze
kl opke
Ã¨n st
hol tje
Ġbez Ã¶rgen
Ġbez under
Ġbez ine
Ġspr euk
Ġspr ookje
Ġspr inkhoan
omm irregs
eun ie
Ġkovv ietied
kt ober
Ġverl angens
Ġont lopen
Ġont sloagen
Ġont hollen
Ġont gaait
ĠBl oem
Ġwui den
Ġwui ven
oap eln
Ġbek eren
Ġbek ieks
ic q
ic atie
Ġleu tjen
omp eg
he ad
joar de
joar den
Ġpak ten
Ġbew oaken
Ġbew oond
Ġbew oner
Ien ains
eem s
oater ij
Ġro ip
Ġro vers
Ġ19 19
Ġ19 30
Ġ19 29
ĠKr oan
ĠKr acht
ĠKr oon
ĠKr ekt
ĠKr amer
ĠKr ish
Ġklaain tjes
Ġklaain dochters
Ġverk ochde
Ġverk Ã²cht
ost oul
Ġlag den
Ġproaten d
elt oaten
Ġkloar d
Ġkloar wakker
Ġlaang zoam
Ġmag ne
Ġmag gelde
Ġbouk handel
Ġlicht moan
Ġwaarm s
Ġwaarm wotter
kr euze
kr igt
euren d
Ġverb ond
Ġverb oas
Ġverb ilderde
Ġverb indt
Ġverb olderd
St oa
St eur
St ik
St uur
St oet
St Ã¨l
St ientje
St aaist
St ichting
St aarke
St reektoal
eep ot
Ġfl oit
Ġfl Ã¨zze
Ġwoon keuken
Ġlekker der
Ġversch ien
Ġstuk kewat
pr om
pr inter
vol gens
ĠVr ije
ĠAn t
ĠAn nel
Al ina
Ġken oalen
oom s
Ġthoes komst
Ġthoes komt
Ġthoes brengen
ĠU n
Ġproat s
Ġproat st
Ġliek st
Ġgewoon tes
ĠFr et
ĠFr itz
ĠFr aankriek
een s
kel aaien
kel mannechie
ĠNeder lander
Ġkoamer deur
Ġhaalf d
Ġhaalf maal
oem t
Ġkerk dainsten
Noa men
sem ble
Din ie
oapen d
Ġnui gend
Ġkeu t
Ġkeu del
Ġkeu deld
ĠGed ichtje
ouw de
akt iek
Ġgrond schoul
Ġher eboer
Ġber ekend
Ġber ichie
Ġber oemd
weg ing
Ġzeker heden
Ġvast hollen
Ġvast griepen
ĠOl af
Ġrecht ers
Ġwied kieker
aans ietied
sk y
sk oarten
Ġrie men
Ġrie pke
Ġrie mt
iend in
ĠTr Ã¥ngs
Ġvrij heid
Ġvrij will
Ġmeziek oal
Ġmeziek ant
Ġmeziek anten
Ġreg elt
Ġreg elen
Ġreg isters
Ġverst on
Ġverst uren
Ġverst rieken
Ġverst ainde
ĠMar c
ĠMar kt
Ġmot tjede
ĠWie be
Ġverw iezen
Ġverw ilderd
Ġverw onnerd
Ġgem aakt
ĠVan oet
ĠVan of
Ġmis d
Ġmis k
Ġbleef st
Ain zoam
riek ste
Ġloop ke
Ġloop loan
Ġloop plaank
aam be
Ġbos jes
Ġjonge man
Ġstok ske
ĠWoar veur
Ġonner tied
Ġonner oet
Ġonner kaant
doad eghaid
Ġbrui r
Om mel
Ã³ f
Ã³ g
Ġ3 000
Gr oag
Gr ote
Sch ud
Sch enk
Sch oapen
over haid
over kaande
over last
veur stellen
Ġgek r
Ġgek w
Ġgek ken
Ġred akt
Ġred dern
Ġred actie
Ã« rs
ĠBr u
ĠBr il
ĠBr oes
ĠBr ug
Ġgeliek noam
ĠEl ekt
ĠEl izabeth
Vr oagen
Vr umd
Ġkat h
Ġkat hol
arr elt
ĠbÃ¨r stee
Ġlaag st
Ġbuur wichtje
ont jet
Ġvie vers
ĠAl tev
ĠAl mere
ĠAl tmÃ¼hl
Ġkerst mis
Ġkerst bomen
ev izie
Ġvolk st
Ġstroat lanteern
Ġmoan licht
ĠWester b
Ġstem ke
Ġstem buro
Ġverdr oag
Ġverdr inken
Ġkerel achteg
Ver st
Ver bie
Ver ainen
aksie s
ĠGer hardt
ĠNij ziel
ĠNij joars
ĠNij hoof
Ġgezicht je
ĠhÃ¬n neweer
Ġhuus koamer
Ġbegr oet
Ġraai skes
Ġsnij t
Ġsnij stÃ¶rm
Jan nie
Ġlaifde s
ĠNederland stoalege
verd ikke
Ġhand elde
Ġhand ouken
Ġhand schrift
if eren
ĠDij stoe
inner n
Ġth o
Ġth erm
ietsie s
vl ug
Ġvlai gende
Ġbor reln
Ġverhoalen bundels
Ġaai de
ĠVeur bie
ĠVeur beeld
ĠVeur noam
Ġdud elek
ĠSp ort
ĠSp aigel
ĠSp ieker
ĠSp otif
Ġda or
oed eld
log e
ikk elde
Ġblou derge
bels e
nie terg
ĠDr ok
end om
Ġpot j
Ġluuster oar
Ġluuster oars
Ġspul le
Ġspul tjes
ikke duuster
Wel kent
Ġstad sm
Ġdudelk haid
Ġnacht br
Ġnacht hemd
Ġnacht kastje
ĠZo veul
Ġmens elk
ĠHou se
Ġvoader laand
Ġverdrait elk
Ġleef st
sm ond
sm irregs
ĠKn ien
ĠKn al
ĠKn elske
ged elk
app ie
Ġwinter sport
Ġhuil den
Ġhuil end
Hier noa
geb ieden
geb eurd
Ġwinkel tjes
Ġwinkel stroat
Ġpas sie
ion ische
Zie zo
uz er
Ġverz aail
Ġverz itten
pie pe
ĠJong kerel
ĠPr ik
ĠAm ina
Ġoog sten
Ġoog leden
zer laand
Ġnuver ste
Ġvis kerman
Kin ste
ga ster
Ġverv alen
Ġverv remd
Ġies boane
Ġtille fon
akke demie
Ġbesl oagen
Ġmainst ied
Ġ4 2
Ġ4 9
Ġzie de
Ġzie len
Ġsloapen de
lie der
Ġvaar ve
Ġwacht ers
Ġzummer vekaanzie
Ġschol ek
Ġschol lers
Ġgeh ak
Ġgeh ucht
Ġdeu pen
Ġgat jes
Ġschoon voar
ĠKom nij
Ġten tje
ass er
ijk smuseum
Ġverdw oalen
Aan tje
Ġgras h
Ġzul ke
Ġalle man
Ġalle doags
Ġalle doagse
odder dag
stoan der
Ġplietsie bero
val k
val bak
Ġket oen
Ġket tens
Ġ6 9
Ġvogel verainen
apper oaten
Ġvertelde st
vin dens
Ġgebr uu
Ġgebr oes
Ġgebr oken
Ġdeel valen
auw e
Ġkou s
Kr oep
Kr aanten
Kr Ã¶dde
sh uus
sh irt
ĠBe a
Ġboeren aarb
Ġboeren loanen
oabel e
ĠVl ak
ĠVl eugels
ĠVl inders
Ġhum eur
Ġvekaan sies
abb er
Ġkleur eg
Ġkleur rieke
Bl ad
Ġzundag mirreg
Kl euter
Ġdail s
Ġdail den
Ġriek sd
Ġreken de
Ġreken mesien
vert eld
vert ellen
Ġbouken winkel
Ġkwoad haid
Ġzunne stroalen
Ġgemain ten
oakel oar
Ġvern aggel
ĠPa sternak
Ġ9 7
Ġar re
An noa
Ġhoal den
achter deur
Ġherinner d
ĠGe volg
Ã¡ m
Ġhe i
Ġzaag s
Ġeerder e
onker n
kwam en
ĠGez inus
ket akt
Ġ8 2
Ġheu vel
20 20
20 19
Ġsj aauwde
Ġsj orren
Ġpien leke
Ġak kers
Ġak septeren
ĠVol ks
Ġbloud prikken
Ġpol ders
Ġpol lood
Ġpol terde
Over dag
ins onate
Ġopl oage
derd om
ĠWier inga
Ġholt s
Ġholt w
Ġholt kaggel
Ġpar keren
Ġander en
Ġvoetb aal
Ġverder e
ĠDen emarken
Ġstreektoal fun
Ġbegriepen d
Ġvoor bij
Haar der
oeg d
wen deg
Ġmoak ten
Ġheufd pries
Ġheufd persoon
ĠOn ver
Ġland elke
ĠAin moal
fr ied
fr ag
fst al
Aander doag
Onder weegs
Ġvergr oten
ib ald
AN T
Ġklok jes
Ġploats elk
Zol aank
Ġam bt
Ġbep pe
Ġbep aarkt
Ġpro z
Ġtem innen
ĠHer cules
Ġzukswat hÃ¬n
entr ale
ill on
ill etjes
Ġzaiken auto
angt ai
kn uut
kn ollen
kn ipper
ange s
Ġkoar te
Ġacht te
ĠNoa ber
Ġklas se
Ġklas genoten
Ġdonker n
Ġdonker broene
Ġstain febriek
Ġunder oet
Ġaut eur
Ġaut op
Ġgun de
Ġgun ner
dem isch
Ġbraand stof
ĠGroot maart
ĠAmsterdam se
ff f
Ġhonderd viefteg
Ġbier bar
ĠGain aine
Ġstud inten
Ġek kels
iem el
egr am
Ġgemainte huus
enn ing
Ġbuus doek
Ġpre de
Ġpre velde
Ġpre zent
Ġstoat eg
Ġongel euveg
Ġongel okkege
Ġblief st
Ġbord jes
OA M
ĠAr chibonus
Ġdreug te
Ġoetst eken
Ġplan tje
ĠWel kent
biel tje
Ġhaals band
Ġzegen d
ĠGl aas
ĠGl oepen
ĠSw inder
aalm s
Ġbloum kederij
ibb eln
Ġdis kaant
Ġdis cus
Ġvlouer bedekken
ow er
Ġnaacht s
Ġem ootsies
Ġverm oorden
Ġverm oanen
Ġverm oorde
Ġzwoar der
ja zen
Ġmoat schappij
Ġopp ikt
Ġopp azers
ĠLai ver
Ġvlak te
ĠGees sien
Ġwaar om
Ġwaar men
?" .
Ġonver get
Ġtrap de
All o
All Ã¨nt
Pl oatje
Ġhoezen hoog
Ġcon iferen
ilj ant
immer d
Be wegen
Ġnuig den
Ġboerderij en
Sn aachts
Sn oekering
Ġdu o
Ġslecht s
Ġopr old
Ġsmok ers
Ġraais den
Ġhal te
Ġhal ve
Ġgas bel
Ġgas mas
its j
Ġrechter bain
Sp aigel
wor den
wor pen
Ġwand elt
Ġonb est
Ġonb etoal
Ġbrand de
Ġswien ek
Ġswien ep
Tegen woordeg
Ġjeu kte
ĠDren th
Ġdink je
toal eg
ord s
Ġzuch zulf
ommer d
ommer doags
volk ings
ĠHart sema
Ġplek ke
Ġplek ske
Ġfilm kes
Ġaanp rezen
ĠOa dem
Ġeerliek swoar
Ġdainst tied
Ġkap pe
Ġrek onstr
ĠHoog kerk
Ġals of
hand eld
Ġeul ifant
Ġeet st
Ġhor loge
Ġvre des
Ġpu ber
Ġstille chies
Ġkar ren
Ġleer derij
Ġex pl
Ġex ec
Ġex peri
yn co
Ġdunder knuut
Ġaang ing
Ġschoap achteg
goa ves
Ġhoofd meester
Ġhoofd stad
Ġond eugd
Ġond eugende
Lu xem
Ġwink eld
Ġlinker kaande
Ġopst on
Ġopst aait
Ġopst eken
Ġvlug ge
az on
Ġvaal n
Ġhek s
insen t
elp akje
Ġind ioanen
Ġschiet gemak
Ġtoer istische
ĠVuil t
Ġplak te
Ġplak ploatjes
Ġ194 6
Ġ194 9
Ġmeroakels e
EL DER
Ġdaar om
Ġversl oaven
Ġversl oapen
Ġversl ook
Ġverstoan boar
inne weer
Ġbevr aaiden
off el
off ers
oezend okter
ĠY in
ĠY angtai
uutje b
Fr ankriek
nem an
Ġbeleven is
Ale x
Ale wel
stok jes
Ġpop pe
Ġonn ure
Ġmoes kes
Ġband s
Ġpet ovvels
Ġspringen d
Ġwen st
Ġwen akker
ĠKar st
Ġdraai gde
Ġdraai brogge
ĠRieks doalder
ĠJans onius
par fum
Ġvij anden
Ġtoren s
Ġopdr oaven
ĠPer ry
Ġhart elk
hou den
aarg te
Ġell Ã¬nde
Ġovert ollege
ĠPar ool
Ġgehaai ster
Ġricht te
ĠAchter hoek
Ġgloepen de
her innerns
qu ert
Ġven oavend
Ġmed ioa
Ġmed elieden
ĠBer ge
[...]
