{
  "version": "1.0",
  "truncation": {
    "direction": "Right",
    "max_length": 512,
    "strategy": "LongestFirst",
    "stride": 0
  },
  "padding": null,
  "added_tokens": [
    {
      "id": 40000,
      "content": "<|endoftext|>",
      "single_word": false,
      "lstrip": false,
      "rstrip": false,
      "normalized": false,
      "special": true
    }
  ],
  "normalizer": null,
  "pre_tokenizer": {
    "type": "ByteLevel",
    "add_prefix_space": false,
    "trim_offsets": true,
    "use_regex": true
  },
  "post_processor": {
    "type": "TemplateProcessing",
    "single": [
      {
        "Sequence": {
          "id": "A",
          "type_id": 0
        }
      }
    ],
    "pair": [
      {
        "Sequence": {
          "id": "A",
          "type_id": 0
        }
      },
      {
        "Sequence": {
          "id": "B",
          "type_id": 1
        }
      }
    ],
    "special_tokens": {}
  },
  "decoder": {
    "type": "ByteLevel",
    "add_prefix_space": true,
    "trim_offsets": true,
    "use_regex": true
  },
  "model": {
    "type": "BPE",
    "dropout": null,
    "unk_token": null,
    "continuing_subword_prefix": "",
    "end_of_word_suffix": "",
    "fuse_unk": false,
    "byte_fallback": false,
    "ignore_merges": false,
    "vocab": {
      "!": 0,
      "\"": 1,
      "#": 2,
      "$": 3,
      "%": 4,
      "&": 5,
      "'": 6,
      "(": 7,
      ")": 8,
      "*": 9,
      "+": 10,
      ",": 11,
      "-": 12,
      ".": 13,
      "/": 14,
      "0": 15,
      "1": 16,
      "2": 17,
      "3": 18,
      "4": 19,
      "5": 20,
      "6": 21,
      "7": 22,
      "8": 23,
      "9": 24,
      ":": 25,
      ";": 26,
      "<": 27,
      "=": 28,
      ">": 29,
      "?": 30,
      "@": 31,
      "A": 32,
      "B": 33,
      "C": 34,
      "D": 35,
      "E": 36,
      "F": 37,
      "G": 38,
      "H": 39,
      "I": 40,
      "J": 41,
      "K": 42,
      "L": 43,
      "M": 44,
      "N": 45,
      "O": 46,
      "P": 47,
      "Q": 48,
      "R": 49,
      "S": 50,
      "T": 51,
      "U": 52,
      "V": 53,
      "W": 54,
      "X": 55,
      "Y": 56,
      "Z": 57,
      "[": 58,
      "\\": 59,
      "]": 60,
      "^": 61,
      "_": 62,
      "`": 63,
      "a": 64,
      "b": 65,
      "c": 66,
      "d": 67,
      "e": 68,
      "f": 69,
      "g": 70,
      "h": 71,
      "i": 72,
      "j": 73,
      "k": 74,
      "l": 75,
      "m": 76,
      "n": 77,
      "o": 78,
      "p": 79,
      "q": 80,
      "r": 81,
      "s": 82,
      "t": 83,
      "u": 84,
      "v": 85,
      "w": 86,
      "x": 87,
      "y": 88,
      "z": 89,
      "{": 90,
      "|": 91,
      "}": 92,
      "~": 93,
      "¡": 94,
      "¢": 95,
      "£": 96,
      "¤": 97,
      "¥": 98,
      "¦": 99,
      "§": 100,
      "¨": 101,
      "©": 102,
      "ª": 103,
      "«": 104,
      "¬": 105,
      "®": 106,
      "¯": 107,
      "°": 108,
      "±": 109,
      "²": 110,
      "³": 111,
      "´": 112,
      "µ": 113,
      "¶": 114,
      "·": 115,
      "¸": 116,
      "¹": 117,
      "º": 118,
      "»": 119,
      "¼": 120,
      "½": 121,
      "¾": 122,
      "¿": 123,
      "À": 124,
      "Á": 125,
      "Â": 126,
      "Ã": 127,
      "Ä": 128,
      "Å": 129,
      "Æ": 130,
      "Ç": 131,
      "È": 132,
      "É": 133,
      "Ê": 134,
      "Ë": 135,
      "Ì": 136,
      "Í": 137,
      "Î": 138,
      "Ï": 139,
      "Ð": 140,
      "Ñ": 141,
      "Ò": 142,
      "Ó": 143,
      "Ô": 144,
      "Õ": 145,
      "Ö": 146,
      "×": 147,
      "Ø": 148,
      "Ù": 149,
      "Ú": 150,
      "Û": 151,
      "Ü": 152,
      "Ý": 153,
      "Þ": 154,
      "ß": 155,
      "à": 156,
      "á": 157,
      "â": 158,
      "ã": 159,
      "ä": 160,
      "å": 161,
      "æ": 162,
      "ç": 163,
      "è": 164,
      "é": 165,
      "ê": 166,
      "ë": 167,
      "ì": 168,
      "í": 169,
      "î": 170,
      "ï": 171,
      "ð": 172,
      "ñ": 173,
      "ò": 174,
      "ó": 175,
      "ô": 176,
      "õ": 177,
      "ö": 178,
      "÷": 179,
      "ø": 180,
      "ù": 181,
      "ú": 182,
      "û": 183,
      "ü": 184,
      "ý": 185,
      "þ": 186,
      "ÿ": 187,
      "Ā": 188,
      "ā": 189,
      "Ă": 190,
      "ă": 191,
      "Ą": 192,
      "ą": 193,
      "Ć": 194,
      "ć": 195,
      "Ĉ": 196,
      "ĉ": 197,
      "Ċ": 198,
      "ċ": 199,
      "Č": 200,
      "č": 201,
      "Ď": 202,
      "ď": 203,
      "Đ": 204,
      "đ": 205,
      "Ē": 206,
      "ē": 207,
      "Ĕ": 208,
      "ĕ": 209,
      "Ė": 210,
      "ė": 211,
      "Ę": 212,
      "ę": 213,
      "Ě": 214,
      "ě": 215,
      "Ĝ": 216,
      "ĝ": 217,
      "Ğ": 218,
      "ğ": 219,
      "Ġ": 220,
      "ġ": 221,
      "Ģ": 222,
      "ģ": 223,
      "Ĥ": 224,
      "ĥ": 225,
      "Ħ": 226,
      "ħ": 227,
      "Ĩ": 228,
      "ĩ": 229,
      "Ī": 230,
      "ī": 231,
      "Ĭ": 232,
      "ĭ": 233,
      "Į": 234,
      "į": 235,
      "İ": 236,
      "ı": 237,
      "Ĳ": 238,
      "ĳ": 239,
      "Ĵ": 240,
      "ĵ": 241,
      "Ķ": 242,
      "ķ": 243,
      "ĸ": 244,
      "Ĺ": 245,
      "ĺ": 246,
      "Ļ": 247,
      "ļ": 248,
      "Ľ": 249,
      "ľ": 250,
      "Ŀ": 251,
      "ŀ": 252,
      "Ł": 253,
      "ł": 254,
      "Ń": 255,
      "en": 256,
      "er": 257,
      "Ġd": 258,
      "čĊ": 259,
      "oa": 260,
      "Ġn": 261,
      "ai": 262,
      "Ġw": 263,
      "an": 264,
      "Ġv": 265,
      "ie": 266,
      "Ġm": 267,
      "Ġt": 268,
      "Ġo": 269,
      "Ġh": 270,
      "Ġz": 271,
      "Ġk": 272,
      "st": 273,
      "in": 274,
      "Ġb": 275,
      "el": 276,
      "eu": 277,
      "Ġa": 278,
      "ch": 279,
      "Ġg": 280,
      "at": 281,
      "ou": 282,
      "Ġen": 283,
      "oar": 284,
      "Ġi": 285,
      "eur": 286,
      "Ġl": 287,
      "âĢ": 288,
      "eg": 289,
      "aa": 290,
      "et": 291,
      "it": 292,
      "Ġs": 293,
      "or": 294,
      "Ġvan": 295,
      "on": 296,
      "ij": 297,
      "ien": 298,
      "Ġde": 299,
      "ait": 300,
      "de": 301,
      "om": 302,
      "eer": 303,
      "Ġop": 304,
      "der": 305,
      "cht": 306,
      "ek": 307,
      "ain": 308,
      "je": 309,
      "den": 310,
      "Ġst": 311,
      "Ġin": 312,
      "ol": 313,
      "Ġp": 314,
      "Ġdat": 315,
      "gen": 316,
      "ok": 317,
      "Ġmit": 318,
      "Ġaan": 319,
      "oe": 320,
      "aar": 321,
      "as": 322,
      "Ġnait": 323,
      "Ġr": 324,
      "Ġj": 325,
      "og": 326,
      "ven": 327,
      "Ġe": 328,
      "Ġder": 329,
      "ken": 330,
      "Ġis": 331,
      "Ġver": 332,
      "ee": 333,
      "aan": 334,
      "ot": 335,
      "Ġveur": 336,
      "Ġte": 337,
      "il": 338,
      "uu": 339,
      "Ġwas": 340,
      "op": 341,
      "ver": 342,
      "Ġik": 343,
      "le": 344,
      "un": 345,
      "Ġdij": 346,
      "nen": 347,
      "ke": 348,
      "al": 349,
      "ar": 350,
      "eb": 351,
      "âĢĻ": 352,
      "ik": 353,
      "Ġheur": 354,
      "Ġwat": 355,
      "oal": 356,
      "oat": 357,
      "Ġsch": 358,
      "Ġmor": 359,
      "..": 360,
      "Ġbie": 361,
      "Ġien": 362,
      "ĠW": 363,
      "zen": 364,
      "Ġhai": 365,
      "Ġzo": 366,
      "Ġom": 367,
      "Ġze": 368,
      "ĠG": 369,
      "ĠH": 370,
      "Ġnog": 371,
      "Ġas": 372,
      "ĠD": 373,
      "am": 374,
      "Ġzien": 375,
      "Ġon": 376,
      "aai": 377,
      "ied": 378,
      "ĠâĢ": 379,
      "Ġwel": 380,
      "Ġmie": 381,
      "Ġnoar": 382,
      "Ġvr": 383,
      "oan": 384,
      "ag": 385,
      "Ġook": 386,
      "Ġal": 387,
      "Ã¶": 388,
      "âĢĿ": 389,
      "Ġbe": 390,
      "ten": 391,
      "ui": 392,
      "uw": 393,
      "Ġge": 394,
      "Ġof": 395,
      "men": 396,
      "Ġoet": 397,
      "ak": 398,
      "iek": 399,
      "aauw": 400,
      "oo": 401,
      "ĠB": 402,
      "ĠS": 403,
      "ul": 404,
      "Ġhaar": 405,
      "Ġgr": 406,
      "Ġweer": 407,
      "len": 408,
      "ĠM": 409,
      "icht": 410,
      "re": 411,
      "ier": 412,
      "Ġwie": 413,
      "tje": 414,
      "Ġover": 415,
      "innen": 416,
      "sch": 417,
      "ing": 418,
      "te": 419,
      "Ġmien": 420,
      "ĠK": 421,
      "Ġaal": 422,
      "ster": 423,
      "Ġdeur": 424,
      "Ġdoar": 425,
      "Ġwe": 426,
      "Ġheb": 427,
      "ze": 428,
      "ĠV": 429,
      "Ġhom": 430,
      "ste": 431,
      "egen": 432,
      "rie": 433,
      "ge": 434,
      "ter": 435,
      "ad": 436,
      "Ġbl": 437,
      "eld": 438,
      "En": 439,
      "Ġle": 440,
      "oud": 441,
      "Ġkom": 442,
      "Ġf": 443,
      "Ik": 444,
      "ĠJ": 445,
      "Ġain": 446,
      "Ġdou": 447,
      "ĠA": 448,
      "Ġhet": 449,
      "pen": 450,
      "...": 451,
      "oor": 452,
      "elk": 453,
      "Ã¶r": 454,
      "Ġmo": 455,
      "ers": 456,
      "Ġkw": 457,
      "em": 458,
      "uur": 459,
      "Ġkl": 460,
      "oes": 461,
      "Ġgain": 462,
      "Ġbo": 463,
      "oak": 464,
      "acht": 465,
      "us": 466,
      "Ġdr": 467,
      "ĠN": 468,
      "Ġkin": 469,
      "eul": 470,
      "oam": 471,
      "aal": 472,
      "Hai": 473,
      "Ġmeer": 474,
      "ĠO": 475,
      "Ġsl": 476,
      "Ġbinnen": 477,
      "iet": 478,
      "uk": 479,
      "is": 480,
      "Ġzai": 481,
      "Ġbr": 482,
      "Ġwor": 483,
      "Ġsp": 484,
      "Ġzee": 485,
      "ĠâĢľ": 486,
      "ĠZ": 487,
      "Ġdin": 488,
      "aand": 489,
      "ĠT": 490,
      "Ġkon": 491,
      "Ġje": 492,
      "Ġtou": 493,
      "ĠP": 494,
      "and": 495,
      "ĠGr": 496,
      "ap": 497,
      "Ġai": 498,
      "Ġkr": 499,
      "sen": 500,
      "ond": 501,
      "Ġnou": 502,
      "Ã²": 503,
      "Ġ'": 504,
      "ben": 505,
      "Ġja": 506,
      "Ã¨": 507,
      "Ġwoar": 508,
      "zzen": 509,
      "ĠL": 510,
      "Ġto": 511,
      "âĢľ": 512,
      "Ġons": 513,
      "els": 514,
      "chter": 515,
      "neg": 516,
      "eten": 517,
      "aait": 518,
      "ĠâĢĺ": 519,
      "Ġgoud": 520,
      "ĠI": 521,
      "um": 522,
      "ut": 523,
      "Ġkwam": 524,
      "ker": 525,
      "oag": 526,
      "Ġeven": 527,
      "Ġzeg": 528,
      "ulf": 529,
      "se": 530,
      "Ġjoar": 531,
      "Ġden": 532,
      "ne": 533,
      "Ġdie": 534,
      "Ġpr": 535,
      "Ġhebben": 536,
      "uut": 537,
      "ig": 538,
      "Ã¬": 539,
      "Ġtr": 540,
      "Ġnoa": 541,
      "Ġmou": 542,
      "ur": 543,
      "tied": 544,
      "Ã¬n": 545,
      "oot": 546,
      "oagen": 547,
      "Ġbeg": 548,
      "Ġwer": 549,
      "Ġol": 550,
      "ĠR": 551,
      "Ã²f": 552,
      "aid": 553,
      "ong": 554,
      "im": 555,
      "aren": 556,
      "ang": 557,
      "Ġtied": 558,
      "mer": 559,
      "Ġwil": 560,
      "iz": 561,
      "iks": 562,
      "aaier": 563,
      "Ġlu": 564,
      "Ġloat": 565,
      "Ġhail": 566,
      "aark": 567,
      "ant": 568,
      "Dat": 569,
      "ĠGrun": 570,
      "oon": 571,
      "ed": 572,
      "Ġvot": 573,
      "Ġpl": 574,
      "eke": 575,
      "Ġachter": 576,
      "Ġwol": 577,
      "Ġdo": 578,
      "id": 579,
      "Ġveul": 580,
      "Mor": 581,
      "Ġeer": 582,
      "Ġkop": 583,
      "ĠÃ²f": 584,
      "eken": 585,
      "Ġtegen": 586,
      "ĠE": 587,
      "Ġzit": 588,
      "Ġzol": 589,
      "Ġtw": 590,
      "Ġhoes": 591,
      "ft": 592,
      "Ġjoe": 593,
      "ast": 594,
      "Ġ1": 595,
      "Ġhier": 596,
      "ege": 597,
      "sie": 598,
      "Ġtoch": 599,
      "Ġgoan": 600,
      "Ġvol": 601,
      "Ġ(": 602,
      "Ġstr": 603,
      "Ġniks": 604,
      "âĢĺ": 605,
      "es": 606,
      "izze": 607,
      "dt": 608,
      "Ġter": 609,
      "uil": 610,
      "jes": 611,
      "Ġwait": 612,
      "bb": 613,
      "Ġnij": 614,
      "kom": 615,
      "aank": 616,
      "Ġvraauw": 617,
      "oad": 618,
      "ĠGrunneg": 619,
      "dr": 620,
      "oet": 621,
      "Ġvl": 622,
      "Ġman": 623,
      "Ġhou": 624,
      "kes": 625,
      "Ġzain": 626,
      "ieken": 627,
      "Ġko": 628,
      ".âĢĿ": 629,
      "ander": 630,
      "oord": 631,
      "Ġdoun": 632,
      "Ġmos": 633,
      "ĠSt": 634,
      "est": 635,
      "ĠJan": 636,
      "Ġlai": 637,
      "Ġaander": 638,
      "eren": 639,
      "Ġzun": 640,
      "vel": 641,
      "Ġnet": 642,
      "ief": 643,
      "Ġonder": 644,
      "ist": 645,
      "Ġworden": 646,
      "oen": 647,
      "sl": 648,
      "Ġzat": 649,
      "âĢĿ,": 650,
      "Ġkomt": 651,
      "Ġkommen": 652,
      "sp": 653,
      "ood": 654,
      "oalen": 655,
      "oaken": 656,
      "Ze": 657,
      "moal": 658,
      "Ġ2": 659,
      "De": 660,
      "eerd": 661,
      "Ġleven": 662,
      "Ġdoe": 663,
      "eef": 664,
      "Ġwezen": 665,
      "Ġker": 666,
      "ies": 667,
      "Ġtwij": 668,
      "Wat": 669,
      "azzen": 670,
      "ode": 671,
      "ip": 672,
      "Ġbin": 673,
      "oas": 674,
      "oug": 675,
      "Ġuut": 676,
      "open": 677,
      "Ġsn": 678,
      "As": 679,
      "Ġging": 680,
      "ingen": 681,
      "ĠF": 682,
      "Ġtot": 683,
      "Ġkn": 684,
      "ink": 685,
      "Ġmout": 686,
      "ez": 687,
      "Ġais": 688,
      "Ġmen": 689,
      "oop": 690,
      "dag": 691,
      "Wie": 692,
      "oaten": 693,
      "ert": 694,
      "Ġhol": 695,
      "ĠEn": 696,
      "eek": 697,
      "ug": 698,
      "Ġc": 699,
      "Ġvert": 700,
      "Ġ...": 701,
      "Ġston": 702,
      "Ġmin": 703,
      "ren": 704,
      "haid": 705,
      "Ġdizze": 706,
      "Ġmet": 707,
      "Ġre": 708,
      "Ġmoo": 709,
      "man": 710,
      "Ġgeb": 711,
      "ouk": 712,
      "ellen": 713,
      "Ġzulf": 714,
      "Ġdag": 715,
      "Ġgel": 716,
      "Ġharen": 717,
      "Ġstoan": 718,
      "Dou": 719,
      "Zai": 720,
      "etje": 721,
      "ichten": 722,
      "aain": 723,
      "Ġwaark": 724,
      "ĠIs": 725,
      "Ġverh": 726,
      "ust": 727,
      "of": 728,
      "eert": 729,
      "oog": 730,
      "Ġgl": 731,
      "Ġgaait": 732,
      "Op": 733,
      "Doar": 734,
      "old": 735,
      "Ġdien": 736,
      "ner": 737,
      "zulf": 738,
      "Ġsm": 739,
      "les": 740,
      "dat": 741,
      "Ġdit": 742,
      "gel": 743,
      "Ġie": 744,
      "Ġzuk": 745,
      "hoes": 746,
      "Ġwordt": 747,
      "otter": 748,
      "ent": 749,
      "oaven": 750,
      "In": 751,
      "ĠIk": 752,
      "ekt": 753,
      "Ġkinnen": 754,
      "Ġaar": 755,
      "ve": 756,
      "aang": 757,
      "Ġsw": 758,
      "Ġwazzen": 759,
      "ud": 760,
      "tjes": 761,
      "bie": 762,
      "Ġaans": 763,
      "Ġdik": 764,
      "Ġall": 765,
      "Ġbet": 766,
      "ocht": 767,
      "aarm": 768,
      "bl": 769,
      "ber": 770,
      "oer": 771,
      "Ġmoal": 772,
      "oakt": 773,
      "ĠDe": 774,
      ".'": 775,
      "Dij": 776,
      "Ġged": 777,
      "per": 778,
      "od": 779,
      "oul": 780,
      "Ġbegun": 781,
      "Ġlig": 782,
      "aas": 783,
      "Ġzitten": 784,
      "ĠWas": 785,
      "ders": 786,
      "Ġaigen": 787,
      "ĠSch": 788,
      "Ġmoeke": 789,
      "Ġkrie": 790,
      "os": 791,
      "ĠC": 792,
      "Ġjong": 793,
      "uuster": 794,
      "Ġhaile": 795,
      "sten": 796,
      "Ġkieken": 797,
      "Ġfiet": 798,
      "af": 799,
      "eln": 800,
      "eker": 801,
      "br": 802,
      "Ġbel": 803,
      "Ġkeek": 804,
      "achten": 805,
      "Ġben": 806,
      "Ġkre": 807,
      "enk": 808,
      "Ġbest": 809,
      "Der": 810,
      "Ġdai": 811,
      "Ġaaltied": 812,
      "Ġschier": 813,
      "Ġwest": 814,
      "Ġloater": 815,
      "Ġgrode": 816,
      "Ġdee": 817,
      "Ġgew": 818,
      "Ġgen": 819,
      "ees": 820,
      "liek": 821,
      "gr": 822,
      "lu": 823,
      "ĠWil": 824,
      "Ġzet": 825,
      "oamer": 826,
      ".âĢĻ": 827,
      "elde": 828,
      "Ġkreeg": 829,
      "Ġmoaken": 830,
      "Ġzel": 831,
      "uik": 832,
      "Ġvoak": 833,
      "ĠGrunneger": 834,
      "Ġzeggen": 835,
      "lek": 836,
      "oel": 837,
      "Ġpoar": 838,
      "leg": 839,
      "ijn": 840,
      "uus": 841,
      "vr": 842,
      "gens": 843,
      "aag": 844,
      "Ġzw": 845,
      "opt": 846,
      "Ġvroug": 847,
      "eug": 848,
      "Ġzegt": 849,
      "zie": 850,
      "Ġme": 851,
      "aaiden": 852,
      "Ġwicht": 853,
      "Ġogen": 854,
      "Ġmooi": 855,
      "Ã©": 856,
      "Ġwaren": 857,
      "Ġgez": 858,
      "ainen": 859,
      "boar": 860,
      "Ġ-": 861,
      "Ġel": 862,
      "Ġbed": 863,
      "Ġgev": 864,
      "Ġhar": 865,
      "ooit": 866,
      "Ġboven": 867,
      "Ġwaiten": 868,
      "be": 869,
      "Ġpa": 870,
      "akken": 871,
      "Nou": 872,
      "Ġap": 873,
      "eern": 874,
      "ir": 875,
      "Ġdocht": 876,
      "Ġvuil": 877,
      "aant": 878,
      "ĠHai": 879,
      "Ġmoar": 880,
      "str": 881,
      "Ġstaait": 882,
      "oren": 883,
      "ieden": 884,
      "Ġjon": 885,
      "Ġweg": 886,
      "Zo": 887,
      "Ġok": 888,
      "ĠKl": 889,
      "Ġgroot": 890,
      "Ġopen": 891,
      "Ġnije": 892,
      "Ġschrie": 893,
      "me": 894,
      "deg": 895,
      "Ġwieder": 896,
      "Ġstil": 897,
      "Ġzok": 898,
      "Ã¨l": 899,
      "Ġboeten": 900,
      "vv": 901,
      "?âĢĿ": 902,
      "reden": 903,
      "Ġslim": 904,
      "ikt": 905,
      "Ġ20": 906,
      "oavend": 907,
      "pl": 908,
      "Ġhem": 909,
      "ekoar": 910,
      ",'": 911,
      "Ġzag": 912,
      "aaide": 913,
      "Ġdicht": 914,
      "uip": 915,
      "Ġnooit": 916,
      "uren": 917,
      "ob": 918,
      "oun": 919,
      "Ġlaand": 920,
      "Ġwant": 921,
      "Ġer": 922,
      "ult": 923,
      "Ġvon": 924,
      "ep": 925,
      "Mien": 926,
      "ĠâĢĵ": 927,
      "Joa": 928,
      "del": 929,
      "Ġuur": 930,
      "onder": 931,
      "aalf": 932,
      "Ġblie": 933,
      "Ġjoen": 934,
      "Ġdikke": 935,
      "Ġmoakt": 936,
      "Ġmouten": 937,
      "aif": 938,
      "oorden": 939,
      "ank": 940,
      "Mit": 941,
      "pel": 942,
      "inder": 943,
      "uig": 944,
      "Ġwereld": 945,
      "uto": 946,
      "ekker": 947,
      "Ã¶rp": 948,
      "Ġrond": 949,
      "Ġains": 950,
      "ef": 951,
      "ussen": 952,
      "Ġaine": 953,
      "art": 954,
      "?'": 955,
      "Ġneu": 956,
      "Ġdrij": 957,
      "Ġhad": 958,
      "Ġlaank": 959,
      "Ġper": 960,
      "Ġverd": 961,
      "tr": 962,
      "sw": 963,
      "Ġelk": 964,
      "ĠGeert": 965,
      "ĠVer": 966,
      "ĠOp": 967,
      "Ã¶rgen": 968,
      "Ġschr": 969,
      "Ġmekoar": 970,
      "Ġkriegen": 971,
      "ummer": 972,
      "uit": 973,
      "Ġlopen": 974,
      "nij": 975,
      "oaren": 976,
      "Ġeen": 977,
      "Ġwotter": 978,
      "amp": 979,
      "omen": 980,
      "Ġniet": 981,
      "ns": 982,
      "ske": 983,
      "Ġdus": 984,
      "Ġverhoal": 985,
      "okken": 986,
      "ubb": 987,
      "Woar": 988,
      "Ġdoan": 989,
      "ĠIn": 990,
      "oader": 991,
      "Ġeten": 992,
      "ries": 993,
      "land": 994,
      "ind": 995,
      "Ġverg": 996,
      "Ġloaten": 997,
      "ĠHeb": 998,
      "Ġkinder": 999,
      "bel": 1000,
      "kl": 1001,
      "veul": 1002,
      "Ã¨n": 1003,
      "Hou": 1004,
      "Ġnoam": 1005,
      "hol": 1006,
      "Ġbeetje": 1007,
      "Ġbez": 1008,
      "oast": 1009,
      "Ġhaand": 1010,
      "Ġspr": 1011,
      "!âĢĿ": 1012,
      "Ġlaif": 1013,
      "under": 1014,
      "Veur": 1015,
      "oek": 1016,
      "agen": 1017,
      "omm": 1018,
      "oavel": 1019,
      "eun": 1020,
      "Ġkovv": 1021,
      "kt": 1022,
      "schop": 1023,
      "uster": 1024,
      "Ġverl": 1025,
      "oten": 1026,
      "alen": 1027,
      "Ġleste": 1028,
      "teg": 1029,
      "Ġdut": 1030,
      "isch": 1031,
      "ĠdÃ¶rp": 1032,
      "?âĢĻ": 1033,
      "Ġjoaren": 1034,
      "Ġlang": 1035,
      "Ġont": 1036,
      "Ġgaauw": 1037,
      "Ġstee": 1038,
      "Ġhel": 1039,
      "Ġeerst": 1040,
      "anden": 1041,
      "Ġzunder": 1042,
      "ĠBl": 1043,
      "Tom": 1044,
      "Ġwui": 1045,
      "Ã¶t": 1046,
      "spr": 1047,
      "Ġalles": 1048,
      "Ġweerom": 1049,
      "ift": 1050,
      "oap": 1051,
      "Ġbek": 1052,
      "doag": 1053,
      "aande": 1054,
      "ic": 1055,
      "Ġleu": 1056,
      "eder": 1057,
      "ail": 1058,
      "omp": 1059,
      "Ġkiek": 1060,
      "oezen": 1061,
      "Ġbegon": 1062,
      "Ġkregen": 1063,
      "ia": 1064,
      "iel": 1065,
      "he": 1066,
      "Ġdood": 1067,
      "joar": 1068,
      "Ġkeer": 1069,
      "Ġnk": 1070,
      "ans": 1071,
      "Ġale": 1072,
      "Ġpak": 1073,
      "ucht": 1074,
      "Ġleg": 1075,
      "Ġbew": 1076,
      "aauwen": 1077,
      "Ien": 1078,
      "euze": 1079,
      "eem": 1080,
      "oater": 1081,
      "Ġgeven": 1082,
      "schain": 1083,
      "deur": 1084,
      "Ġro": 1085,
      "ich": 1086,
      "Ġ19": 1087,
      "ĠKr": 1088,
      "Ġvroag": 1089,
      "olen": 1090,
      "ĠDat": 1091,
      "aaid": 1092,
      "Ġklaain": 1093,
      "Ġverk": 1094,
      "âĢĻ,": 1095,
      "ost": 1096,
      "Ġkovvie": 1097,
      "Ġlag": 1098,
      "Ġproaten": 1099,
      "ĠWat": 1100,
      "veld": 1101,
      "Ġwillen": 1102,
      "uin": 1103,
      "elt": 1104,
      "ienen": 1105,
      "Ġkloar": 1106,
      "ĠHenk": 1107,
      "aast": 1108,
      "eest": 1109,
      "!'": 1110,
      "Ġlaang": 1111,
      "Ġtussen": 1112,
      "uis": 1113,
      "ov": 1114,
      "Ġmag": 1115,
      "Ġbouk": 1116,
      "kommen": 1117,
      "ĠStad": 1118,
      "Ġtoen": 1119,
      "Ġdrok": 1120,
      "Ġtoal": 1121,
      "Ġlicht": 1122,
      "Ã¨r": 1123,
      "lieks": 1124,
      "ane": 1125,
      "Ġgenog": 1126,
      "__": 1127,
      "Ġvanzulf": 1128,
      "eziek": 1129,
      "Ġwaarm": 1130,
      "kr": 1131,
      "oaden": 1132,
      "euren": 1133,
      "aarken": 1134,
      "Ġverb": 1135,
      "Ġhemmen": 1136,
      "Ġvin": 1137,
      "ĠAs": 1138,
      "St": 1139,
      "Ġbeter": 1140,
      "aart": 1141,
      "eep": 1142,
      "inkel": 1143,
      "uiken": 1144,
      "ĠBert": 1145,
      "Ġeerste": 1146,
      "Ġfl": 1147,
      "Ġwoon": 1148,
      "inter": 1149,
      "Ġlekker": 1150,
      "out": 1151,
      "Ġversch": 1152,
      "ainst": 1153,
      "Ġstuk": 1154,
      "pr": 1155,
      "vol": 1156,
      "onen": 1157,
      "ĠVr": 1158,
      "Ġnkander": 1159,
      "ĠAn": 1160,
      "Nee": 1161,
      "akker": 1162,
      "ern": 1163,
      "aange": 1164,
      "laand": 1165,
      "Ġdoch": 1166,
      "ma": 1167,
      "oie": 1168,
      "oatsie": 1169,
      "Ġbult": 1170,
      "Ġauto": 1171,
      "Zien": 1172,
      "Ġgeern": 1173,
      "Ġmozzen": 1174,
      "Al": 1175,
      "Van": 1176,
      "Ġken": 1177,
      "up": 1178,
      "ille": 1179,
      "oom": 1180,
      "woar": 1181,
      "Ġhond": 1182,
      "anne": 1183,
      "Ġthoes": 1184,
      "ĠU": 1185,
      "Ġecht": 1186,
      "aiken": 1187,
      "aacht": 1188,
      "Ġallain": 1189,
      "ww": 1190,
      "Ġheuren": 1191,
      "Ġproat": 1192,
      "eulen": 1193,
      "Ġliek": 1194,
      "Ġgewoon": 1195,
      "oken": 1196,
      "Ġboer": 1197,
      "ĠFr": 1198,
      "een": 1199,
      "goan": 1200,
      "Ġtoavel": 1201,
      "Ã¶rg": 1202,
      "kel": 1203,
      "aander": 1204,
      "Ġomreden": 1205,
      "Ġes": 1206,
      "oudel": 1207,
      "daal": 1208,
      "aist": 1209,
      "ikkom": 1210,
      "zel": 1211,
      "Ġbist": 1212,
      "ĠGrunnegers": 1213,
      "Ġleden": 1214,
      "ĠNeder": 1215,
      "oage": 1216,
      "Ġkoamer": 1217,
      "Ġhaalf": 1218,
      "Ġnoast": 1219,
      "Ġolle": 1220,
      "und": 1221,
      "Ġmid": 1222,
      "oem": 1223,
      "oof": 1224,
      "ĠMor": 1225,
      "Ġold": 1226,
      "Ġkerk": 1227,
      "nijs": 1228,
      "Noa": 1229,
      "Ġduur": 1230,
      "Ġdan": 1231,
      "Ġrust": 1232,
      "ammer": 1233,
      "achteg": 1234,
      "sem": 1235,
      "zoam": 1236,
      "Ġaltied": 1237,
      "Din": 1238,
      "oapen": 1239,
      "Ġnui": 1240,
      "Ġaarm": 1241,
      "erd": 1242,
      "Ġdoagen": 1243,
      "Ġkeu": 1244,
      "Ġvroagen": 1245,
      "Bie": 1246,
      "okter": 1247,
      "ĠGed": 1248,
      "ester": 1249,
      "Ġhest": 1250,
      "ouw": 1251,
      "akt": 1252,
      "Ġgrond": 1253,
      "Ġholden": 1254,
      "huis": 1255,
      "ĠSl": 1256,
      "ĠlÃ¶": 1257,
      "Ġligt": 1258,
      "ct": 1259,
      "Ġgruin": 1260,
      "Ġgeld": 1261,
      "Doe": 1262,
      "Ġgoa": 1263,
      "Ġvrouger": 1264,
      "Ġgingen": 1265,
      "oos": 1266,
      "Ġher": 1267,
      "Ġkikt": 1268,
      "eerde": 1269,
      "Ġwoorden": 1270,
      "Ġber": 1271,
      "olle": 1272,
      "aauwd": 1273,
      "uver": 1274,
      "weg": 1275,
      "Ġan": 1276,
      "Ġzeker": 1277,
      "derij": 1278,
      "angen": 1279,
      "Ġvast": 1280,
      "uud": 1281,
      "agt": 1282,
      "Ġlezen": 1283,
      "ĠOl": 1284,
      "Ġsikkom": 1285,
      "Ġhaard": 1286,
      "Ġrecht": 1287,
      "ubbeld": 1288,
      "pe": 1289,
      "Ġluip": 1290,
      "!âĢĻ": 1291,
      "oamen": 1292,
      "Ġwied": 1293,
      "âĢĿ.": 1294,
      "appen": 1295,
      "Ġwis": 1296,
      "aans": 1297,
      "hold": 1298,
      "sk": 1299,
      "Ġploat": 1300,
      "Ġrie": 1301,
      "Ġliggen": 1302,
      "ĠGrunnen": 1303,
      "Ġ\"": 1304,
      "iend": 1305,
      "ĠTr": 1306,
      "leven": 1307,
      "Ġvrij": 1308,
      "woord": 1309,
      "Ġmeziek": 1310,
      "Ġreg": 1311,
      "Ġverst": 1312,
      "aaien": 1313,
      "Ġhait": 1314,
      "ĠMar": 1315,
      "Ã¶rn": 1316,
      "Ġmog": 1317,
      "Ġmot": 1318,
      "aaiern": 1319,
      "ĠWie": 1320,
      "reven": 1321,
      "Ġlutje": 1322,
      "Ġgoie": 1323,
      "Ġverw": 1324,
      "Ġgem": 1325,
      "ĠVan": 1326,
      "aip": 1327,
      "Ġmis": 1328,
      "Ġbleef": 1329,
      "ool": 1330,
      "ĠMien": 1331,
      "Ġkomen": 1332,
      "igt": 1333,
      "ĠGedichten": 1334,
      "ell": 1335,
      "âĢĻ.": 1336,
      "iene": 1337,
      "akk": 1338,
      "onk": 1339,
      "Ġspeul": 1340,
      "Ain": 1341,
      "El": 1342,
      "Ook": 1343,
      "inken": 1344,
      "Ġzegd": 1345,
      "riek": 1346,
      "Ġloop": 1347,
      "inderk": 1348,
      "Dit": 1349,
      "aam": 1350,
      "ĠBin": 1351,
      "Ġbos": 1352,
      "Ġjonge": 1353,
      "Ġwoord": 1354,
      "oule": 1355,
      "Ġstok": 1356,
      "Ġschoul": 1357,
      "Ġgaf": 1358,
      "Ġwachten": 1359,
      "ĠWoar": 1360,
      "âĢĵ": 1361,
      "Ġdenken": 1362,
      "nl": 1363,
      "Ġonner": 1364,
      "doad": 1365,
      "Ġbrui": 1366,
      "ĠMolen": 1367,
      "Om": 1368,
      "ĠmÃ¬n": 1369,
      "ouken": 1370,
      "Ã³": 1371,
      "Ġ3": 1372,
      "inneg": 1373,
      "oep": 1374,
      "Ġblieven": 1375,
      "Ġoar": 1376,
      "kenain": 1377,
      "Gr": 1378,
      "Sch": 1379,
      "over": 1380,
      "veur": 1381,
      "nder": 1382,
      "ogen": 1383,
      "oeke": 1384,
      "Ġhoog": 1385,
      "Ġschiere": 1386,
      "oef": 1387,
      "Ġnijs": 1388,
      "Ġgek": 1389,
      "Ġzoveul": 1390,
      "na": 1391,
      "euven": 1392,
      "ĠVries": 1393,
      "ogel": 1394,
      "irr": 1395,
      ",âĢĻ": 1396,
      "ĠdÃ¬n": 1397,
      "oald": 1398,
      "Ġvruig": 1399,
      "bbe": 1400,
      "Of": 1401,
      "Ġred": 1402,
      "00": 1403,
      "lopen": 1404,
      "Ã«": 1405,
      "ains": 1406,
      "Ġwuir": 1407,
      "Ġoor": 1408,
      "euf": 1409,
      "Ġminsen": 1410,
      "kw": 1411,
      "keg": 1412,
      "ere": 1413,
      "ekken": 1414,
      "ĠBr": 1415,
      "Ġgeliek": 1416,
      "EU": 1417,
      "Ġboudel": 1418,
      "onne": 1419,
      "ĠEl": 1420,
      "mit": 1421,
      "oale": 1422,
      "annen": 1423,
      "Ġpad": 1424,
      "inger": 1425,
      "Vr": 1426,
      "dam": 1427,
      "Ġkat": 1428,
      "geven": 1429,
      "ook": 1430,
      "Ġhoast": 1431,
      "ekst": 1432,
      "Ġheurde": 1433,
      "Gain": 1434,
      "wat": 1435,
      "arr": 1436,
      "Ġdreu": 1437,
      "Ġzin": 1438,
      "ĠbÃ¨r": 1439,
      "Ġlaag": 1440,
      "Ġveurbie": 1441,
      "Ġbuur": 1442,
      "ont": 1443,
      "Ġneudeg": 1444,
      "Is": 1445,
      "och": 1446,
      "Ġvie": 1447,
      "unt": 1448,
      "ĠAl": 1449,
      "Ġkerst": 1450,
      "ĠKlaas": 1451,
      "ev": 1452,
      "ubbeldam": 1453,
      "Ġvief": 1454,
      "Ġvolk": 1455,
      "Ġstroat": 1456,
      "Ġmoan": 1457,
      "ĠWester": 1458,
      "Ġboas": 1459,
      "'s": 1460,
      "ger": 1461,
      "ĠkÃ¶r": 1462,
      "Ġstem": 1463,
      "ZE": 1464,
      "Ġduuster": 1465,
      "Ġkind": 1466,
      "sel": 1467,
      "weer": 1468,
      "zicht": 1469,
      "eester": 1470,
      "oanen": 1471,
      "Ġverdr": 1472,
      "ĠZe": 1473,
      "Ġkerel": 1474,
      "Ver": 1475,
      "aksie": 1476,
      "Ġwies": 1477,
      "Ġkwiet": 1478,
      "Ġmooie": 1479,
      "oaf": 1480,
      "Ġlaid": 1481,
      "anders": 1482,
      "eden": 1483,
      "Ġvou": 1484,
      "illen": 1485,
      "Ġbeste": 1486,
      "Ġkonden": 1487,
      "ko": 1488,
      "Ġrou": 1489,
      "ĠGer": 1490,
      "apt": 1491,
      "Ġapmoal": 1492,
      "Ġbaaide": 1493,
      "ort": 1494,
      "Ġstoer": 1495,
      "ĠNij": 1496,
      "ĠTom": 1497,
      "Ġgezicht": 1498,
      "anten": 1499,
      "ĠhÃ¬n": 1500,
      "Ġhoar": 1501,
      "Ġhuus": 1502,
      "aiten": 1503,
      "Ġdenk": 1504,
      "io": 1505,
      "ums": 1506,
      "aarde": 1507,
      "Ġonze": 1508,
      "Ġbegr": 1509,
      "erst": 1510,
      "onden": 1511,
      "Ġstre": 1512,
      "Ġraai": 1513,
      "Ã¶l": 1514,
      "ooi": 1515,
      "Ġkwamen": 1516,
      "waark": 1517,
      "Ġhaart": 1518,
      "Ġsnij": 1519,
      "Jan": 1520,
      "Ġant": 1521,
      "stoe": 1522,
      "Ġlaifde": 1523,
      ").": 1524,
      "wij": 1525,
      "Ġweden": 1526,
      "ĠNoord": 1527,
      "iv": 1528,
      "oeten": 1529,
      "zeg": 1530,
      "Ġkaant": 1531,
      "Ġlopt": 1532,
      "ĠHinderk": 1533,
      "Ġschrieven": 1534,
      "Ġdokter": 1535,
      "Ġhin": 1536,
      "Ġbij": 1537,
      "onneveld": 1538,
      "zet": 1539,
      "aalt": 1540,
      "Ġfiets": 1541,
      "eugelk": 1542,
      "even": 1543,
      "oven": 1544,
      "Ġding": 1545,
      "Ġgedichten": 1546,
      "efkes": 1547,
      "ĠNederland": 1548,
      "gang": 1549,
      "hoog": 1550,
      "ĠZonneveld": 1551,
      "Ġhog": 1552,
      "verd": 1553,
      "ment": 1554,
      "ĠMit": 1555,
      "Ġwollen": 1556,
      "Ġzollen": 1557,
      "Ġmeschain": 1558,
      "van": 1559,
      "Ġhand": 1560,
      "Ġkien": 1561,
      "ard": 1562,
      "koamer": 1563,
      "ĠBlaauw": 1564,
      "ĠDer": 1565,
      "ĠZai": 1566,
      "skes": 1567,
      "Ġlagen": 1568,
      "Ġtel": 1569,
      "if": 1570,
      "iep": 1571,
      "Ġzug": 1572,
      "ĠDij": 1573,
      "inner": 1574,
      "ĠlÃ¶s": 1575,
      "Aal": 1576,
      "onnen": 1577,
      "oksem": 1578,
      "oppen": 1579,
      "ĠDuut": 1580,
      "Ġth": 1581,
      "Ġjoa": 1582,
      "ilie": 1583,
      "ietsie": 1584,
      "Ġdingen": 1585,
      "Ġvertellen": 1586,
      "Ġgrot": 1587,
      "mers": 1588,
      "Ġkun": 1589,
      "vl": 1590,
      "Ġlet": 1591,
      "ongen": 1592,
      "Ġweek": 1593,
      "ĠJo": 1594,
      "Ġvlai": 1595,
      "ploat": 1596,
      "oazen": 1597,
      "ogge": 1598,
      "ĠWeerd": 1599,
      "noa": 1600,
      "Ġgevuil": 1601,
      "EUZE": 1602,
      "zze": 1603,
      "Ġbor": 1604,
      "ĠHol": 1605,
      "Ġmensen": 1606,
      "Ġverhoalen": 1607,
      "Ġdaip": 1608,
      "Ġbliede": 1609,
      "Ã¶n": 1610,
      "Ġaai": 1611,
      "ooie": 1612,
      "ĠVeur": 1613,
      "Ġlucht": 1614,
      "Ġelke": 1615,
      "izzen": 1616,
      "Ġdud": 1617,
      "Ġnam": 1618,
      "th": 1619,
      "Ġlaange": 1620,
      "Ġallen": 1621,
      "ĠSp": 1622,
      "Ġbruier": 1623,
      "Ġda": 1624,
      "Ġhui": 1625,
      "oed": 1626,
      "uister": 1627,
      "Ġblied": 1628,
      "Ġhaildaal": 1629,
      "Nait": 1630,
      "log": 1631,
      "ikk": 1632,
      "ĠKin": 1633,
      "Ġblift": 1634,
      "Ġleeg": 1635,
      "Ġliekt": 1636,
      "Ġkeuken": 1637,
      "Kom": 1638,
      "ens": 1639,
      "Ġblou": 1640,
      "Ġkonnen": 1641,
      "bels": 1642,
      "Ġvannijs": 1643,
      "oort": 1644,
      "Ġboom": 1645,
      "Ġzaten": 1646,
      "md": 1647,
      "Ġzetten": 1648,
      "nie": 1649,
      "oade": 1650,
      "Ġhur": 1651,
      "eurt": 1652,
      "oeit": 1653,
      "leden": 1654,
      "res": 1655,
      "Ġluit": 1656,
      "idde": 1657,
      "kaant": 1658,
      "wie": 1659,
      "Ġbaaiden": 1660,
      "elden": 1661,
      "ĠDou": 1662,
      "Ġbelang": 1663,
      "ĠDr": 1664,
      "ĠNane": 1665,
      "Ġspeulen": 1666,
      "end": 1667,
      "Ġlief": 1668,
      "Ġpot": 1669,
      "Ġeefkes": 1670,
      "Ġmeugelk": 1671,
      "Ġkeken": 1672,
      "Ġluuster": 1673,
      "Ġpeb": 1674,
      "Ġpers": 1675,
      "Ġaalmoal": 1676,
      "Ġspul": 1677,
      "ĠâĢĻ": 1678,
      "vers": 1679,
      "Ġ201": 1680,
      "Heur": 1681,
      "oit": 1682,
      "Ġger": 1683,
      "one": 1684,
      "dern": 1685,
      "oepen": 1686,
      "ikke": 1687,
      "uide": 1688,
      "aauwe": 1689,
      "Ġvergeten": 1690,
      ",âĢĿ": 1691,
      "uten": 1692,
      "Ġoavend": 1693,
      "doadelk": 1694,
      "Wel": 1695,
      "ische": 1696,
      "Ġnummer": 1697,
      "Ġheer": 1698,
      "Ġopa": 1699,
      "Ġstad": 1700,
      "Ġkrieg": 1701,
      "Ġdudelk": 1702,
      "Ġmond": 1703,
      "stellen": 1704,
      "Ġworren": 1705,
      "Ġlangs": 1706,
      "Ġnacht": 1707,
      "ĠZo": 1708,
      "ele": 1709,
      "oto": 1710,
      "lem": 1711,
      "emilie": 1712,
      "Ġ200": 1713,
      "Ġregen": 1714,
      "Ġzoch": 1715,
      "Ġmens": 1716,
      "Ġvinden": 1717,
      "ER": 1718,
      "ĠHou": 1719,
      "Ġvertr": 1720,
      "Ġfietse": 1721,
      "Ġvalen": 1722,
      "Ġstief": 1723,
      "ĠGron": 1724,
      "Ġelkenain": 1725,
      "Ġvoader": 1726,
      "Ġverdrait": 1727,
      "stee": 1728,
      "Ġleef": 1729,
      "holden": 1730,
      "Ġzuiken": 1731,
      "oi": 1732,
      "Ġsloap": 1733,
      "akkelk": 1734,
      "ale": 1735,
      "sm": 1736,
      "Ġomhoog": 1737,
      "Ġgeft": 1738,
      "Ġwoarom": 1739,
      "wegen": 1740,
      "ĠmÃ¶rgen": 1741,
      "Ġtien": 1742,
      "Ġzeuven": 1743,
      "eter": 1744,
      "Ġple": 1745,
      "Ġbren": 1746,
      "Ġhanden": 1747,
      "ikken": 1748,
      "ĠKn": 1749,
      "ged": 1750,
      "app": 1751,
      "ler": 1752,
      "Ġne": 1753,
      "Ġnoeit": 1754,
      "Ġwinter": 1755,
      "Ġbesch": 1756,
      "Ġhuil": 1757,
      "!!": 1758,
      "Dizze": 1759,
      "Hier": 1760,
      "geb": 1761,
      "Ġwaas": 1762,
      "Ġstap": 1763,
      "inga": 1764,
      "Ġwichter": 1765,
      "gels": 1766,
      "waar": 1767,
      "Ġwinkel": 1768,
      "Ġvek": 1769,
      "Ġpas": 1770,
      "schien": 1771,
      "Ġantwoord": 1772,
      "gt": 1773,
      "Ġzetje": 1774,
      "ĠHaar": 1775,
      "Ã²l": 1776,
      "Ġvotdoadelk": 1777,
      "ekend": 1778,
      "Den": 1779,
      "ion": 1780,
      "pt": 1781,
      "eghaid": 1782,
      "Ġvandoag": 1783,
      "Ġminder": 1784,
      "Zie": 1785,
      "uz": 1786,
      "Ġzuik": 1787,
      "Ġverz": 1788,
      "ĠDoar": 1789,
      "Ġjonk": 1790,
      "Ġwit": 1791,
      "elke": 1792,
      "Ġvrund": 1793,
      "tern": 1794,
      "oart": 1795,
      "Ġhelpen": 1796,
      "pie": 1797,
      "Ġdaaier": 1798,
      "Ġwind": 1799,
      "Ġhoalen": 1800,
      "aarhuis": 1801,
      "amm": 1802,
      "ĠJong": 1803,
      "ĠNou": 1804,
      "ĠPr": 1805,
      "ĠRoel": 1806,
      "doags": 1807,
      "Ġzeun": 1808,
      "ĠAm": 1809,
      "komst": 1810,
      "Ġdom": 1811,
      "Ġbleven": 1812,
      "nemen": 1813,
      "Ġolder": 1814,
      "____": 1815,
      "ac": 1816,
      "Ġoog": 1817,
      "Ġkammer": 1818,
      "int": 1819,
      "aanden": 1820,
      "Woarom": 1821,
      "zer": 1822,
      "Ġnuver": 1823,
      "Ġwonen": 1824,
      "Ġzuster": 1825,
      "Ġales": 1826,
      "Ġschien": 1827,
      "Ġlaangs": 1828,
      "hoalen": 1829,
      "Ġvis": 1830,
      "Ġor": 1831,
      "Kin": 1832,
      "ga": 1833,
      "Ġverv": 1834,
      "Ġmidden": 1835,
      "Ġies": 1836,
      "Ġmakkelk": 1837,
      "Ġtille": 1838,
      "ĠhÃ¨": 1839,
      "eurd": 1840,
      "Ġleren": 1841,
      "Ġdeden": 1842,
      "Ġleek": 1843,
      "Ġfemilie": 1844,
      "Ġwichtje": 1845,
      "akke": 1846,
      "Ġgroag": 1847,
      "Ġfeest": 1848,
      "uurlek": 1849,
      "Ã¶lf": 1850,
      "hof": 1851,
      "Ġdast": 1852,
      "Ġbesl": 1853,
      "adde": 1854,
      "ĠGrunnegs": 1855,
      "glieks": 1856,
      "Ã¶rm": 1857,
      "Ġkrigt": 1858,
      "Ġmainst": 1859,
      "iny": 1860,
      "ĠWijn": 1861,
      "ieren": 1862,
      "Ġ4": 1863,
      "Ġzie": 1864,
      "aine": 1865,
      "Ġheurd": 1866,
      "Ġsloapen": 1867,
      "Ġvonden": 1868,
      "holds": 1869,
      "onde": 1870,
      "Ġbegunt": 1871,
      "vraauw": 1872,
      "Geert": 1873,
      "moak": 1874,
      "Ġaand": 1875,
      "arm": 1876,
      "ĠBie": 1877,
      "Ġtoun": 1878,
      "lie": 1879,
      "Ġroem": 1880,
      "Ġbrocht": 1881,
      "Ġgedachten": 1882,
      "ĠmÃ¬nsen": 1883,
      "nomen": 1884,
      "Ġvaar": 1885,
      "ounen": 1886,
      "Ġverr": 1887,
      "Ġleutje": 1888,
      "av": 1889,
      "Ġwacht": 1890,
      "Ġwaarken": 1891,
      "eumer": 1892,
      "Ġrad": 1893,
      "Ġvragt": 1894,
      "Ġperb": 1895,
      "ĠWijnholds": 1896,
      "Ġ5": 1897,
      "Ġwos": 1898,
      "Ġzummer": 1899,
      "Ġstuur": 1900,
      "Ġpeerd": 1901,
      "ĠKreuze": 1902,
      "tt": 1903,
      "Ġbainen": 1904,
      "Ġomdat": 1905,
      "uld": 1906,
      "ĠOm": 1907,
      "Ġlaip": 1908,
      "jen": 1909,
      "ure": 1910,
      "Ġroam": 1911,
      "Ġbiez": 1912,
      "uf": 1913,
      "Ġhoop": 1914,
      "Ġschol": 1915,
      "ĠHen": 1916,
      "Ġgeh": 1917,
      "Ġbennen": 1918,
      "Ġdeu": 1919,
      "Ġgat": 1920,
      "Ġheurt": 1921,
      "Och": 1922,
      "zing": 1923,
      "Ġvaalt": 1924,
      "Ġvand": 1925,
      "Ġschoon": 1926,
      "Kiek": 1927,
      "uv": 1928,
      "Ġwidde": 1929,
      "Ġhaal": 1930,
      "Ġzingen": 1931,
      "swat": 1932,
      "ĠSleumer": 1933,
      "ine": 1934,
      "dee": 1935,
      "Ġschreven": 1936,
      "Ġbeh": 1937,
      "ĠKom": 1938,
      "Ġmain": 1939,
      "Ġten": 1940,
      "ass": 1941,
      "zend": 1942,
      "Ġbegrie": 1943,
      "Ġbaar": 1944,
      "ĠSanders": 1945,
      "REUZE": 1946,
      "Ġhoge": 1947,
      "Ġbaaident": 1948,
      "ijk": 1949,
      "ukken": 1950,
      "ĠIen": 1951,
      "onderd": 1952,
      "Ġverdw": 1953,
      "Aan": 1954,
      "winkel": 1955,
      "ais": 1956,
      "oest": 1957,
      "all": 1958,
      "Ġaandere": 1959,
      "Nog": 1960,
      "tien": 1961,
      "oane": 1962,
      "Ġgras": 1963,
      "ĠMid": 1964,
      "Ġallinneg": 1965,
      "Ġmuit": 1966,
      "elen": 1967,
      "ĠDoe": 1968,
      "dder": 1969,
      "Ġtieden": 1970,
      "Ġzul": 1971,
      "Ġalle": 1972,
      "Ġmenaaier": 1973,
      "Ġgeboren": 1974,
      "odder": 1975,
      "zo": 1976,
      "Ġmer": 1977,
      "stoan": 1978,
      "Ġgong": 1979,
      "Ġroupen": 1980,
      "Ġweke": 1981,
      "ieter": 1982,
      "oulen": 1983,
      "gende": 1984,
      "rief": 1985,
      "Ġbraif": 1986,
      "Ġkwammen": 1987,
      "Ġjonges": 1988,
      "Ġallenneg": 1989,
      "doagen": 1990,
      "Ġdak": 1991,
      "ĠDubbeldam": 1992,
      "rieven": 1993,
      "ukkeg": 1994,
      "Ġplietsie": 1995,
      "Ġknip": 1996,
      "oavends": 1997,
      "Ġkiender": 1998,
      "==": 1999,
      "val": 2000,
      "Ġ,": 2001,
      "Ġmuik": 2002,
      "Ġend": 2003,
      "Ġsums": 2004,
      "unnen": 2005,
      "wegens": 2006,
      "Ol": 2007,
      "Ġnee": 2008,
      "Ġket": 2009,
      "aks": 2010,
      "Ġreden": 2011,
      "Ġzugt": 2012,
      "?âĢĿ,": 2013,
      "Ġhij": 2014,
      "oare": 2015,
      "Ġnemen": 2016,
      "EN": 2017,
      "ri": 2018,
      "Ġ6": 2019,
      "Ġum": 2020,
      "Ġwoater": 2021,
      "Ġvogel": 2022,
      "eltje": 2023,
      "apper": 2024,
      "Ġvertelde": 2025,
      ".\"": 2026,
      "vin": 2027,
      "ijt": 2028,
      "Ġgebr": 2029,
      "Ie": 2030,
      "Ġzellen": 2031,
      "ijen": 2032,
      "Ġdeel": 2033,
      "auw": 2034,
      "Ġkou": 2035,
      "Ġbus": 2036,
      "ĠWilzing": 2037,
      "',": 2038,
      "wiel": 2039,
      "Ġkol": 2040,
      "...âĢĿ": 2041,
      "Ġgrote": 2042,
      "Kr": 2043,
      "ab": 2044,
      "sh": 2045,
      "ĠBe": 2046,
      "Ġdeure": 2047,
      "Ġboeren": 2048,
      "Ġhoeske": 2049,
      "ĠAnna": 2050,
      "//": 2051,
      "hai": 2052,
      "uien": 2053,
      "oabel": 2054,
      "Ġzaacht": 2055,
      "steg": 2056,
      "red": 2057,
      "utt": 2058,
      "dde": 2059,
      "sn": 2060,
      "Ġnaar": 2061,
      "Ġvaaier": 2062,
      "ollen": 2063,
      "Ġraip": 2064,
      "unneg": 2065,
      "ĠVl": 2066,
      "Ġterug": 2067,
      "we": 2068,
      "Ġstoef": 2069,
      "amme": 2070,
      "blad": 2071,
      "woarie": 2072,
      "Ġvouten": 2073,
      "ĠJoh": 2074,
      "okt": 2075,
      "Ġainmoal": 2076,
      "eufd": 2077,
      "Ġhum": 2078,
      "Ġidee": 2079,
      "eerden": 2080,
      "aske": 2081,
      "Ġschud": 2082,
      "Ġvekaan": 2083,
      "://": 2084,
      "Het": 2085,
      "abb": 2086,
      "okje": 2087,
      "Ġkleur": 2088,
      "Ġdichter": 2089,
      "echt": 2090,
      "Ġkold": 2091,
      "euz": 2092,
      "Ġsoamen": 2093,
      "Ġpakken": 2094,
      "Ġschil": 2095,
      "Ġtrok": 2096,
      "Ġmeter": 2097,
      "Bl": 2098,
      "ĠÃ¬n": 2099,
      "iedr": 2100,
      "Ġdrinken": 2101,
      "Ġaiglieks": 2102,
      "Ġzundag": 2103,
      "Ġfietsen": 2104,
      "Kl": 2105,
      "zaaier": 2106,
      "Ġkan": 2107,
      "eut": 2108,
      "Ġrood": 2109,
      "Ġfoto": 2110,
      "Ġdail": 2111,
      "Ġschriever": 2112,
      "Gel": 2113,
      "ĠGod": 2114,
      "Ġzulfde": 2115,
      "Ġpabbe": 2116,
      "ach": 2117,
      "Ġnat": 2118,
      "denken": 2119,
      "Ġriek": 2120,
      "Ġreken": 2121,
      "vert": 2122,
      "fteg": 2123,
      "Man": 2124,
      "ks": 2125,
      "nd": 2126,
      "Ġdoag": 2127,
      "Ġmaank": 2128,
      "Ġbouken": 2129,
      "Ġstoa": 2130,
      "Ġruip": 2131,
      "Ġverskes": 2132,
      "Ġaargens": 2133,
      "ommel": 2134,
      "Ġkwoad": 2135,
      "ukt": 2136,
      "oetb": 2137,
      "Ġzunne": 2138,
      "Ġmeneer": 2139,
      "Ġzulfs": 2140,
      "ijnko": 2141,
      "Ġvat": 2142,
      "olden": 2143,
      "reek": 2144,
      "Ġollu": 2145,
      "Ġbegunnen": 2146,
      "oby": 2147,
      "Ġgemain": 2148,
      "??": 2149,
      "kte": 2150,
      "oc": 2151,
      "oeren": 2152,
      "ĠDin": 2153,
      "oakel": 2154,
      "Ġ18": 2155,
      "Ġvuilde": 2156,
      "Even": 2157,
      "iÃ«": 2158,
      "Ġnoat": 2159,
      "stand": 2160,
      "itter": 2161,
      "Ġstoet": 2162,
      "Ġrug": 2163,
      "Ġvern": 2164,
      "Ġkinst": 2165,
      "Ġrusteg": 2166,
      "oden": 2167,
      "oeken": 2168,
      "Ġrieden": 2169,
      "Ġsloot": 2170,
      "ĠPa": 2171,
      "Tr": 2172,
      "goud": 2173,
      "Ġ9": 2174,
      "Ġboksem": 2175,
      "Ġsoam": 2176,
      "oalek": 2177,
      "aail": 2178,
      "Ġmins": 2179,
      "ieten": 2180,
      "Ġar": 2181,
      "Ġsuk": 2182,
      "eugd": 2183,
      "Ġmuite": 2184,
      "An": 2185,
      "Deur": 2186,
      "Was": 2187,
      "Ġmaal": 2188,
      "Ġhoal": 2189,
      "ĠzÃ¶rgen": 2190,
      "achter": 2191,
      "Ġtraain": 2192,
      "Ġherinner": 2193,
      "ttp": 2194,
      "ann": 2195,
      "Ġvuur": 2196,
      "onken": 2197,
      "Ġrest": 2198,
      "ĠGe": 2199,
      "ĠHanne": 2200,
      "ĠâĢĿ": 2201,
      "Ġbliek": 2202,
      "ember": 2203,
      "ĠReker": 2204,
      "Ġdochter": 2205,
      "Ġaarms": 2206,
      "bouk": 2207,
      "Ã¡": 2208,
      "Ġno": 2209,
      "Ġhen": 2210,
      "uun": 2211,
      "Ġvrum": 2212,
      "Ġbosschop": 2213,
      "zichteg": 2214,
      "Ġbrengen": 2215,
      "Moar": 2216,
      "Ġwakker": 2217,
      "Ġzes": 2218,
      "Ġfr": 2219,
      "),": 2220,
      "Je": 2221,
      "enen": 2222,
      "Ġhe": 2223,
      "Ġzaag": 2224,
      "eurde": 2225,
      "Ġbeder": 2226,
      "ieks": 2227,
      "Ġfil": 2228,
      "ĠOet": 2229,
      "Ġeerder": 2230,
      "aigel": 2231,
      "Ġmelk": 2232,
      "Ġhttp": 2233,
      "stied": 2234,
      "elgr": 2235,
      "Ġlie": 2236,
      "onker": 2237,
      "ĠZel": 2238,
      "Ġkrekt": 2239,
      "ĠCor": 2240,
      "nis": 2241,
      "Ġkil": 2242,
      "schr": 2243,
      "ektoal": 2244,
      "kwam": 2245,
      "obb": 2246,
      "Ġinains": 2247,
      "aante": 2248,
      "ĠOf": 2249,
      "Ġkopen": 2250,
      "slag": 2251,
      "oelman": 2252,
      "ĠbÃ¨rre": 2253,
      "Hest": 2254,
      "Me": 2255,
      "ah": 2256,
      "meester": 2257,
      "ĠGez": 2258,
      "Ġholdt": 2259,
      "Moeke": 2260,
      "Twij": 2261,
      "ket": 2262,
      "rit": 2263,
      "Ġwww": 2264,
      "Ġbomen": 2265,
      "Ġrichten": 2266,
      "ogels": 2267,
      "mans": 2268,
      "Ġkammeroad": 2269,
      "elgrim": 2270,
      "doun": 2271,
      "wel": 2272,
      "Ġ8": 2273,
      "Ġoaf": 2274,
      "aizen": 2275,
      "Ġmoe": 2276,
      "des": 2277,
      "deel": 2278,
      "Ġrooie": 2279,
      "ĠJoa": 2280,
      "ĠPelgrim": 2281,
      "Ġ11": 2282,
      "Ġgedicht": 2283,
      "bers": 2284,
      "fde": 2285,
      "igen": 2286,
      "pad": 2287,
      "waai": 2288,
      "Ġwast": 2289,
      "Ġmuide": 2290,
      "Ġheu": 2291,
      "Ġwerden": 2292,
      "Ġstonden": 2293,
      "Ġschrief": 2294,
      "Ġbiezunder": 2295,
      "20": 2296,
      "uden": 2297,
      "valen": 2298,
      "Ã¼": 2299,
      "Ġhangen": 2300,
      "Ġzagen": 2301,
      "Ġzich": 2302,
      "Ġguster": 2303,
      "Ġsj": 2304,
      "ons": 2305,
      "Ġpien": 2306,
      "uid": 2307,
      "Ġgeval": 2308,
      "Dr": 2309,
      "aat": 2310,
      "mber": 2311,
      "uzzen": 2312,
      "Ġ7": 2313,
      "ĠkÃ¬n": 2314,
      "Ġak": 2315,
      "Ġblad": 2316,
      "ĠPoelman": 2317,
      "ĠNederlands": 2318,
      "ailen": 2319,
      "etr": 2320,
      "ekel": 2321,
      "Ġschoule": 2322,
      "uipen": 2323,
      "ĠVol": 2324,
      "oorn": 2325,
      "ĠEster": 2326,
      "ĠVera": 2327,
      "dal": 2328,
      "kop": 2329,
      "mde": 2330,
      "aaierde": 2331,
      "ĠWillem": 2332,
      "Vraauw": 2333,
      "uisterwinkel": 2334,
      "eit": 2335,
      "reg": 2336,
      "uter": 2337,
      "ĠhÃ¨n": 2338,
      "egs": 2339,
      "Ġroad": 2340,
      "ĠMoeke": 2341,
      "sloagen": 2342,
      "boom": 2343,
      "Ġnich": 2344,
      "aide": 2345,
      "Ġsle": 2346,
      "Ġsoort": 2347,
      "Ġstaar": 2348,
      "Ġstaark": 2349,
      "are": 2350,
      "ĠHutt": 2351,
      "Ġbloud": 2352,
      "oots": 2353,
      "Ġbestoan": 2354,
      "Net": 2355,
      "pot": 2356,
      "ieke": 2357,
      "Ġgoaten": 2358,
      "eerste": 2359,
      "Ġpol": 2360,
      "ikker": 2361,
      "Ġvlaigen": 2362,
      "ĠHuttinga": 2363,
      "ry": 2364,
      "win": 2365,
      "Ġwonder": 2366,
      "Ġlocht": 2367,
      "etten": 2368,
      "Ġsoavends": 2369,
      "ĠHaarm": 2370,
      "ĠEngels": 2371,
      "ĠWilden": 2372,
      "euzek": 2373,
      "Over": 2374,
      "do": 2375,
      "Ġ!": 2376,
      "ins": 2377,
      "Ġgold": 2378,
      "Ġopl": 2379,
      "derd": 2380,
      "ĠWier": 2381,
      "Ġholt": 2382,
      "ĠGroningen": 2383,
      "Ġeur": 2384,
      "aik": 2385,
      "aiden": 2386,
      "Ġvaast": 2387,
      "Ġlaive": 2388,
      "Ġgeweld": 2389,
      "oofd": 2390,
      "ĠWildenga": 2391,
      "euzekeuze": 2392,
      "Hij": 2393,
      "oard": 2394,
      "ingt": 2395,
      "Ġlaggen": 2396,
      "Ġoorlog": 2397,
      "Ġkunst": 2398,
      "foon": 2399,
      "uken": 2400,
      "onge": 2401,
      "Ġpar": 2402,
      "Ġdraaide": 2403,
      "ĠZol": 2404,
      "erend": 2405,
      "ĠScheem": 2406,
      "Ġwaarme": 2407,
      "kreuzekeuze": 2408,
      "ĠUil": 2409,
      "Ġander": 2410,
      "Ġvien": 2411,
      "Ġvoetb": 2412,
      "Ġad": 2413,
      "dert": 2414,
      "Ġpep": 2415,
      "Ġverder": 2416,
      "ĠWait": 2417,
      "ĠDen": 2418,
      "ĠAal": 2419,
      "Ġjoargang": 2420,
      "Ġtroanen": 2421,
      "Ġplat": 2422,
      "Ġlaiver": 2423,
      "Ġtwijde": 2424,
      "Ġaner": 2425,
      "Ġmoand": 2426,
      "Ġstreektoal": 2427,
      "Ġbegriepen": 2428,
      "wies": 2429,
      "Ġdiek": 2430,
      "Ġvoor": 2431,
      "Ġzeer": 2432,
      "ĠWol": 2433,
      "aais": 2434,
      "Ġmost": 2435,
      "oene": 2436,
      "Ġgeluud": 2437,
      "uchten": 2438,
      "Ġwoonde": 2439,
      "Elk": 2440,
      "ĠWoarom": 2441,
      "Haar": 2442,
      "oeg": 2443,
      "wen": 2444,
      "Ġmoak": 2445,
      "Ġheufd": 2446,
      "ekje": 2447,
      "uust": 2448,
      "Ġdoarom": 2449,
      "Ġfeb": 2450,
      "achtege": 2451,
      "ĠNee": 2452,
      "ĠOn": 2453,
      "Ġslag": 2454,
      "Ġaibels": 2455,
      "driks": 2456,
      "veln": 2457,
      "inkt": 2458,
      "Ġverteld": 2459,
      "Ġaller": 2460,
      "aamp": 2461,
      "Ġredaksie": 2462,
      "Ġbelangriek": 2463,
      "lip": 2464,
      "loop": 2465,
      "mor": 2466,
      "Ġdun": 2467,
      "Ġwodder": 2468,
      "Ġtekst": 2469,
      "Ġzied": 2470,
      "ĠzÃ¶lf": 2471,
      "Ġland": 2472,
      "eeft": 2473,
      "Ġschoot": 2474,
      "Ġoveraal": 2475,
      "ĠAin": 2476,
      "beeld": 2477,
      "Ġvuilt": 2478,
      "Ġbegonnen": 2479,
      "Oh": 2480,
      "fr": 2481,
      "fst": 2482,
      "haand": 2483,
      "ĠÃ¨n": 2484,
      "Ġwoagen": 2485,
      "Ġoren": 2486,
      "Ġkirr": 2487,
      "inker": 2488,
      "ouer": 2489,
      "Ġlast": 2490,
      "ienus": 2491,
      "Ġgrie": 2492,
      "Ġfoabel": 2493,
      "ema": 2494,
      "oager": 2495,
      "Ġaarg": 2496,
      "Br": 2497,
      "Bert": 2498,
      "On": 2499,
      "ister": 2500,
      "mid": 2501,
      "Ġbaank": 2502,
      "Ġleerd": 2503,
      "oll": 2504,
      "Ġhailen": 2505,
      "emmen": 2506,
      "Ġlevent": 2507,
      "ĠkÃ¶rt": 2508,
      "Aander": 2509,
      "Pa": 2510,
      "hÃ¶rn": 2511,
      "uch": 2512,
      "wolle": 2513,
      "Ġ?": 2514,
      "Ġwo": 2515,
      "Ġweb": 2516,
      "Ġbaang": 2517,
      "Ġveraander": 2518,
      "ĠDag": 2519,
      "ĠVeen": 2520,
      "urg": 2521,
      "ootje": 2522,
      "Ġwoont": 2523,
      "www": 2524,
      "Ġmainsttied": 2525,
      "Onder": 2526,
      "gd": 2527,
      "hoal": 2528,
      "Ġvergr": 2529,
      "Ġveuraal": 2530,
      "Ġomdeel": 2531,
      "ĠZuud": 2532,
      "Ġkont": 2533,
      "Ġschreef": 2534,
      "Ġleeftied": 2535,
      "Heb": 2536,
      "dels": 2537,
      "ib": 2538,
      "Ġmes": 2539,
      "Ġtoe": 2540,
      "ientje": 2541,
      "Ġstoul": 2542,
      "unden": 2543,
      "Ġschool": 2544,
      "Ġmiezulf": 2545,
      "AN": 2546,
      "IE": 2547,
      "Maarhuis": 2548,
      "Oet": 2549,
      "Vol": 2550,
      "Ġmuur": 2551,
      "sturen": 2552,
      "ommen": 2553,
      "ĠHarm": 2554,
      "Ġgreep": 2555,
      "Ġklok": 2556,
      "ĠPl": 2557,
      "ĠPiet": 2558,
      "Ġsnel": 2559,
      "Ġgezel": 2560,
      "Ġploats": 2561,
      "Ġeuro": 2562,
      "Dubbeldam": 2563,
      "bert": 2564,
      "mes": 2565,
      "noar": 2566,
      "zain": 2567,
      "Ġoom": 2568,
      "Ġaaid": 2569,
      "unn": 2570,
      "ĠMan": 2571,
      "stern": 2572,
      "emt": 2573,
      "bleem": 2574,
      "boare": 2575,
      "Ġbedoul": 2576,
      "Ġgevoar": 2577,
      "Ġvuilen": 2578,
      "Ġoardeg": 2579,
      "Zol": 2580,
      "moakt": 2581,
      "Ġked": 2582,
      "Ġam": 2583,
      "ijd": 2584,
      "uuk": 2585,
      "aaist": 2586,
      "Ġbep": 2587,
      "ĠJil": 2588,
      "Ġspaigel": 2589,
      "Ġpro": 2590,
      "Ġvolle": 2591,
      "Ġbeneden": 2592,
      "Ġkennen": 2593,
      "ĠUildriks": 2594,
      "vis": 2595,
      "eum": 2596,
      "dens": 2597,
      "Ġtem": 2598,
      "ĠWer": 2599,
      "ĠHer": 2600,
      "Ġbev": 2601,
      "sterdam": 2602,
      "Ġmoet": 2603,
      "Hail": 2604,
      "Ġtoukomst": 2605,
      "Ġdoen": 2606,
      "Ġzukswat": 2607,
      "ĠWierth": 2608,
      "Veul": 2609,
      "oster": 2610,
      "Ġopoe": 2611,
      "Ġree": 2612,
      "recht": 2613,
      "Ġvloog": 2614,
      "Ġkocht": 2615,
      "entr": 2616,
      "Joe": 2617,
      "eel": 2618,
      "anc": 2619,
      "Ġmaai": 2620,
      "ill": 2621,
      "Ġzowat": 2622,
      "ĠBen": 2623,
      "ulp": 2624,
      "ings": 2625,
      "Ġainen": 2626,
      "Ġzaiken": 2627,
      "ureg": 2628,
      "angt": 2629,
      "Ġvolgens": 2630,
      "Ġstonnen": 2631,
      "braif": 2632,
      "kn": 2633,
      "ange": 2634,
      "Ġtek": 2635,
      "Ġtaiken": 2636,
      "Ġzicht": 2637,
      "Ġkoar": 2638,
      "Ġbain": 2639,
      "Ġacht": 2640,
      "Ġstev": 2641,
      "ĠNoa": 2642,
      "Ġ10": 2643,
      "Ġhollen": 2644,
      "heden": 2645,
      "jong": 2646,
      "pels": 2647,
      "Ġu": 2648,
      "Ġnegen": 2649,
      "Ġbekend": 2650,
      "Ġgaang": 2651,
      "Ġlait": 2652,
      "okkeg": 2653,
      "Ġropt": 2654,
      "Ã¶cht": 2655,
      "ĠKerst": 2656,
      "ĠAan": 2657,
      "Ġklas": 2658,
      "Ġkraant": 2659,
      "Ġpakte": 2660,
      "Ġboukje": 2661,
      "eet": 2662,
      "moat": 2663,
      "pers": 2664,
      "Ġdonker": 2665,
      "Ġbak": 2666,
      "Ġstain": 2667,
      "Ġjanne": 2668,
      "aggel": 2669,
      "ingers": 2670,
      "Ġwerren": 2671,
      "Ġnetuurlek": 2672,
      "Ġbezeg": 2673,
      "Ġklaaine": 2674,
      "Ġthee": 2675,
      "\",": 2676,
      "hard": 2677,
      "Ġch": 2678,
      "Ġunder": 2679,
      "Ġdw": 2680,
      "ĠwÃ¶r": 2681,
      "Ġmom": 2682,
      "Ġhaanden": 2683,
      "Ġzoas": 2684,
      "ĠzÃ¶rg": 2685,
      "ordt": 2686,
      "oms": 2687,
      "aanke": 2688,
      "ĠGel": 2689,
      "Ġbeeld": 2690,
      "ullen": 2691,
      "Ġklaid": 2692,
      "aaierd": 2693,
      "Ġvolgende": 2694,
      "komt": 2695,
      "oasd": 2696,
      "Ġgebeuren": 2697,
      "Ġpervin": 2698,
      "19": 2699,
      "Loat": 2700,
      "Moi": 2701,
      "com": 2702,
      "Ġdele": 2703,
      "Ġaut": 2704,
      "Ġgien": 2705,
      "Ġwilst": 2706,
      "sproak": 2707,
      "ĠTrijnko": 2708,
      "Ġbliekboar": 2709,
      "bak": 2710,
      "leke": 2711,
      "neu": 2712,
      "Ġducht": 2713,
      "Ġzaand": 2714,
      "Ġgun": 2715,
      "ĠlÃ¨": 2716,
      "aaste": 2717,
      "dem": 2718,
      "aaileg": 2719,
      "Ġbraand": 2720,
      "ĠGroot": 2721,
      "aarkt": 2722,
      "proat": 2723,
      "ĠAmsterdam": 2724,
      "Ġroemte": 2725,
      "auto": 2726,
      "dail": 2727,
      "ff": 2728,
      "Ġmeester": 2729,
      "Ġhonderd": 2730,
      "Ġbier": 2731,
      "Ġsturen": 2732,
      "ĠGain": 2733,
      "Ġweerd": 2734,
      "Ġblaauw": 2735,
      "Ġlaiverd": 2736,
      "Ġaandern": 2737,
      "Ġ24": 2738,
      "Ġswaart": 2739,
      "berg": 2740,
      "ziel": 2741,
      "ovember": 2742,
      "Ġnuimd": 2743,
      "doalek": 2744,
      "kers": 2745,
      "noam": 2746,
      "Ġzal": 2747,
      "Ġgait": 2748,
      "Ġstud": 2749,
      "Ġroe": 2750,
      "ikoa": 2751,
      "Ġvree": 2752,
      "aauwde": 2753,
      "ĠSun": 2754,
      "Ġcomp": 2755,
      "kloas": 2756,
      "Ġviefteg": 2757,
      "Tot": 2758,
      "Wil": 2759,
      "meer": 2760,
      "ril": 2761,
      "tal": 2762,
      "vaal": 2763,
      "Ġek": 2764,
      "Ġwiend": 2765,
      "Ġvogels": 2766,
      "iem": 2767,
      "egr": 2768,
      "ĠrÃ¶t": 2769,
      "ĠWeg": 2770,
      "Ġzeden": 2771,
      "iekt": 2772,
      "Ġblik": 2773,
      "ĠAb": 2774,
      "ĠToal": 2775,
      "Ġhouk": 2776,
      "Ġkoop": 2777,
      "Ġoareg": 2778,
      "Ġgemainte": 2779,
      "Achter": 2780,
      "Mar": 2781,
      "Ons": 2782,
      "Sl": 2783,
      "moaken": 2784,
      "ĠÃ": 2785,
      "enn": 2786,
      "Ġtaande": 2787,
      "Ġbuus": 2788,
      "Ġopsch": 2789,
      "Ġpre": 2790,
      "Ġveurdat": 2791,
      "Ġschaar": 2792,
      "ĠBoer": 2793,
      "Ã¶rgens": 2794,
      "Ġdenkt": 2795,
      "Ġnoamen": 2796,
      "Ġvraauwlu": 2797,
      "Ġmaggen": 2798,
      "'.": 2799,
      "Dus": 2800,
      "Eerst": 2801,
      "sdag": 2802,
      "to": 2803,
      "Ġooit": 2804,
      "Ġgeef": 2805,
      "Ġlege": 2806,
      "Ġstoat": 2807,
      "ĠHet": 2808,
      "Ġongel": 2809,
      "ters": 2810,
      "Ġlest": 2811,
      "Ġkleuren": 2812,
      "ĠPuister": 2813,
      "ekende": 2814,
      "Ġ15": 2815,
      "inks": 2816,
      "Ġplezaaier": 2817,
      "ĠScheemde": 2818,
      "Bist": 2819,
      "Ester": 2820,
      "kieken": 2821,
      "ni": 2822,
      "utje": 2823,
      "vast": 2824,
      "erg": 2825,
      "Ġdoage": 2826,
      "Ġveu": 2827,
      "Ġbun": 2828,
      "Ġzodat": 2829,
      "ĠDet": 2830,
      "ĠDit": 2831,
      "Ġblief": 2832,
      "uurde": 2833,
      "Ġveuls": 2834,
      "Ġkost": 2835,
      "Ġwaarkt": 2836,
      "Ġbenoam": 2837,
      "Ġbedocht": 2838,
      "arry": 2839,
      "Ġbord": 2840,
      "OA": 2841,
      "Pr": 2842,
      "voaren": 2843,
      "Ġnood": 2844,
      "ĠwÃ¨l": 2845,
      "Ġopt": 2846,
      "Ġaankommen": 2847,
      "eed": 2848,
      "ĠAr": 2849,
      "Ġdreug": 2850,
      "Ġtoene": 2851,
      "Ġnuimen": 2852,
      "Ġstokje": 2853,
      "Ġbegreep": 2854,
      "ĠDuuts": 2855,
      "inten": 2856,
      "elf": 2857,
      "unde": 2858,
      "ĠHeur": 2859,
      "Ġoetst": 2860,
      "adres": 2861,
      "Ġblaauwe": 2862,
      "Ġplan": 2863,
      "komen": 2864,
      "Ġvoaker": 2865,
      "Ġleggen": 2866,
      "Ġvroagd": 2867,
      "ĠmÃ¬ns": 2868,
      "KREUZE": 2869,
      "mel": 2870,
      "vels": 2871,
      "waarken": 2872,
      "Ġbeurt": 2873,
      "Ġgolden": 2874,
      "Ġstel": 2875,
      "Ġrol": 2876,
      "Ġoma": 2877,
      "Ã¬nt": 2878,
      "Ġ12": 2879,
      "stroat": 2880,
      "ĠKloas": 2881,
      "Ġhadden": 2882,
      "Ġechte": 2883,
      "Ġlaidjes": 2884,
      "Ġbloumen": 2885,
      "ĠJohan": 2886,
      "Ġwebstee": 2887,
      "azze": 2888,
      "eeg": 2889,
      "Ġmaar": 2890,
      "opus": 2891,
      "ĠWel": 2892,
      "ĠKon": 2893,
      "Ġmeert": 2894,
      "ĠLeven": 2895,
      "biel": 2896,
      "Ġdreum": 2897,
      "Ġbuurt": 2898,
      "ploats": 2899,
      "Ġhaals": 2900,
      "ĠGezienus": 2901,
      "ĠDetmers": 2902,
      "ha": 2903,
      "oze": 2904,
      "Ġroar": 2905,
      "Ġderbie": 2906,
      "opte": 2907,
      "uni": 2908,
      "ipt": 2909,
      "Ġswaarde": 2910,
      "Ġbetaiken": 2911,
      "Ġbezuik": 2912,
      "Ġbewegen": 2913,
      "Toun": 2914,
      "zz": 2915,
      "Ġwien": 2916,
      "Ġtoalen": 2917,
      "Ġthe": 2918,
      "Ġzegen": 2919,
      "Ġzoaken": 2920,
      "Ġluipen": 2921,
      "org": 2922,
      "Ġpries": 2923,
      "ĠGl": 2924,
      "Ġvrunden": 2925,
      "ĠSw": 2926,
      "ĠAes": 2927,
      "Ġtraauwd": 2928,
      "ĠStr": 2929,
      "Ġglad": 2930,
      "Ġgruine": 2931,
      "Ġaaier": 2932,
      "Ġschienboar": 2933,
      "Ġmoment": 2934,
      "ĠAesopus": 2935,
      "oaver": 2936,
      "Ġwar": 2937,
      "Ġwaist": 2938,
      "Ġveld": 2939,
      "Ġmij": 2940,
      "Ġzoal": 2941,
      "Ġsep": 2942,
      "Ġopz": 2943,
      "Ġjim": 2944,
      "gem": 2945,
      "uske": 2946,
      "aalm": 2947,
      "Ġbrood": 2948,
      "Ġolde": 2949,
      "izz": 2950,
      "Ġverhoaltjes": 2951,
      "ĠMaria": 2952,
      "Ġbloum": 2953,
      "Ġvoetbal": 2954,
      "ibb": 2955,
      "Ġdis": 2956,
      "Ġnovember": 2957,
      "ieven": 2958,
      "eudel": 2959,
      "Ġgoed": 2960,
      "eger": 2961,
      "Ġgespr": 2962,
      "Ġoetz": 2963,
      "Ġdruk": 2964,
      "idt": 2965,
      "Ġvlouer": 2966,
      "isten": 2967,
      "Ġmement": 2968,
      "ĠNederlaand": 2969,
      "Ġtillefoon": 2970,
      "Noar": 2971,
      "Toch": 2972,
      "ow": 2973,
      "Ġnust": 2974,
      "Ġnaacht": 2975,
      "Ġweken": 2976,
      "ĠmÃ¶rn": 2977,
      "stad": 2978,
      "Ġbien": 2979,
      "gend": 2980,
      "Ġem": 2981,
      "Ġverm": 2982,
      "aanzen": 2983,
      "repen": 2984,
      "...)": 2985,
      "ĠTer": 2986,
      "edde": 2987,
      "Ġgebeurd": 2988,
      "otterdag": 2989,
      "Ġzwoar": 2990,
      "Ġneus": 2991,
      "Ġpakt": 2992,
      "iedroagen": 2993,
      "boer": 2994,
      "ja": 2995,
      "ĠÃ²l": 2996,
      "erste": 2997,
      "Ġmoat": 2998,
      "Ġzijn": 2999,
      "insch": 3000,
      "Ġopp": 3001,
      "Ġaanb": 3002,
      "Ġjul": 3003,
      "oans": 3004,
      "Ã¶s": 3005,
      "achte": 3006,
      "Ġzaik": 3007,
      "ĠLai": 3008,
      "Ġvlak": 3009,
      "zulfde": 3010,
      "Ġrook": 3011,
      "Ġrechts": 3012,
      "gedureg": 3013,
      "Ġpepier": 3014,
      "WÃ¨l": 3015,
      "boksem": 3016,
      "gier": 3017,
      "woagen": 3018,
      "Ġzeten": 3019,
      "Ġbaist": 3020,
      "iter": 3021,
      "iteit": 3022,
      "ient": 3023,
      "dek": 3024,
      "ĠBakker": 3025,
      "ĠAp": 3026,
      "oorlog": 3027,
      "ĠPoar": 3028,
      "Ġminsk": 3029,
      "Doarom": 3030,
      "Ġhondje": 3031,
      "________": 3032,
      "Ġvandoage": 3033,
      "Goa": 3034,
      "huus": 3035,
      "keer": 3036,
      "licht": 3037,
      "tie": 3038,
      "wol": 3039,
      "oup": 3040,
      "ĠGees": 3041,
      "tember": 3042,
      "ĠRed": 3043,
      "droagen": 3044,
      "grond": 3045,
      "Ġapril": 3046,
      "stroa": 3047,
      "Grunneg": 3048,
      "irreg": 3049,
      "Ġaandacht": 3050,
      "ck": 3051,
      "kie": 3052,
      "oft": 3053,
      "Ġwaar": 3054,
      "Ġwees": 3055,
      "Ġbuut": 3056,
      "Ġgang": 3057,
      "Ġjuust": 3058,
      "Ġderop": 3059,
      "leek": 3060,
      "Ġschuur": 3061,
      "ĠMaarhuis": 3062,
      "gemans": 3063,
      "Ġlewaai": 3064,
      "oakob": 3065,
      "ĠZien": 3066,
      "Ġ17": 3067,
      "Opa": 3068,
      "ĠCoby": 3069,
      "legoa": 3070,
      "Ġleuven": 3071,
      "ĠWeggemans": 3072,
      "?\"": 3073,
      "Binnen": 3074,
      "loos": 3075,
      "Ġzom": 3076,
      "Ġkle": 3077,
      "Ġstak": 3078,
      "Ġonver": 3079,
      "ĠTe": 3080,
      "Ġtrap": 3081,
      "Ġterwiel": 3082,
      "Ġlegde": 3083,
      "All": 3084,
      "zetten": 3085,
      "Ġbaarg": 3086,
      "haile": 3087,
      "Jong": 3088,
      "Pl": 3089,
      "dom": 3090,
      "tj": 3091,
      "erk": 3092,
      "Ġhoezen": 3093,
      "Ġhoald": 3094,
      "Ġende": 3095,
      "Ġverleden": 3096,
      "Ġveuroet": 3097,
      "opsturen": 3098,
      "ĠSte": 3099,
      "ĠKees": 3100,
      "sters": 3101,
      "anger": 3102,
      "Ġvotdoalek": 3103,
      "sland": 3104,
      "Ġcon": 3105,
      "Ġjannewoarie": 3106,
      "moa": 3107,
      "Ġvingers": 3108,
      "Ġzak": 3109,
      "Ġkaast": 3110,
      "Ġgerd": 3111,
      "ilj": 3112,
      "vern": 3113,
      "Ġklaaier": 3114,
      "Ġgainain": 3115,
      "nes": 3116,
      "immer": 3117,
      "ippen": 3118,
      "Ġzette": 3119,
      "Ġlangzoam": 3120,
      "Meschain": 3121,
      "Be": 3122,
      "heb": 3123,
      "Ġnuig": 3124,
      "Ġvout": 3125,
      "Ġhong": 3126,
      "Ġstopt": 3127,
      "oeven": 3128,
      "Ġkomst": 3129,
      "Ġbegunde": 3130,
      "Ġmooiste": 3131,
      "Ġroeg": 3132,
      "Ġgenogt": 3133,
      "Ġboerderij": 3134,
      "sema": 3135,
      "Ġpotje": 3136,
      "ĠKnoal": 3137,
      "Ġradio": 3138,
      "Ġkilom": 3139,
      "Ġkirrel": 3140,
      "Sn": 3141,
      "ay": 3142,
      "wam": 3143,
      "Ġdu": 3144,
      "Ġhulp": 3145,
      "Ġlees": 3146,
      "ets": 3147,
      "Ġjeugd": 3148,
      "Ġvrouw": 3149,
      "ĠBel": 3150,
      "ĠBiedroagen": 3151,
      "schaaid": 3152,
      "Ġdoarbie": 3153,
      "rieden": 3154,
      "ĠTwij": 3155,
      "Ġkopke": 3156,
      "Ġduurde": 3157,
      "Ġkiener": 3158,
      "Ġluustern": 3159,
      "appels": 3160,
      "Ġdomie": 3161,
      "Ġslecht": 3162,
      "Ġseptember": 3163,
      "mis": 3164,
      "rik": 3165,
      "Ġzotterdag": 3166,
      "eling": 3167,
      "atten": 3168,
      "Ġloos": 3169,
      "Ġopr": 3170,
      "Ġveuren": 3171,
      "ĠGoa": 3172,
      "ĠDikke": 3173,
      "amer": 3174,
      "ĠMen": 3175,
      "oakels": 3176,
      "achts": 3177,
      "ĠZw": 3178,
      "Ġgeluk": 3179,
      "Ġsmok": 3180,
      "Ġverdain": 3181,
      "Ġnuim": 3182,
      "Ġregel": 3183,
      "Ġraais": 3184,
      "Ġbosschoppen": 3185,
      "ST": 3186,
      "ec": 3187,
      "goam": 3188,
      "Ġdi": 3189,
      "Ġhal": 3190,
      "Ġgas": 3191,
      "oareg": 3192,
      "its": 3193,
      "orie": 3194,
      "ĠvanÃ²f": 3195,
      "Ġstoule": 3196,
      "Ġpost": 3197,
      "Ġschip": 3198,
      "oanse": 3199,
      "ĠMout": 3200,
      "ĠOver": 3201,
      "Ġsloagen": 3202,
      "ĠIN": 3203,
      "angst": 3204,
      "asten": 3205,
      "Ġrechter": 3206,
      "stried": 3207,
      "ĠKlomp": 3208,
      "Ġbekieken": 3209,
      "Ġlaanger": 3210,
      "Ġspeult": 3211,
      "Ġhinne": 3212,
      "====": 3213,
      "18": 3214,
      "Loater": 3215,
      "Men": 3216,
      "Nane": 3217,
      "Sp": 3218,
      "Zulf": 3219,
      "act": 3220,
      "doan": 3221,
      "hoezen": 3222,
      "vie": 3223,
      "wor": 3224,
      "ĠčĊ": 3225,
      "Ġwand": 3226,
      "anken": 3227,
      "Ġbellen": 3228,
      "Ġdei": 3229,
      "Ġrunnen": 3230,
      "Ġonb": 3231,
      "Ġgesch": 3232,
      "rieken": 3233,
      "ĠJoop": 3234,
      "Ġbrand": 3235,
      "Ġhounder": 3236,
      "Ġ21": 3237,
      "Ġgelukkeg": 3238,
      "Ġswien": 3239,
      "Ġscholders": 3240,
      "Ġmeroakel": 3241,
      "Ġnaargens": 3242,
      "Ġvekaanzie": 3243,
      "Ġgezelleg": 3244,
      "ĠRedaksie": 3245,
      "Niks": 3246,
      "OL": 3247,
      "Tegen": 3248,
      "iede": 3249,
      "ĠkÃ¶": 3250,
      "Ġlinks": 3251,
      "aard": 3252,
      "aantje": 3253,
      "Ġalder": 3254,
      "Ġwief": 3255,
      "ummers": 3256,
      "Ġtrokken": 3257,
      "Ġtrekken": 3258,
      "Ġknijen": 3259,
      "Ġbetoalen": 3260,
      "efoon": 3261,
      "AI": 3262,
      "Mooi": 3263,
      "bt": 3264,
      "mood": 3265,
      "wege": 3266,
      "Ġraand": 3267,
      "Ġjeu": 3268,
      "ĠGiny": 3269,
      "ĠDren": 3270,
      "ĠBouk": 3271,
      "Ġdoarveur": 3272,
      "riep": 3273,
      "Ġdink": 3274,
      "Ġtrekt": 3275,
      "immen": 3276,
      "Ġdook": 3277,
      "Ġnetuur": 3278,
      "uustern": 3279,
      "Ġelks": 3280,
      "Ġhailendaal": 3281,
      "toal": 3282,
      "Ġ=": 3283,
      "Ġvil": 3284,
      "Ġkaande": 3285,
      "Ġloader": 3286,
      "ord": 3287,
      "oners": 3288,
      "ogr": 3289,
      "aanten": 3290,
      "Ġveurege": 3291,
      "ĠDeur": 3292,
      "ĠDuisterwinkel": 3293,
      "ĠMe": 3294,
      "ichtje": 3295,
      "terkloas": 3296,
      "Ġbloots": 3297,
      "ĠOost": 3298,
      "iets": 3299,
      "Ġtraauwen": 3300,
      "Ġnoaber": 3301,
      "urop": 3302,
      "Ġwolken": 3303,
      "Ġtwie": 3304,
      "Ġglas": 3305,
      "ĠOpa": 3306,
      "Ġwaarmte": 3307,
      "volg": 3308,
      "Ġnijsgier": 3309,
      "Ġstreek": 3310,
      "Ġjonkje": 3311,
      "ĠKlompien": 3312,
      "ĠRedaksieadres": 3313,
      "Ja": 3314,
      "burg": 3315,
      "anje": 3316,
      "Ġvoar": 3317,
      "Ġmel": 3318,
      "Ġzuch": 3319,
      "Ġkolle": 3320,
      "chie": 3321,
      "oares": 3322,
      "orn": 3323,
      "ije": 3324,
      "ommer": 3325,
      "Ġstoppen": 3326,
      "Ġpoe": 3327,
      "opke": 3328,
      "ĠWinsch": 3329,
      "Ġalt": 3330,
      "ĠKREUZE": 3331,
      "Ã¶rt": 3332,
      "ĠPekel": 3333,
      "ses": 3334,
      "ĠEven": 3335,
      "Ġgevol": 3336,
      "ankje": 3337,
      "hollen": 3338,
      "volk": 3339,
      "Ġduurt": 3340,
      "Ġbuurman": 3341,
      "Ġraaize": 3342,
      "Mag": 3343,
      "Weer": 3344,
      "Want": 3345,
      "mmen": 3346,
      "ub": 3347,
      "Ġdaarde": 3348,
      "Ġnon": 3349,
      "ansie": 3350,
      "Ġmoud": 3351,
      "outen": 3352,
      "âĢĶ": 3353,
      "Ġstond": 3354,
      "ikte": 3355,
      "ĠHart": 3356,
      "ĠHoit": 3357,
      "ĠBeg": 3358,
      "sterd": 3359,
      "Ġkroug": 3360,
      "ĠLe": 3361,
      "ĠLeek": 3362,
      "kerel": 3363,
      "Ã¬ns": 3364,
      "Ġwild": 3365,
      "Ġhaildal": 3366,
      "Ġplek": 3367,
      "Ġaarb": 3368,
      "ĠCh": 3369,
      "ovven": 3370,
      "Ġverschaaiden": 3371,
      "Ġstukje": 3372,
      "Ġthuus": 3373,
      "Ġpersoon": 3374,
      "Ġfilm": 3375,
      "ĠHoiting": 3376,
      "Jans": 3377,
      "bed": 3378,
      "ew": 3379,
      "woorden": 3380,
      "Ġvaaileg": 3381,
      "Ġzoak": 3382,
      "Ġzigt": 3383,
      "Ġbal": 3384,
      "chten": 3385,
      "Ġintern": 3386,
      "Ġaanp": 3387,
      "Ġvrez": 3388,
      "Ġboot": 3389,
      "ĠNait": 3390,
      "ĠOa": 3391,
      "Ġbruu": 3392,
      "aaiert": 3393,
      "Ġeerliek": 3394,
      "Ġ16": 3395,
      "Ġliggoam": 3396,
      "Ġhailemoal": 3397,
      "ounent": 3398,
      "ĠHenri": 3399,
      "Boeten": 3400,
      "Hol": 3401,
      "azen": 3402,
      "kiek": 3403,
      "Ġun": 3404,
      "Ġdainst": 3405,
      "Ġwaain": 3406,
      "Ġkap": 3407,
      "Ġkant": 3408,
      "Ġbar": 3409,
      "Ġgijt": 3410,
      "Ġmitnemen": 3411,
      "Ġrek": 3412,
      "ĠHoog": 3413,
      "Ġals": 3414,
      "Ã¶zzen": 3415,
      "uurd": 3416,
      "Ġprachteg": 3417,
      "Ġtegenover": 3418,
      "ĠEde": 3419,
      "Ġterogge": 3420,
      "brocht": 3421,
      "Ġbestaait": 3422,
      "Ġokto": 3423,
      "Ġvonnen": 3424,
      "Ġvatteg": 3425,
      "Ġveujoar": 3426,
      "Ġoktober": 3427,
      "Ach": 3428,
      "ake": 3429,
      "haal": 3430,
      "hand": 3431,
      "zuik": 3432,
      "Ġeul": 3433,
      "Ġbad": 3434,
      "ette": 3435,
      "Ġsek": 3436,
      "Ġdatteg": 3437,
      "Ġeet": 3438,
      "ĠOoster": 3439,
      "kert": 3440,
      "urrie": 3441,
      "Ġsnoet": 3442,
      "Ã©n": 3443,
      "heid": 3444,
      "ĠGerrit": 3445,
      "stieds": 3446,
      "Ġteksten": 3447,
      "Ġcomputer": 3448,
      "Ġjuli": 3449,
      "10": 3450,
      "11": 3451,
      "Ok": 3452,
      "Waist": 3453,
      "bÃ¶rg": 3454,
      "delk": 3455,
      "taiken": 3456,
      "Ġnor": 3457,
      "Ġwij": 3458,
      "Ġvinger": 3459,
      "Ġhor": 3460,
      "Ġkep": 3461,
      "Ġbaal": 3462,
      "Ġsoms": 3463,
      "orren": 3464,
      "Ġpoot": 3465,
      "ara": 3466,
      "oatje": 3467,
      "oatjes": 3468,
      "Ġvre": 3469,
      "ĠBÃ©": 3470,
      "ĠBerend": 3471,
      "Ġdoarnoa": 3472,
      "ĠVeld": 3473,
      "riever": 3474,
      "Ġmobiel": 3475,
      "Ġdroad": 3476,
      "ĠGrode": 3477,
      "Ġprakke": 3478,
      "ĠÃ²fw": 3479,
      "Ġ...'": 3480,
      "vrouw": 3481,
      "Ġgezond": 3482,
      "Ġstilte": 3483,
      "ĠVraauw": 3484,
      "Ġdochde": 3485,
      "onges": 3486,
      "lipje": 3487,
      "Henk": 3488,
      "bo": 3489,
      "hil": 3490,
      "rek": 3491,
      "Ĵf": 3492,
      "Ġnemt": 3493,
      "Ġvond": 3494,
      "stel": 3495,
      "elis": 3496,
      "Ġlange": 3497,
      "Ġvanoet": 3498,
      "Ġpu": 3499,
      "oalde": 3500,
      "ĠGaait": 3501,
      "uif": 3502,
      "ĠBinnen": 3503,
      "gew": 3504,
      "Ġklain": 3505,
      "Ġdraait": 3506,
      "Ġstroom": 3507,
      "ouger": 3508,
      "Ġstille": 3509,
      "arts": 3510,
      "deure": 3511,
      "ĠGerhard": 3512,
      "Ġpersies": 3513,
      "Ġschient": 3514,
      "Ġvervast": 3515,
      "Ġvandoan": 3516,
      "Ġpervinzie": 3517,
      "17": 3518,
      "Zel": 3519,
      "douk": 3520,
      "ein": 3521,
      "keken": 3522,
      "tou": 3523,
      "Ġheden": 3524,
      "Ġkar": 3525,
      "Ġgul": 3526,
      "ougen": 3527,
      "Ġleer": 3528,
      "ittje": 3529,
      "Ġaanst": 3530,
      "Ġrommel": 3531,
      "Ġex": 3532,
      "ĠHar": 3533,
      "iere": 3534,
      "ĠVis": 3535,
      "Ġslagt": 3536,
      "apte": 3537,
      "ĠÃ²flopen": 3538,
      "Ġdrokte": 3539,
      "Ġtelefoon": 3540,
      "Ġsloapkoamer": 3541,
      "baank": 3542,
      "ce": 3543,
      "fl": 3544,
      "kamp": 3545,
      "wold": 3546,
      "yn": 3547,
      "Ġuit": 3548,
      "Ġdaag": 3549,
      "Ġdunder": 3550,
      "Ġhangt": 3551,
      "Ġbaange": 3552,
      "ĠbÃ¶rg": 3553,
      "denk": 3554,
      "Ġaang": 3555,
      "Ġveurzichteg": 3556,
      "Ġschoap": 3557,
      "ĠGing": 3558,
      "ĠHier": 3559,
      "ĠHoag": 3560,
      "age": 3561,
      "ĠSm": 3562,
      "Ġbod": 3563,
      "Ġmanlu": 3564,
      "spul": 3565,
      "legd": 3566,
      "leggen": 3567,
      "ultuur": 3568,
      "ĠDuutse": 3569,
      "zendbraif": 3570,
      "anneer": 3571,
      "Ġgrieze": 3572,
      "Ġgesprek": 3573,
      "Ben": 3574,
      "hem": 3575,
      "keld": 3576,
      "kaande": 3577,
      "uper": 3578,
      "erel": 3579,
      "Ġvez": 3580,
      "Ġhok": 3581,
      "Ġzucht": 3582,
      "Ġbleek": 3583,
      "Ġlieden": 3584,
      "Ġpoten": 3585,
      "Ġverjoar": 3586,
      "Ġnogal": 3587,
      "Ã¶dde": 3588,
      "rect": 3589,
      "gev": 3590,
      "Ġaing": 3591,
      "Ġbruken": 3592,
      "Ġtwaalf": 3593,
      "velde": 3594,
      "azzens": 3595,
      "Ġgebeurde": 3596,
      "Ġsprong": 3597,
      "Ġspreken": 3598,
      "Ġverloren": 3599,
      "ĠTriene": 3600,
      "Ġspeulde": 3601,
      "schienlek": 3602,
      "Kinst": 3603,
      "Ġherinnerns": 3604,
      "Hebben": 3605,
      "visie": 3606,
      "Ġzaikenhoes": 3607,
      "Ġzomor": 3608,
      ",\"": 3609,
      "14": 3610,
      "feest": 3611,
      "goa": 3612,
      "hok": 3613,
      "ioal": 3614,
      "lop": 3615,
      "ple": 3616,
      "Ġnek": 3617,
      "anner": 3618,
      "Ġhoofd": 3619,
      "ina": 3620,
      "inde": 3621,
      "Ġbul": 3622,
      "oars": 3623,
      "Ġlas": 3624,
      "itten": 3625,
      "Ġsold": 3626,
      "Ġjuni": 3627,
      "Ġveurstellen": 3628,
      "Ġscheu": 3629,
      "Ġond": 3630,
      "Ġdeuren": 3631,
      "Ã¶rf": 3632,
      "Ġgainaine": 3633,
      "Ġsluig": 3634,
      "umm": 3635,
      "Ġtwin": 3636,
      "Ġdaipe": 3637,
      "Ġneuze": 3638,
      "swoord": 3639,
      "sproken": 3640,
      "uvver": 3641,
      "Ġkilometer": 3642,
      "16": 3643,
      "Lu": 3644,
      "ras": 3645,
      "si": 3646,
      "Ġdas": 3647,
      "Ġdank": 3648,
      "aigen": 3649,
      "Ġwink": 3650,
      "Ġler": 3651,
      "Ġluk": 3652,
      "Ġlinker": 3653,
      "orge": 3654,
      "Ġopst": 3655,
      "dere": 3656,
      "Ġrogge": 3657,
      "Ġschounen": 3658,
      "ĠWordt": 3659,
      "Ġvrem": 3660,
      "oost": 3661,
      "ĠPet": 3662,
      "utter": 3663,
      "Ã¬nten": 3664,
      "Ġachteraan": 3665,
      "Ġachteroet": 3666,
      "sies": 3667,
      "Ġvlug": 3668,
      "Ġdoezend": 3669,
      "stra": 3670,
      "Ġlanger": 3671,
      "Ġvindt": 3672,
      "Ġvrije": 3673,
      "Ã«n": 3674,
      "Ġscholder": 3675,
      "assa": 3676,
      "Ġschrieverij": 3677,
      "Ġvrumd": 3678,
      "entrum": 3679,
      "az": 3680,
      "ide": 3681,
      "ende": 3682,
      "oazie": 3683,
      "Ġvaal": 3684,
      "Ġmuz": 3685,
      "Ġtaauw": 3686,
      "Ġhek": 3687,
      "Ġkiend": 3688,
      "insen": 3689,
      "elp": 3690,
      "elder": 3691,
      "Ġstof": 3692,
      "ĠstÃ¶rm": 3693,
      "Ġind": 3694,
      "Ġschiet": 3695,
      "ulm": 3696,
      "Ġdeurgoan": 3697,
      "Ġdraaien": 3698,
      "ĠTekst": 3699,
      "Ã¨st": 3700,
      "ĠLuchten": 3701,
      "Ġtoer": 3702,
      "Ġstrand": 3703,
      "Ġzuneg": 3704,
      "Ġwuiren": 3705,
      "Ġverboasd": 3706,
      "elleke": 3707,
      "Elke": 3708,
      "Ġdreuge": 3709,
      "Ġlaagt": 3710,
      "Ġwozzen": 3711,
      "âĢĶâĢĶ": 3712,
      "Ġtwinteg": 3713,
      "ĠLuchtenberg": 3714,
      "50": 3715,
      "Sm": 3716,
      "ovv": 3717,
      "uzen": 3718,
      "zÃ¶lf": 3719,
      "Ġ:": 3720,
      "aive": 3721,
      "Ġmainen": 3722,
      "Ġste": 3723,
      "Ġpaast": 3724,
      "oeze": 3725,
      "ĠWim": 3726,
      "ĠDelf": 3727,
      "ĠVuil": 3728,
      "ĠZun": 3729,
      "Ġdinken": 3730,
      "ĠLaif": 3731,
      "Ġplak": 3732,
      "Ġlevens": 3733,
      "Ġmenuten": 3734,
      "Ġholten": 3735,
      "Ã¨ld": 3736,
      "Ġschrik": 3737,
      "Ġlegd": 3738,
      "Ġ194": 3739,
      "Ġfluuster": 3740,
      "Ġmeroakels": 3741,
      "ĠÃ¬nd": 3742,
      "Gelukkeg": 3743,
      "unny": 3744,
      "Ġprobleem": 3745,
      "Ġwaaineg": 3746,
      "EL": 3747,
      "Kon": 3748,
      "Most": 3749,
      "baauw": 3750,
      "bren": 3751,
      "oh": 3752,
      "uze": 3753,
      "vver": 3754,
      "erv": 3755,
      "Ġdaar": 3756,
      "aim": 3757,
      "Ġwegen": 3758,
      "oarde": 3759,
      "Ġla": 3760,
      "Ġstand": 3761,
      "Ġroak": 3762,
      "Ġversl": 3763,
      "Ġalweer": 3764,
      "ooien": 3765,
      "ĠKat": 3766,
      "Ġdoarmit": 3767,
      "ĠJoakob": 3768,
      "ĠAmer": 3769,
      "Ġdroagen": 3770,
      "Ġspiek": 3771,
      "ĠTE": 3772,
      "apke": 3773,
      "appel": 3774,
      "ĠLoat": 3775,
      "Ġrondzendbraif": 3776,
      "Ġverstoan": 3777,
      "Ġverstand": 3778,
      "hoff": 3779,
      "Ġkollegoa": 3780,
      "Roel": 3781,
      "ium": 3782,
      "wotter": 3783,
      "winter": 3784,
      "inne": 3785,
      "Ġboan": 3786,
      "Ġbaauw": 3787,
      "olf": 3788,
      "Ġpie": 3789,
      "Ġjoagen": 3790,
      "Ġversw": 3791,
      "Ġverkl": 3792,
      "unders": 3793,
      "eboom": 3794,
      "Ġheurden": 3795,
      "Ġbevr": 3796,
      "ĠBern": 3797,
      "ĠKiek": 3798,
      "ĠOok": 3799,
      "Ġkontr": 3800,
      "Ġwoarhaid": 3801,
      "Ġolders": 3802,
      "angs": 3803,
      "Ġ13": 3804,
      "Ġvertelt": 3805,
      "off": 3806,
      "Ġbenaauwd": 3807,
      "artin": 3808,
      "trokken": 3809,
      "Ġschrok": 3810,
      "holder": 3811,
      "oezend": 3812,
      "Ġredden": 3813,
      "Ġkatten": 3814,
      "Ġgroter": 3815,
      "Ġvrundelk": 3816,
      "Ġmainste": 3817,
      "Ġvrumde": 3818,
      "Ġvienden": 3819,
      "Ġaingoal": 3820,
      "12": 3821,
      "ds": 3822,
      "gl": 3823,
      "kje": 3824,
      "ĠY": 3825,
      "erij": 3826,
      "ĠvÃ¶rm": 3827,
      "Ġhakken": 3828,
      "ompen": 3829,
      "Ġinter": 3830,
      "Ġronde": 3831,
      "aanje": 3832,
      "uum": 3833,
      "uutje": 3834,
      "Ġschut": 3835,
      "Ġschuld": 3836,
      "ĠHil": 3837,
      "uier": 3838,
      "ĠSn": 3839,
      "ĠMoar": 3840,
      "Ġoverl": 3841,
      "Ġaalgedureg": 3842,
      "adden": 3843,
      "adio": 3844,
      "Ġaiw": 3845,
      "Ġnoabers": 3846,
      "Ġlaipen": 3847,
      "Ġswoar": 3848,
      "blik": 3849,
      "amping": 3850,
      "Ġvanzulfs": 3851,
      "Aine": 3852,
      "ĠkÃ¶rte": 3853,
      "Ġvertraauwen": 3854,
      "Ġkammeroaden": 3855,
      "Ġtillevisie": 3856,
      "Ġhttps": 3857,
      "Ġfeber": 3858,
      "Ġstevels": 3859,
      "ĠVeldhuis": 3860,
      "Ġverjoardag": 3861,
      "Fr": 3862,
      "kinder": 3863,
      "nem": 3864,
      "rels": 3865,
      "ss": 3866,
      "vat": 3867,
      "Ġvia": 3868,
      "iezen": 3869,
      "Ġkaggel": 3870,
      "stoal": 3871,
      "ijs": 3872,
      "Ġpuut": 3873,
      "lezen": 3874,
      "ĠHest": 3875,
      "ĠDizze": 3876,
      "Ġvreten": 3877,
      "oand": 3878,
      "tensh": 3879,
      "meneer": 3880,
      "ĠNoorden": 3881,
      "Ġbroene": 3882,
      "tieds": 3883,
      "Ġwolf": 3884,
      "Ġverhoes": 3885,
      "Ġbeleven": 3886,
      "oadern": 3887,
      "Ġverkeerd": 3888,
      "Ġverkocht": 3889,
      "ĠVrai": 3890,
      "Ġmiddel": 3891,
      "Ġriege": 3892,
      "Ġmotor": 3893,
      "Ġbuurvraauw": 3894,
      "oadem": 3895,
      "Ġzaachte": 3896,
      "Ġnoatuur": 3897,
      "Anna": 3898,
      "Ġgung": 3899,
      "ĠlÃ¨ste": 3900,
      "Ġkepot": 3901,
      "swoordeg": 3902,
      "Ale": 3903,
      "dailen": 3904,
      "hoald": 3905,
      "ige": 3906,
      "mÃ¶rgen": 3907,
      "erm": 3908,
      "Ġdomm": 3909,
      "Ġmamme": 3910,
      "stok": 3911,
      "euk": 3912,
      "eunen": 3913,
      "ĠgÃ¶n": 3914,
      "Ġstom": 3915,
      "Ġpop": 3916,
      "Ġezel": 3917,
      "ĠWest": 3918,
      "ĠHarry": 3919,
      "Ġonn": 3920,
      "Ġgeel": 3921,
      "Ġhaarde": 3922,
      "ĠAd": 3923,
      "Ġkracht": 3924,
      "Ġ14": 3925,
      "Ġnoamelk": 3926,
      "Ġverschillen": 3927,
      "ĠOldam": 3928,
      "Elkenain": 3929,
      "waarp": 3930,
      "ĠVliet": 3931,
      "Ġstoapel": 3932,
      "ĠDagblad": 3933,
      "Volgens": 3934,
      "mesien": 3935,
      "ĠWinschoot": 3936,
      "ĠHartman": 3937,
      "13": 3938,
      "15": 3939,
      "Ter": 3940,
      "mÃ¶rn": 3941,
      "ra": 3942,
      "ts": 3943,
      "Ġdust": 3944,
      "Ġduren": 3945,
      "Ġvent": 3946,
      "Ġmoes": 3947,
      "Ġho": 3948,
      "Ġhil": 3949,
      "ĠzÃ¨": 3950,
      "inus": 3951,
      "Ġband": 3952,
      "Ġist": 3953,
      "Ġleest": 3954,
      "onn": 3955,
      "Ġstam": 3956,
      "Ġsteern": 3957,
      "Ġpet": 3958,
      "okkel": 3959,
      "oede": 3960,
      "Ġomgeven": 3961,
      "akte": 3962,
      "ĠAtensh": 3963,
      "ĠOaf": 3964,
      "Ġbraide": 3965,
      "Ġsport": 3966,
      "Ġkrig": 3967,
      "Ġterecht": 3968,
      "Ġonderwegens": 3969,
      "Ġbetr": 3970,
      "ĠHail": 3971,
      "ĠOpmoak": 3972,
      "Ġspringen": 3973,
      "Ġstukken": 3974,
      "oatsies": 3975,
      "Ġbruiers": 3976,
      "Ġborst": 3977,
      "schrift": 3978,
      "Ġ114": 3979,
      "Ġbruukt": 3980,
      "ĠAtensheerd": 3981,
      "geld": 3982,
      "xs": 3983,
      "zinger": 3984,
      "Ġwen": 3985,
      "Ġhonden": 3986,
      "Ġkoart": 3987,
      "Ġkadde": 3988,
      "Ġkassa": 3989,
      "older": 3990,
      "ots": 3991,
      "ĠDiek": 3992,
      "ichter": 3993,
      "ĠKar": 3994,
      "ĠKuip": 3995,
      "elks": 3996,
      "Ġkwoa": 3997,
      "Ġdraai": 3998,
      "ĠOnder": 3999,
      "ĠLiekt": 4000,
      "Ġprachtege": 4001,
      "ĠRieks": 4002,
      "ĠJans": 4003,
      "speul": 4004,
      "Ġreaksie": 4005,
      "Ġglaas": 4006,
      "Ġswait": 4007,
      "Ġkiekt": 4008,
      "ĠBertus": 4009,
      "Ġhoger": 4010,
      "ĠDerk": 4011,
      "Ġhuift": 4012,
      "Ġvekaansie": 4013,
      "nixs": 4014,
      "Ġhinneweer": 4015,
      "Ġgulden": 4016,
      "ioale": 4017,
      "laif": 4018,
      "par": 4019,
      "sj": 4020,
      "wer": 4021,
      "wed": 4022,
      "Ġdubb": 4023,
      "Ġneef": 4024,
      "Ġnomen": 4025,
      "ĠwÃ¬n": 4026,
      "ande": 4027,
      "Ġvij": 4028,
      "ieve": 4029,
      "Ġtoren": 4030,
      "Ġburen": 4031,
      "atter": 4032,
      "Ġlol": 4033,
      "egel": 4034,
      "Ġvandeur": 4035,
      "Ġdeze": 4036,
      "Ġopdr": 4037,
      "unten": 4038,
      "oatie": 4039,
      "ĠWant": 4040,
      "ĠHans": 4041,
      "menten": 4042,
      "Ġklap": 4043,
      "Ġbrug": 4044,
      "ĠPer": 4045,
      "keren": 4046,
      "Ġeerlieks": 4047,
      "Ġ25": 4048,
      "Ġcamping": 4049,
      "Ġfietst": 4050,
      "Ġhart": 4051,
      "Ġervoaren": 4052,
      "ĠVrij": 4053,
      "annes": 4054,
      "Ġmiddag": 4055,
      "Ġploatje": 4056,
      "Ġgezichte": 4057,
      "waars": 4058,
      "Ġzusters": 4059,
      "Ġbaargen": 4060,
      "ĠMidwolle": 4061,
      "Ġtiedens": 4062,
      "Ġroezie": 4063,
      "moodse": 4064,
      "Dien": 4065,
      "OE": 4066,
      "Vot": 4067,
      "dege": 4068,
      "hou": 4069,
      "mien": 4070,
      "noast": 4071,
      "rel": 4072,
      "Ġnu": 4073,
      "Ġmale": 4074,
      "Ġkaans": 4075,
      "elle": 4076,
      "Ġgn": 4077,
      "Ġopv": 4078,
      "Ġprie": 4079,
      "aarg": 4080,
      "Ġrit": 4081,
      "Ġschoun": 4082,
      "ĠHeer": 4083,
      "ĠMag": 4084,
      "Ã¶rns": 4085,
      "oame": 4086,
      "Ġbraid": 4087,
      "druk": 4088,
      "Ġvlogen": 4089,
      "Ġknup": 4090,
      "Ġgebaauw": 4091,
      "Ġell": 4092,
      "Ġverlet": 4093,
      "Ġlegt": 4094,
      "ĠBertil": 4095,
      "Ġproatje": 4096,
      "Ġverwachten": 4097,
      "kwart": 4098,
      "Ġgerust": 4099,
      "ĠAmeling": 4100,
      "dounde": 4101,
      "Drij": 4102,
      "Ġvrezelk": 4103,
      "ĠPetzinger": 4104,
      "Ġfeberwoarie": 4105,
      "ĠKuipers": 4106,
      "!âĢĿ,": 4107,
      "Hinderk": 4108,
      "ax": 4109,
      "co": 4110,
      "ochter": 4111,
      "raai": 4112,
      "rust": 4113,
      "ser": 4114,
      "ym": 4115,
      "Ġoam": 4116,
      "Ġnander": 4117,
      "Ġneem": 4118,
      "iegen": 4119,
      "Ġmuiken": 4120,
      "Ġhoan": 4121,
      "Ġzakken": 4122,
      "inden": 4123,
      "Ġbot": 4124,
      "ĠbÃ¨l": 4125,
      "Ġliter": 4126,
      "Ġpap": 4127,
      "Ġovert": 4128,
      "oorte": 4129,
      "Ġbroen": 4130,
      "ĠTiny": 4131,
      "ĠPait": 4132,
      "ĠPar": 4133,
      "Ġstro": 4134,
      "Ġkovver": 4135,
      "Ġreag": 4136,
      "Ġgebeurt": 4137,
      "Ġappel": 4138,
      "Ġgrootste": 4139,
      "ampier": 4140,
      "ubbe": 4141,
      "Ġmoggen": 4142,
      "Ġgemoud": 4143,
      "Ġhuif": 4144,
      "Ġ2007": 4145,
      "Ġgehaai": 4146,
      "Ġnijsgiereg": 4147,
      "Ġgevolgen": 4148,
      "Ġnormoal": 4149,
      "Ġvrede": 4150,
      "22": 4151,
      "mekoar": 4152,
      "Ġy": 4153,
      "Ġve": 4154,
      "Ġbekende": 4155,
      "Ġlaans": 4156,
      "egste": 4157,
      "Ġsteken": 4158,
      "Ġstekt": 4159,
      "Ġricht": 4160,
      "ĠWeer": 4161,
      "ami": 4162,
      "ĠSpr": 4163,
      "ĠAchter": 4164,
      "Ġdraank": 4165,
      "Ġslik": 4166,
      "Ġspannen": 4167,
      "Ġtrappen": 4168,
      "uro": 4169,
      "Ġbegrepen": 4170,
      "Ġploug": 4171,
      "Ġeerde": 4172,
      "Ġgloepen": 4173,
      "Ġschrievers": 4174,
      "trekken": 4175,
      "ĠKrEUZE": 4176,
      "Ġrieg": 4177,
      "Ġdreumen": 4178,
      "ĠWesterket": 4179,
      "ĠNoordhÃ¶rn": 4180,
      "Ġletter": 4181,
      "aceb": 4182,
      "ĠSunterkloas": 4183,
      "Ġveziede": 4184,
      "Goud": 4185,
      "IJ": 4186,
      "Mainst": 4187,
      "Piet": 4188,
      "hen": 4189,
      "her": 4190,
      "kelk": 4191,
      "laaiden": 4192,
      "po": 4193,
      "ris": 4194,
      "road": 4195,
      "erde": 4196,
      "ĠdÃ¶r": 4197,
      "aig": 4198,
      "aiven": 4199,
      "ĠwÃ¨st": 4200,
      "Ġmon": 4201,
      "Ġbotter": 4202,
      "orm": 4203,
      "iender": 4204,
      "Ġmitnomen": 4205,
      "unst": 4206,
      "iers": 4207,
      "schil": 4208,
      "Ġmienent": 4209,
      "ĠNien": 4210,
      "ĠLen": 4211,
      "Ġmouk": 4212,
      "Ġmoust": 4213,
      "idder": 4214,
      "Ġeerappels": 4215,
      "slaand": 4216,
      "Ġgele": 4217,
      "Ġgedou": 4218,
      "Ġharren": 4219,
      "Ġpazen": 4220,
      "Ġdochten": 4221,
      "Ġjongens": 4222,
      "anks": 4223,
      "onkje": 4224,
      "ĠNije": 4225,
      "oneel": 4226,
      "OLD": 4227,
      "We": 4228,
      "doe": 4229,
      "ius": 4230,
      "qu": 4231,
      "ude": 4232,
      "ube": 4233,
      "vogel": 4234,
      "wil": 4235,
      "zak": 4236,
      "zers": 4237,
      "Ġoaven": 4238,
      "Ġven": 4239,
      "Ġmed": 4240,
      "Ġtakken": 4241,
      "Ġhiel": 4242,
      "Ġhazzens": 4243,
      "Ġbok": 4244,
      "euken": 4245,
      "Ġaacht": 4246,
      "our": 4247,
      "destieds": 4248,
      "derdoad": 4249,
      "Ġstainen": 4250,
      "Ġpeerden": 4251,
      "Ġveurdeur": 4252,
      "arb": 4253,
      "Ġschaiten": 4254,
      "Ġasof": 4255,
      "Ġbejoar": 4256,
      "uigen": 4257,
      "ĠBer": 4258,
      "ĠBist": 4259,
      "schap": 4260,
      "ĠAander": 4261,
      "ĠNie": 4262,
      "ĠOns": 4263,
      "Ġspoor": 4264,
      "Ġkoppel": 4265,
      "ĠEr": 4266,
      "ĠEdens": 4267,
      "oadeg": 4268,
      "drukken": 4269,
      "Ġvlucht": 4270,
      "Ġtwijd": 4271,
      "Ġbedoulen": 4272,
      "Ġapper": 4273,
      "Ġappels": 4274,
      "Ġschrift": 4275,
      "Ġhelpt": 4276,
      "Ġwoonden": 4277,
      "Ġvieven": 4278,
      "Ġplest": 4279,
      "Ġbegriep": 4280,
      "Ġendelk": 4281,
      "Ġketaaier": 4282,
      "Ġbundel": 4283,
      "hilip": 4284,
      "21": 4285,
      "Ger": 4286,
      "Hoas": 4287,
      "Kn": 4288,
      "Sums": 4289,
      "Vl": 4290,
      "Vand": 4291,
      "Zun": 4292,
      "net": 4293,
      "pies": 4294,
      "ton": 4295,
      "wied": 4296,
      "Ã¯": 4297,
      "Ġdig": 4298,
      "aipen": 4299,
      "Ġwon": 4300,
      "Ġmus": 4301,
      "Ġhoe": 4302,
      "ate": 4303,
      "Ġim": 4304,
      "Ġlek": 4305,
      "Ġdek": 4306,
      "ainder": 4307,
      "jebl": 4308,
      "Ġstop": 4309,
      "Ġstoareg": 4310,
      "ole": 4311,
      "Ġpiep": 4312,
      "Ġveurz": 4313,
      "lemen": 4314,
      "ĠDie": 4315,
      "Ġwelke": 4316,
      "Ġvroage": 4317,
      "ĠVot": 4318,
      "rieze": 4319,
      "Ġledder": 4320,
      "ĠJe": 4321,
      "Ġainzoam": 4322,
      "Ġklonk": 4323,
      "ĠNe": 4324,
      "ĠNog": 4325,
      "Ġsloten": 4326,
      "Ġwoarsch": 4327,
      "ĠIe": 4328,
      "Ġtrug": 4329,
      "Ġeerd": 4330,
      "Ġstried": 4331,
      "Ġhouveul": 4332,
      "Ġgelok": 4333,
      "oerd": 4334,
      "Ġgewone": 4335,
      "Ġmevraauw": 4336,
      "Ã¨llen": 4337,
      "Ġregels": 4338,
      "Ġpebliek": 4339,
      "Ġminsken": 4340,
      "Ġhoalt": 4341,
      "acebook": 4342,
      "BN": 4343,
      "Coby": 4344,
      "HOLD": 4345,
      "Noast": 4346,
      "kaast": 4347,
      "ly": 4348,
      "wet": 4349,
      "zee": 4350,
      "oabels": 4351,
      "Ġwizze": 4352,
      "Ġvet": 4353,
      "Ġmeu": 4354,
      "Ġhes": 4355,
      "ĠkÃ¶n": 4356,
      "Ġbi": 4357,
      "Ġbaauwen": 4358,
      "Ġget": 4359,
      "Ġgongen": 4360,
      "Ġlo": 4361,
      "ainde": 4362,
      "Ġstoulen": 4363,
      "Ġres": 4364,
      "Ġroamen": 4365,
      "Ġrunde": 4366,
      "Ġjas": 4367,
      "oge": 4368,
      "vens": 4369,
      "allen": 4370,
      "Ġbiel": 4371,
      "Ġzesteg": 4372,
      "Ġhaarst": 4373,
      "ĠMartin": 4374,
      "geet": 4375,
      "Ġles": 4376,
      "Ġklinkt": 4377,
      "Haile": 4378,
      "ĠTh": 4379,
      "ĠLutje": 4380,
      "iglieks": 4381,
      "urs": 4382,
      "Ġglee": 4383,
      "Ġglim": 4384,
      "Ġaarme": 4385,
      "Ġbelde": 4386,
      "vreten": 4387,
      "Ġbedrief": 4388,
      "Ġhemel": 4389,
      "ico": 4390,
      "Ġverkopen": 4391,
      "Ġgruinlaand": 4392,
      "ĠMarnixs": 4393,
      "Ġbrengt": 4394,
      "ĠINHOLD": 4395,
      "Jansema": 4396,
      "Duisterwinkel": 4397,
      "aken": 4398,
      "doar": 4399,
      "heer": 4400,
      "hond": 4401,
      "rist": 4402,
      "zoak": 4403,
      "ÃŃ": 4404,
      "Ġwr": 4405,
      "Ġmacht": 4406,
      "ĠzÃ¶cht": 4407,
      "Ġbon": 4408,
      "ĠbÃ¬n": 4409,
      "elu": 4410,
      "Ġast": 4411,
      "ats": 4412,
      "deegs": 4413,
      "Ġopgr": 4414,
      "ekte": 4415,
      "Ġstellen": 4416,
      "Ġsteert": 4417,
      "Ġstapt": 4418,
      "Ġps": 4419,
      "aarte": 4420,
      "lex": 4421,
      "ĠHogel": 4422,
      "Ġbedenken": 4423,
      "Ġhaarder": 4424,
      "Ġgries": 4425,
      "Ġgruien": 4426,
      "ĠMos": 4427,
      "sche": 4428,
      "Ġklaai": 4429,
      "Ġkrek": 4430,
      "Ġwoaras": 4431,
      "oagd": 4432,
      "imm": 4433,
      "ĠEurop": 4434,
      "Ġknien": 4435,
      "Ġsmoak": 4436,
      "veen": 4437,
      "luit": 4438,
      "Ġverhoaltje": 4439,
      "lands": 4440,
      "Ġvergees": 4441,
      "Ġleuf": 4442,
      "aild": 4443,
      "Ġ196": 4444,
      "Ġoldste": 4445,
      "ĠBram": 4446,
      "Ġhuifde": 4447,
      "ikkers": 4448,
      "Ġinternet": 4449,
      "Ġprakkez": 4450,
      "ĠgÃ¶ng": 4451,
      "Eerste": 4452,
      "Hen": 4453,
      "Meer": 4454,
      "Mout": 4455,
      "Wille": 4456,
      "dij": 4457,
      "hÃ¬n": 4458,
      "loaten": 4459,
      "ĠvÃ¶r": 4460,
      "Ġvos": 4461,
      "Ġtonen": 4462,
      "Ġkees": 4463,
      "Ġkoren": 4464,
      "stil": 4465,
      "Ġat": 4466,
      "Ġaug": 4467,
      "eerst": 4468,
      "oemen": 4469,
      "Ġroaden": 4470,
      "Ġjuf": 4471,
      "kens": 4472,
      "ild": 4473,
      "Ġsche": 4474,
      "ĠDuurde": 4475,
      "Ġvrizze": 4476,
      "Ġaldern": 4477,
      "Ġbem": 4478,
      "Ġbedr": 4479,
      "Ġblode": 4480,
      "...!": 4481,
      "ukje": 4482,
      "Ġspier": 4483,
      "ĠGrÃ¶n": 4484,
      "Ġkroop": 4485,
      "Ã¨re": 4486,
      "ongel": 4487,
      "Ġtegenswoordeg": 4488,
      "ess": 4489,
      "Ġzatten": 4490,
      "eefd": 4491,
      "ĠEngel": 4492,
      "Ġgeleuf": 4493,
      "Ġzukse": 4494,
      "elnd": 4495,
      "vree": 4496,
      "aaident": 4497,
      "beelden": 4498,
      "000": 4499,
      "Ġlaagde": 4500,
      "Ġstoere": 4501,
      "Ġvlaig": 4502,
      "Ġdastoe": 4503,
      "Ġdeuske": 4504,
      "Ġbraifke": 4505,
      "Ġschilderij": 4506,
      "Ġsukkel": 4507,
      "Ġdirect": 4508,
      "Ġaltmoal": 4509,
      "ĠOldambt": 4510,
      "Willem": 4511,
      "'t": 4512,
      "bij": 4513,
      "ling": 4514,
      "vot": 4515,
      "wacht": 4516,
      "air": 4517,
      "ieft": 4518,
      "Ġmat": 4519,
      "Ġmek": 4520,
      "Ġmaaid": 4521,
      "Ġhie": 4522,
      "Ġhoas": 4523,
      "Ġbakken": 4524,
      "Ġgod": 4525,
      "ation": 4526,
      "ouden": 4527,
      "Ġlog": 4528,
      "Ġsmer": 4529,
      "orp": 4530,
      "Ġvangen": 4531,
      "ona": 4532,
      "Ġdezulfde": 4533,
      "Ġstappen": 4534,
      "Ġrode": 4535,
      "Ġverzoam": 4536,
      "ĠDaam": 4537,
      "ulde": 4538,
      "ĠKop": 4539,
      "ĠNoar": 4540,
      "ĠZie": 4541,
      "Ġnoadat": 4542,
      "drik": 4543,
      "Ġgeboorte": 4544,
      "Ġwaarkte": 4545,
      "Ġzokswat": 4546,
      "Ġontw": 4547,
      "iale": 4548,
      "Ġlekkere": 4549,
      "Ġhaitte": 4550,
      "geborg": 4551,
      "Ġstapte": 4552,
      "Ġvaarf": 4553,
      "Ġhaalve": 4554,
      "ĠGeorge": 4555,
      "Ã¡t": 4556,
      "Ġveraandern": 4557,
      "moateg": 4558,
      "!)": 4559,
      "\".": 4560,
      "**": 4561,
      "ON": 4562,
      "best": 4563,
      "horn": 4564,
      "laid": 4565,
      "laank": 4566,
      "veg": 4567,
      "Ġâ": 4568,
      "enten": 4569,
      "Ġnikk": 4570,
      "ante": 4571,
      "Ġvoel": 4572,
      "Ġmaark": 4573,
      "Ġmilj": 4574,
      "ĠzÃ³": 4575,
      "Ġkeb": 4576,
      "Ġkaante": 4577,
      "Ġkaanten": 4578,
      "stain": 4579,
      "Ġstokken": 4580,
      "Ġaanh": 4581,
      "Ġderin": 4582,
      "Ġvernijs": 4583,
      "verainen": 4584,
      "unen": 4585,
      "kema": 4586,
      "Ġzoo": 4587,
      "ammen": 4588,
      "ĠMoatjes": 4589,
      "schaid": 4590,
      "Ġbocht": 4591,
      "ĠslÃ¶t": 4592,
      "Ġtoon": 4593,
      "Ġtraauw": 4594,
      "ĠEd": 4595,
      "ĠEvert": 4596,
      "sloten": 4597,
      "Ġ22": 4598,
      "Ġholpen": 4599,
      "Ġcol": 4600,
      "ĠSchr": 4601,
      "eugde": 4602,
      "ziede": 4603,
      "iedenis": 4604,
      "ondern": 4605,
      "ankt": 4606,
      "Omreden": 4607,
      "ĠWesterhoff": 4608,
      "izzent": 4609,
      "lieke": 4610,
      "ĠKomt": 4611,
      "Ġartie": 4612,
      "Ġbiezundere": 4613,
      "Ġstaarke": 4614,
      "Ġbienoa": 4615,
      "Ġleroar": 4616,
      "Ġoavent": 4617,
      "30": 4618,
      "Voak": 4619,
      "boudel": 4620,
      "nummer": 4621,
      "Ãº": 4622,
      "ĠQ": 4623,
      "ĠnÃ³": 4624,
      "aisten": 4625,
      "ĠwÃ¨n": 4626,
      "Ġmist": 4627,
      "Ġmeulen": 4628,
      "Ġbakker": 4629,
      "Ġgaaist": 4630,
      "Ġgounent": 4631,
      "aten": 4632,
      "eurs": 4633,
      "Ġvanwege": 4634,
      "aind": 4635,
      "Ġaanw": 4636,
      "otel": 4637,
      "verb": 4638,
      "verhoal": 4639,
      "ars": 4640,
      "ebriek": 4641,
      "Ġschaif": 4642,
      "Ġschoten": 4643,
      "Ġschieter": 4644,
      "Ġvriend": 4645,
      "ĠBet": 4646,
      "ĠSmit": 4647,
      "tes": 4648,
      "ĠKob": 4649,
      "Ġdoarvan": 4650,
      "ĠJurrie": 4651,
      "Ġdoudestieds": 4652,
      "Ġtrogge": 4653,
      "Ġwilde": 4654,
      "anteern": 4655,
      "ĠJannes": 4656,
      "Ġieder": 4657,
      "Ġjongste": 4658,
      "afÃ©": 4659,
      "eugels": 4660,
      "Ã¶tter": 4661,
      "ĠOlle": 4662,
      "Ġhaitied": 4663,
      "Ġverwacht": 4664,
      "Ġkunnen": 4665,
      "Ġpebaaiern": 4666,
      "aampke": 4667,
      "ĠVeendam": 4668,
      "ĠGlas": 4669,
      "Ġgerdienen": 4670,
      "ĠellÃ¨n": 4671,
      "Ġbejoarden": 4672,
      "Kinder": 4673,
      "Kerel": 4674,
      "MÃ¶rgen": 4675,
      "aur": 4676,
      "bad": 4677,
      "maart": 4678,
      "tussen": 4679,
      "voart": 4680,
      "ÃĴf": 4681,
      "Ġ.": 4682,
      "ennie": 4683,
      "Ġdwaars": 4684,
      "Ġvo": 4685,
      "Ġvind": 4686,
      "Ġtop": 4687,
      "Ġtak": 4688,
      "ĠtÃ¶rf": 4689,
      "Ġhoud": 4690,
      "Ġhoed": 4691,
      "Ġzuver": 4692,
      "Ġzingt": 4693,
      "Ġkur": 4694,
      "Ġkaizen": 4695,
      "Ġbis": 4696,
      "Ġbeker": 4697,
      "Ġloaken": 4698,
      "Ġpunt": 4699,
      "Ġjammer": 4700,
      "Ġschoapen": 4701,
      "ĠHoes": 4702,
      "ĠBos": 4703,
      "ichte": 4704,
      "ĠKunny": 4705,
      "Ġhomzulf": 4706,
      "Ġpruit": 4707,
      "iksem": 4708,
      "drok": 4709,
      "dersaks": 4710,
      "Ġbestuur": 4711,
      "oelen": 4712,
      "Ġgroots": 4713,
      "Ġkeers": 4714,
      "ĠElk": 4715,
      "wieke": 4716,
      "Ġbesloten": 4717,
      "ĠLaimeneer": 4718,
      "Grunneger": 4719,
      "Ġbuutse": 4720,
      "ĠDrent": 4721,
      "Die": 4722,
      "Dokter": 4723,
      "Le": 4724,
      "ron": 4725,
      "teb": 4726,
      "toavel": 4727,
      "zoal": 4728,
      "zeun": 4729,
      "Ã¤": 4730,
      "Ġet": 4731,
      "aider": 4732,
      "Ġtellen": 4733,
      "Ġtent": 4734,
      "Ġhing": 4735,
      "Ġhoor": 4736,
      "Ġzeu": 4737,
      "Ġzong": 4738,
      "Ġzongen": 4739,
      "Ġkok": 4740,
      "Ġkanten": 4741,
      "Ġgit": 4742,
      "atuur": 4743,
      "Ġseg": 4744,
      "Ġophoalen": 4745,
      "Ġstiek": 4746,
      "Ġjuvver": 4747,
      "otje": 4748,
      "Ġschoam": 4749,
      "Ġschep": 4750,
      "ĠGittje": 4751,
      "ĠDien": 4752,
      "Ġgraauw": 4753,
      "ĠJoar": 4754,
      "ĠJob": 4755,
      "Ġgainent": 4756,
      "ĠThe": 4757,
      "Ã²t": 4758,
      "sef": 4759,
      "ĠRom": 4760,
      "Ġzolder": 4761,
      "Ġkerke": 4762,
      "oaske": 4763,
      "ĠFlipje": 4764,
      "blieven": 4765,
      "Ġjongs": 4766,
      "Ġzwem": 4767,
      "Ġzwemmen": 4768,
      "Ġbovenop": 4769,
      "ĠHaile": 4770,
      "Ġdichte": 4771,
      "Ġnoamvaal": 4772,
      "joars": 4773,
      "Ġvroagt": 4774,
      "Ġverkeer": 4775,
      "Ġspeuld": 4776,
      "ochde": 4777,
      "Ġviever": 4778,
      "Ġstemmen": 4779,
      "wezen": 4780,
      "enneer": 4781,
      "ĠAppie": 4782,
      "ĠNienhuis": 4783,
      "Jonges": 4784,
      "Zeg": 4785,
      "au": 4786,
      "aus": 4787,
      "diek": 4788,
      "ding": 4789,
      "min": 4790,
      "moand": 4791,
      "sels": 4792,
      "tkamp": 4793,
      "ugen": 4794,
      "wit": 4795,
      "zied": 4796,
      "zoot": 4797,
      "Ġmirreg": 4798,
      "Ġtiene": 4799,
      "Ġha": 4800,
      "Ġzen": 4801,
      "Ġgauw": 4802,
      "Ġenkel": 4803,
      "Ġsig": 4804,
      "Ġsoep": 4805,
      "Ġinst": 4806,
      "Ġpiene": 4807,
      "Ġpetr": 4808,
      "Ġaanr": 4809,
      "Ġaanv": 4810,
      "Ġreu": 4811,
      "ĠGeb": 4812,
      "Ġgest": 4813,
      "schoule": 4814,
      "Ġfot": 4815,
      "ĠJaantje": 4816,
      "Ġkwed": 4817,
      "Ġdruig": 4818,
      "ĠTil": 4819,
      "Ġwoarop": 4820,
      "ĠLud": 4821,
      "Ã¬nde": 4822,
      "Ġludde": 4823,
      "Ġstreep": 4824,
      "Ġstroade": 4825,
      "broken": 4826,
      "ĠInhold": 4827,
      "Ġsprak": 4828,
      "Ġbekeken": 4829,
      "Ġlegere": 4830,
      "Ġbewoners": 4831,
      "Ġroege": 4832,
      "Ġverschil": 4833,
      "Alles": 4834,
      "Ġregeld": 4835,
      "Ġregeln": 4836,
      "ĠAlbert": 4837,
      "Ġhuiven": 4838,
      "Ġperbaaiern": 4839,
      "Ġdeus": 4840,
      "Ġvattien": 4841,
      "Ġnoatied": 4842,
      "Zulfs": 4843,
      "Ġverschillende": 4844,
      "!\"": 4845,
      "HÃ©": 4846,
      "Kinnen": 4847,
      "iden": 4848,
      "iste": 4849,
      "meziek": 4850,
      "oond": 4851,
      "oekt": 4852,
      "osten": 4853,
      "raain": 4854,
      "ys": 4855,
      "zin": 4856,
      "Ġ&": 4857,
      "ieb": 4858,
      "Ġtie": 4859,
      "Ġteg": 4860,
      "Ġhoaven": 4861,
      "Ġhannen": 4862,
      "Ġbaaid": 4863,
      "Ġgil": 4864,
      "atief": 4865,
      "Ġleeft": 4866,
      "Ġlippen": 4867,
      "etter": 4868,
      "Ġvanoavend": 4869,
      "Ġdec": 4870,
      "dekt": 4871,
      "Ġopb": 4872,
      "Ġpil": 4873,
      "Ġpokkel": 4874,
      "aarmen": 4875,
      "Ġraait": 4876,
      "Ġroare": 4877,
      "Ġeem": 4878,
      "Ġverbie": 4879,
      "ari": 4880,
      "amper": 4881,
      "Ġgroep": 4882,
      "schoul": 4883,
      "Ġwed": 4884,
      "Ġsleudel": 4885,
      "Ġzaikte": 4886,
      "Ġwoarin": 4887,
      "Ġtrek": 4888,
      "Ġmous": 4889,
      "Ġtiedje": 4890,
      "izie": 4891,
      "ĠEp": 4892,
      "Ġnijmoodse": 4893,
      "Ġaanders": 4894,
      "Ġgelokkeg": 4895,
      "leghaid": 4896,
      "Ġrondom": 4897,
      "Ġverdainen": 4898,
      "Allen": 4899,
      "Vrouger": 4900,
      "innerk": 4901,
      "Komt": 4902,
      "Ġspullen": 4903,
      "Ġbiezunders": 4904,
      "Trijnko": 4905,
      "ĠVolk": 4906,
      "Ġgeweldeg": 4907,
      "Ġandere": 4908,
      "brengen": 4909,
      "ialect": 4910,
      "Ap": 4911,
      "Dan": 4912,
      "Neder": 4913,
      "aste": 4914,
      "din": 4915,
      "nee": 4916,
      "zelk": 4917,
      "Ġangst": 4918,
      "Ġvee": 4919,
      "Ġmuren": 4920,
      "Ġtas": 4921,
      "Ġkamer": 4922,
      "Ġengel": 4923,
      "Ġloer": 4924,
      "aap": 4925,
      "etjes": 4926,
      "Ġsuper": 4927,
      "ekers": 4928,
      "Ġpen": 4929,
      "Ġaansch": 4930,
      "Ġroek": 4931,
      "Ġteveul": 4932,
      "artje": 4933,
      "Ġschat": 4934,
      "Ġgraf": 4935,
      "Ġweerde": 4936,
      "rieke": 4937,
      "Ã¶rgel": 4938,
      "Ġbroeken": 4939,
      "Ġkrom": 4940,
      "Ġwoardat": 4941,
      "ĠRadio": 4942,
      "Ġachterom": 4943,
      "Ġeerappel": 4944,
      "Ġzolt": 4945,
      "oetje": 4946,
      "Ġtotoal": 4947,
      "Ġcor": 4948,
      "Ġzuks": 4949,
      "Ġmoekes": 4950,
      "Ġhelder": 4951,
      "Ġpakje": 4952,
      "Ġkerstboom": 4953,
      "ĠDuutsland": 4954,
      "Ġzeuventeg": 4955,
      "dochter": 4956,
      "Ġdunkt": 4957,
      "Aanderdoags": 4958,
      "Ġsekuur": 4959,
      "uumte": 4960,
      "Aigen": 4961,
      "CH": 4962,
      "Met": 4963,
      "di": 4964,
      "koar": 4965,
      "lingen": 4966,
      "maarken": 4967,
      "pakt": 4968,
      "uc": 4969,
      "yt": 4970,
      "Ĥ¬": 4971,
      "Ġdaan": 4972,
      "oav": 4973,
      "Ġmaag": 4974,
      "Ġtachteg": 4975,
      "Ġheren": 4976,
      "Ġhister": 4977,
      "Ġkast": 4978,
      "Ġkist": 4979,
      "Ġbaauwd": 4980,
      "euw": 4981,
      "egd": 4982,
      "Ġdes": 4983,
      "Ġpaas": 4984,
      "Ġaantal": 4985,
      "Ġridt": 4986,
      "Ġeigen": 4987,
      "uug": 4988,
      "ikde": 4989,
      "ampen": 4990,
      "ĠKo": 4991,
      "ĠJeu": 4992,
      "Ġdrup": 4993,
      "Ġbroken": 4994,
      "Ġjoezulf": 4995,
      "Ġvolg": 4996,
      "spad": 4997,
      "odew": 4998,
      "ĠFoabels": 4999,
      "Ġtotdat": 5000,
      "Ġmooier": 5001,
      "Ġdailen": 5002,
      "lucht": 5003,
      "bew": 5004,
      "dele": 5005,
      "Ġlaifste": 5006,
      "Ġverkeerde": 5007,
      "Ġflaauw": 5008,
      "ĠAnnie": 5009,
      "Ġkennis": 5010,
      "Ġtoaveltje": 5011,
      "Ġploatjes": 5012,
      "zeghaid": 5013,
      "Ġletters": 5014,
      "euteboom": 5015,
      "Ġfebriek": 5016,
      "Ġmobieltje": 5017,
      "ĠLenie": 5018,
      "Loaten": 5019,
      "aven": 5020,
      "lood": 5021,
      "maans": 5022,
      "eng": 5023,
      "erie": 5024,
      "aire": 5025,
      "Ġwonnen": 5026,
      "Ġhobb": 5027,
      "Ġkent": 5028,
      "Ġkamp": 5029,
      "Ġbeld": 5030,
      "Ġlieken": 5031,
      "Ġlood": 5032,
      "orde": 5033,
      "ijl": 5034,
      "derman": 5035,
      "Ġstelde": 5036,
      "Ġpe": 5037,
      "Ġpos": 5038,
      "Ġpampier": 5039,
      "aarten": 5040,
      "Ġreb": 5041,
      "Ġrap": 5042,
      "Ġdervan": 5043,
      "ika": 5044,
      "ĠHe": 5045,
      "ĠHom": 5046,
      "ĠHoop": 5047,
      "Ġonm": 5048,
      "uir": 5049,
      "ĠMooi": 5050,
      "ĠKwam": 5051,
      "Ġwort": 5052,
      "ĠTorren": 5053,
      "Ġaiweg": 5054,
      "Ġkraai": 5055,
      "kerk": 5056,
      "Ġpracht": 5057,
      "Ġachterdeur": 5058,
      "Ġ23": 5059,
      "Ġvertel": 5060,
      "Ġglaske": 5061,
      "gram": 5062,
      "Ġverloaten": 5063,
      "ichie": 5064,
      "ovvel": 5065,
      "proaten": 5066,
      "ĠSlim": 5067,
      "Ġbericht": 5068,
      "Ġgemak": 5069,
      "Omdat": 5070,
      "Ġduustere": 5071,
      "ĠNederlandse": 5072,
      "Ġvekansie": 5073,
      "ammee": 5074,
      "ĠHendrik": 5075,
      "Ġverdwenen": 5076,
      "Ġvogeltje": 5077,
      "Ġherinnern": 5078,
      "ĠvergrÃ¨ld": 5079,
      "ĠZuudhÃ¶rn": 5080,
      "Ġamb": 5081,
      "Maria": 5082,
      "Ġbuusdouk": 5083,
      "ĠDelfziel": 5084,
      "ĠNedersaks": 5085,
      "ĠâĤ¬": 5086,
      "Aiglieks": 5087,
      "Gez": 5088,
      "MM": 5089,
      "UN": 5090,
      "aft": 5091,
      "bum": 5092,
      "bomen": 5093,
      "fkes": 5094,
      "gaang": 5095,
      "ht": 5096,
      "het": 5097,
      "kaaste": 5098,
      "obbe": 5099,
      "Ġuren": 5100,
      "Ġdoor": 5101,
      "Ġdoad": 5102,
      "Ġnoag": 5103,
      "Ġwinnen": 5104,
      "Ġvoart": 5105,
      "Ġmug": 5106,
      "Ġtre": 5107,
      "Ġoch": 5108,
      "Ġhopen": 5109,
      "Ġzuit": 5110,
      "Ġkoken": 5111,
      "stuk": 5112,
      "staand": 5113,
      "Ġbaand": 5114,
      "ĠbÃ¶l": 5115,
      "Ġstamp": 5116,
      "Ġstoof": 5117,
      "Ġpoest": 5118,
      "Ġpuutje": 5119,
      "Ġroakt": 5120,
      "Ġschaarm": 5121,
      "Ġhaim": 5122,
      "Ġzowied": 5123,
      "ĠDenk": 5124,
      "Ġgedr": 5125,
      "Ġoetv": 5126,
      "Ġoetkommen": 5127,
      "ooster": 5128,
      "Ġgraauwe": 5129,
      "ĠMeer": 5130,
      "reeg": 5131,
      "ierde": 5132,
      "Ġwieze": 5133,
      "schriever": 5134,
      "ĠVert": 5135,
      "ĠVos": 5136,
      "Ġbliksem": 5137,
      "ĠJoe": 5138,
      "oorten": 5139,
      "ĠNelleke": 5140,
      "oamers": 5141,
      "Ġspek": 5142,
      "ĠTille": 5143,
      "ĠPieter": 5144,
      "Ã²cht": 5145,
      "ekeek": 5146,
      "Ġstroal": 5147,
      "Ġstraks": 5148,
      "Ġmannen": 5149,
      "ĠState": 5150,
      "Ġlaiw": 5151,
      "Ġkerels": 5152,
      "dags": 5153,
      "ĠsmÃ¶rgens": 5154,
      "Ġjongkerel": 5155,
      "Ġzwaart": 5156,
      "Ġzwoare": 5157,
      "Ġapaart": 5158,
      "Ġlaifst": 5159,
      "Ġkeuneg": 5160,
      "Ġhaardop": 5161,
      "eller": 5162,
      "irregs": 5163,
      "Ġlaidje": 5164,
      "Ġraaizen": 5165,
      "Ġmakkelker": 5166,
      "ĠoplÃ¶zzen": 5167,
      "Ġlandschop": 5168,
      "Ġwoond": 5169,
      "Ġbedould": 5170,
      "Ġbepoald": 5171,
      "Ġoptreden": 5172,
      "Allain": 5173,
      "Ġnuigd": 5174,
      "Ġkantoor": 5175,
      "kwartier": 5176,
      "ĠTorrenga": 5177,
      "Boer": 5178,
      "DE": 5179,
      "IN": 5180,
      "centrum": 5181,
      "da": 5182,
      "dak": 5183,
      "feur": 5184,
      "gat": 5185,
      "joaren": 5186,
      "kels": 5187,
      "tekst": 5188,
      "ĠÃ³": 5189,
      "Ġdaanzen": 5190,
      "Ġwur": 5191,
      "ĠvÃ¨r": 5192,
      "Ġmai": 5193,
      "Ġmoag": 5194,
      "Ġmijn": 5195,
      "Ġtong": 5196,
      "Ġzuske": 5197,
      "inn": 5198,
      "Ġbol": 5199,
      "Ġabb": 5200,
      "Ġsing": 5201,
      "Ġsteek": 5202,
      "Ġpor": 5203,
      "Ġmitmoakt": 5204,
      "Ġrom": 5205,
      "ogt": 5206,
      "aanzie": 5207,
      "ote": 5208,
      "Ġtev": 5209,
      "Ġtevree": 5210,
      "opper": 5211,
      "alt": 5212,
      "ebl": 5213,
      "ĠWÃ¨l": 5214,
      "Ġzodounde": 5215,
      "Ġonneu": 5216,
      "ĠKw": 5217,
      "Ġaalweg": 5218,
      "ĠABN": 5219,
      "ietse": 5220,
      "ĠPhilip": 5221,
      "Ġkroepen": 5222,
      "Ġjaze": 5223,
      "Ġwoarvan": 5224,
      "ĠRus": 5225,
      "Ġkoppen": 5226,
      "Ġstront": 5227,
      "Ġterras": 5228,
      "oenen": 5229,
      "ipper": 5230,
      "Ġcont": 5231,
      "Ġvertoalen": 5232,
      "Ġaigenlieks": 5233,
      "ĠVerl": 5234,
      "Ã¨nt": 5235,
      "ick": 5236,
      "ĠFrÃ©": 5237,
      "ĠFrans": 5238,
      "Ġ30": 5239,
      "Ġoard": 5240,
      "ĠEldert": 5241,
      "mits": 5242,
      "Ġkerstdoagen": 5243,
      "Ġmoanden": 5244,
      "Ġallent": 5245,
      "Ġpebaaierde": 5246,
      "Ġ2009": 5247,
      "Ġkouke": 5248,
      "winteg": 5249,
      "Ġadres": 5250,
      "ĠWereld": 5251,
      "Ġpoesten": 5252,
      "Ġeerliekse": 5253,
      "Ġpubl": 5254,
      "Ġkrigst": 5255,
      "wedstried": 5256,
      "Ġdezember": 5257,
      "Ġluddek": 5258,
      "Boven": 5259,
      "Da": 5260,
      "Sami": 5261,
      "boot": 5262,
      "ging": 5263,
      "joagen": 5264,
      "kon": 5265,
      "kaante": 5266,
      "lijk": 5267,
      "ozie": 5268,
      "sion": 5269,
      "Ġdure": 5270,
      "Ġdialect": 5271,
      "Ġnaauw": 5272,
      "Ġwaal": 5273,
      "Ġwanneer": 5274,
      "Ġvoaren": 5275,
      "ieg": 5276,
      "stof": 5277,
      "Ġbu": 5278,
      "Ġburo": 5279,
      "elek": 5280,
      "Ġgooi": 5281,
      "Ġlok": 5282,
      "Ġsit": 5283,
      "derk": 5284,
      "derde": 5285,
      "Ġruumte": 5286,
      "Ġjacht": 5287,
      "kennen": 5288,
      "aangen": 5289,
      "Ġschoof": 5290,
      "ĠDÃ¶rp": 5291,
      "akob": 5292,
      "aauwt": 5293,
      "Ġgram": 5294,
      "Ġwiede": 5295,
      "ĠVonk": 5296,
      "riet": 5297,
      "gever": 5298,
      "terg": 5299,
      "iss": 5300,
      "ĠTj": 5301,
      "Ġkonst": 5302,
      "Ġkraande": 5303,
      "Ġkraaien": 5304,
      "Ġtoet": 5305,
      "sep": 5306,
      "neden": 5307,
      "Ġstroek": 5308,
      "velden": 5309,
      "ustr": 5310,
      "aarms": 5311,
      "Ġgener": 5312,
      "Ġmevrouw": 5313,
      "irekt": 5314,
      "Ġperbleem": 5315,
      "ĠHebben": 5316,
      "Houveul": 5317,
      "Ġbistoe": 5318,
      "Ġberre": 5319,
      "Ġmensken": 5320,
      "ĠKnelis": 5321,
      "ĠJohannes": 5322,
      "Gelokkeg": 5323,
      "Ġhoalde": 5324,
      "Ġdrukte": 5325,
      "ĠNederlaands": 5326,
      "========": 5327,
      "Ġsoldoaten": 5328,
      "Ġwinkels": 5329,
      "Henri": 5330,
      "Ġkeboal": 5331,
      "59": 5332,
      "AR": 5333,
      "dainst": 5334,
      "honderd": 5335,
      "jer": 5336,
      "ms": 5337,
      "nk": 5338,
      "nam": 5339,
      "pke": 5340,
      "put": 5341,
      "ument": 5342,
      "Ġoadem": 5343,
      "Ġnummers": 5344,
      "Ġwaait": 5345,
      "Ġwangen": 5346,
      "Ġmuid": 5347,
      "Ġzij": 5348,
      "Ġzang": 5349,
      "Ġkikker": 5350,
      "steb": 5351,
      "inie": 5352,
      "oupen": 5353,
      "eureg": 5354,
      "Ġloug": 5355,
      "Ġlanden": 5356,
      "aak": 5357,
      "omie": 5358,
      "ĠstÃ¶n": 5359,
      "olders": 5360,
      "assen": 5361,
      "Ġrel": 5362,
      "Ġderaan": 5363,
      "Ġvers": 5364,
      "Ġvervel": 5365,
      "aanken": 5366,
      "uul": 5367,
      "Ġscheen": 5368,
      "ĠHond": 5369,
      "Ġgro": 5370,
      "Ġgroaden": 5371,
      "Ġblonde": 5372,
      "...âĢĻ": 5373,
      "Ġklopt": 5374,
      "Ġbroek": 5375,
      "ĠTot": 5376,
      "Ġkraa": 5377,
      "Ġkring": 5378,
      "sent": 5379,
      "benaauwd": 5380,
      "Ġtrillen": 5381,
      "Ġeerabb": 5382,
      "ĠWilly": 5383,
      "Ã©l": 5384,
      "Ã©r": 5385,
      "Ġelekt": 5386,
      "Ġjongen": 5387,
      "Ġontv": 5388,
      "Ã¶ts": 5389,
      "Ġ198": 5390,
      "Ġ199": 5391,
      "ĠKrÃ¶dde": 5392,
      "ĠFrank": 5393,
      "ĠFraans": 5394,
      "Ġnuigen": 5395,
      "Ġmoandag": 5396,
      "Ġluiten": 5397,
      "Ġbelangstellen": 5398,
      "Ġ2008": 5399,
      "ĠGroninger": 5400,
      "uzz": 5401,
      "Ġoldere": 5402,
      "Ġschudde": 5403,
      "Ġschuddel": 5404,
      "Ġkilo": 5405,
      "ĠVolkert": 5406,
      "ĠÃ¨nd": 5407,
      "Ġregelmoateg": 5408,
      "Ġwandel": 5409,
      "taikens": 5410,
      "Ġdankboar": 5411,
      "ĠKarel": 5412,
      "Ġgniv": 5413,
      "Mainsttied": 5414,
      "Ġapperoat": 5415,
      "):": 5416,
      "Aans": 5417,
      "Bin": 5418,
      "Baaide": 5419,
      "Ge": 5420,
      "OO": 5421,
      "Str": 5422,
      "Tied": 5423,
      "aben": 5424,
      "febriek": 5425,
      "hel": 5426,
      "mm": 5427,
      "meln": 5428,
      "oers": 5429,
      "Ġneer": 5430,
      "aiders": 5431,
      "Ġwc": 5432,
      "Ġvak": 5433,
      "Ġtaske": 5434,
      "Ġtimmer": 5435,
      "Ġham": 5436,
      "Ġzig": 5437,
      "Ġzoad": 5438,
      "Ġkaar": 5439,
      "Ġkne": 5440,
      "Ġkest": 5441,
      "Ġbeu": 5442,
      "Ġbekeek": 5443,
      "Ġastoe": 5444,
      "oumen": 5445,
      "Ġleerde": 5446,
      "Ġsc": 5447,
      "orry": 5448,
      "onie": 5449,
      "Ġput": 5450,
      "Ġpart": 5451,
      "Ġaanl": 5452,
      "Ġaankeken": 5453,
      "aargens": 5454,
      "Ġderveur": 5455,
      "kend": 5456,
      "Ġverbr": 5457,
      "Ġverpl": 5458,
      "ilderd": 5459,
      "Ġschure": 5460,
      "ĠWotter": 5461,
      "ĠWinter": 5462,
      "Ã¶ch": 5463,
      "uiven": 5464,
      "teren": 5465,
      "Ġklompen": 5466,
      "Ġdronken": 5467,
      "ĠNom": 5468,
      "ĠOch": 5469,
      "Ġslinger": 5470,
      "Ġaig": 5471,
      "uuts": 5472,
      "Ġlust": 5473,
      "Ġstroalen": 5474,
      "Ġvraauwen": 5475,
      "ipp": 5476,
      "Ġcent": 5477,
      "Ġswoare": 5478,
      "odde": 5479,
      "Ġbeloof": 5480,
      "Ġverlegen": 5481,
      "Ġontstoan": 5482,
      "doagse": 5483,
      "Ġnkanner": 5484,
      "Ġleger": 5485,
      "Ġverboazen": 5486,
      "Ġflink": 5487,
      "ĠFree": 5488,
      "Ġkerkhof": 5489,
      "ĠOld": 5490,
      "Ġverstaand": 5491,
      "Ġhoogste": 5492,
      "ĠAll": 5493,
      "Verrek": 5494,
      "Ġ2006": 5495,
      "eterij": 5496,
      "!!!": 5497,
      "gebr": 5498,
      "ĠBiebel": 5499,
      "Ġperbaaierde": 5500,
      "Ġstuurd": 5501,
      "Ġmainde": 5502,
      "Ġallemoal": 5503,
      "Ġkoartje": 5504,
      "Ġbetaikent": 5505,
      "gemain": 5506,
      "ĠGeeske": 5507,
      "tjo": 5508,
      "Ġcontr": 5509,
      "Ġgeschiedenis": 5510,
      "Ġtwievel": 5511,
      "Ġrekl": 5512,
      "Ġverhoesd": 5513,
      "Ġgehaaim": 5514,
      "ĠHogelaand": 5515,
      "Ġschieterg": 5516,
      "24": 5517,
      "200": 5518,
      "?)": 5519,
      "Dikke": 5520,
      "Oaf": 5521,
      "bain": 5522,
      "bus": 5523,
      "boas": 5524,
      "baanke": 5525,
      "ezen": 5526,
      "heur": 5527,
      "zeker": 5528,
      "Ġanders": 5529,
      "Ġdrie": 5530,
      "oaders": 5531,
      "Ġwist": 5532,
      "Ġveen": 5533,
      "Ġmui": 5534,
      "Ġhoat": 5535,
      "Ġbank": 5536,
      "Ġbred": 5537,
      "eus": 5538,
      "Ġij": 5539,
      "Ġlegen": 5540,
      "Ġlamp": 5541,
      "Ġsh": 5542,
      "orden": 5543,
      "ijke": 5544,
      "ject": 5545,
      "Ġstait": 5546,
      "Ġinf": 5547,
      "Ġintied": 5548,
      "Ġpoal": 5549,
      "Ġaanbel": 5550,
      "Ġroaken": 5551,
      "Ġderoet": 5552,
      "Ġverske": 5553,
      "Ġveurnoam": 5554,
      "Ġveurlezen": 5555,
      "Ġteveur": 5556,
      "oper": 5557,
      "undel": 5558,
      "arrie": 5559,
      "ikje": 5560,
      "Ġbietje": 5561,
      "Ġbiebel": 5562,
      "oantje": 5563,
      "Ġgeen": 5564,
      "lene": 5565,
      "Ġoverb": 5566,
      "schaaiden": 5567,
      "Ġfin": 5568,
      "Ġfien": 5569,
      "Ġbringen": 5570,
      "Ġbranden": 5571,
      "ĠTw": 5572,
      "iggel": 5573,
      "Ġnoad": 5574,
      "Ġoller": 5575,
      "Ġvotgoan": 5576,
      "Ġplaank": 5577,
      "Ġachternoa": 5578,
      "ĠEg": 5579,
      "oeter": 5580,
      "Ġkoien": 5581,
      "Ġonderzuik": 5582,
      "istor": 5583,
      "Ġbetoald": 5584,
      "Ġuurtje": 5585,
      "ĠOpoe": 5586,
      "Veuraal": 5587,
      "Ġroeken": 5588,
      "Ġverboden": 5589,
      "ĠOlderman": 5590,
      "Ġzugst": 5591,
      "Ġ2010": 5592,
      "Ġverrazzen": 5593,
      "Ġgeheur": 5594,
      "Ġendje": 5595,
      "????": 5596,
      "ĠÃ¨nde": 5597,
      "middag": 5598,
      "ĠHarmke": 5599,
      "Ġamper": 5600,
      "Ġongeluk": 5601,
      "OAR": 5602,
      "Ġhonger": 5603,
      "ĠBelg": 5604,
      "ĠDikkema": 5605,
      "Ġwiefke": 5606,
      "Ġmeleur": 5607,
      "Ġmuzik": 5608,
      "wetse": 5609,
      "Ġaanwez": 5610,
      "aurant": 5611,
      "Ġposit": 5612,
      "ĠNomden": 5613,
      "Ab": 5614,
      "Bed": 5615,
      "Doch": 5616,
      "Geef": 5617,
      "Moak": 5618,
      "bos": 5619,
      "boek": 5620,
      "ever": 5621,
      "ider": 5622,
      "jan": 5623,
      "moe": 5624,
      "nait": 5625,
      "vier": 5626,
      "Ìģ": 5627,
      "Ġdaaiern": 5628,
      "Ġdrieven": 5629,
      "Ġwup": 5630,
      "Ġveeg": 5631,
      "Ġmand": 5632,
      "Ġtil": 5633,
      "Ġhaail": 5634,
      "Ġzus": 5635,
      "Ġzanger": 5636,
      "Ġkeren": 5637,
      "Ġbuten": 5638,
      "Ġbaanke": 5639,
      "Ġgeest": 5640,
      "Ġlukt": 5641,
      "etiek": 5642,
      "ĠsÃ¬nten": 5643,
      "orst": 5644,
      "ekn": 5645,
      "Ġinsp": 5646,
      "oesten": 5647,
      "ked": 5648,
      "ĠWad": 5649,
      "ĠWoon": 5650,
      "zent": 5651,
      "ĠGen": 5652,
      "Ġvrol": 5653,
      "Ġbeelden": 5654,
      "ulie": 5655,
      "ĠMO": 5656,
      "Ġdoarop": 5657,
      "ĠVeul": 5658,
      "gez": 5659,
      "addel": 5660,
      "oudeg": 5661,
      "ĠJez": 5662,
      "ersoun": 5663,
      "emoa": 5664,
      "Ġklim": 5665,
      "Ġklanten": 5666,
      "Ġdrukt": 5667,
      "Ġsleu": 5668,
      "Ġslap": 5669,
      "ietsen": 5670,
      "Ġbrak": 5671,
      "Ġtouglieks": 5672,
      "Ġkropen": 5673,
      "Ġwoarschienlek": 5674,
      "uts": 5675,
      "Ġjoareg": 5676,
      "Ġstraf": 5677,
      "ĠStain": 5678,
      "ĠJansema": 5679,
      "Ġaanderdoags": 5680,
      "Ġnetjes": 5681,
      "sloeten": 5682,
      "Ġsnachts": 5683,
      "Ġgeleuven": 5684,
      "Inains": 5685,
      "Ġswaarte": 5686,
      "ĠSchier": 5687,
      "ĠSchiere": 5688,
      "Ġbenijd": 5689,
      "Ġgeweer": 5690,
      "Ġelf": 5691,
      "Ġwiederop": 5692,
      "ĠVerhoalen": 5693,
      "ampie": 5694,
      "ĠIngeborg": 5695,
      "landse": 5696,
      "Ġbezied": 5697,
      "ĠdÃ¶rps": 5698,
      "ouwen": 5699,
      "Ġvrijdag": 5700,
      "Ġbegrip": 5701,
      "Ġtelev": 5702,
      "Ġvlaigt": 5703,
      "ploatse": 5704,
      "ĠHoltkamp": 5705,
      "Ġzulm": 5706,
      "Ġgebruuk": 5707,
      "Ġparkeer": 5708,
      "________________": 5709,
      "ĠkÃ¶ster": 5710,
      "ursus": 5711,
      "Ġhiele": 5712,
      "Ġnikkopte": 5713,
      "Ġoaventuur": 5714,
      "Ġteveurschien": 5715,
      "Kat": 5716,
      "Tou": 5717,
      "Tussen": 5718,
      "Verd": 5719,
      "bez": 5720,
      "gan": 5721,
      "la": 5722,
      "lag": 5723,
      "zun": 5724,
      "Ġ0": 5725,
      "Ġdammee": 5726,
      "Ġwiz": 5727,
      "Ġvecht": 5728,
      "Ġteun": 5729,
      "Ġheul": 5730,
      "Ġkoezen": 5731,
      "Ġkaalm": 5732,
      "steld": 5733,
      "stainen": 5734,
      "stoule": 5735,
      "streek": 5736,
      "ineke": 5737,
      "euter": 5738,
      "oute": 5739,
      "Ġenth": 5740,
      "Ġlid": 5741,
      "Ġsun": 5742,
      "Ġsier": 5743,
      "Ġsinten": 5744,
      "oris": 5745,
      "onner": 5746,
      "Ġstoken": 5747,
      "Ġstijt": 5748,
      "Ġpaar": 5749,
      "Ġdattien": 5750,
      "Ġvergeet": 5751,
      "ikh": 5752,
      "Ġschoe": 5753,
      "Ġschelen": 5754,
      "ĠWubbe": 5755,
      "Ġommaans": 5756,
      "ĠHem": 5757,
      "ĠDan": 5758,
      "Ġoetr": 5759,
      "ooske": 5760,
      "ulder": 5761,
      "Ġgroaven": 5762,
      "Ġgriep": 5763,
      "useum": 5764,
      "oames": 5765,
      "Ġbril": 5766,
      "ĠTop": 5767,
      "ĠTied": 5768,
      "ĠTaiken": 5769,
      "Ġprob": 5770,
      "Ġtril": 5771,
      "ootjes": 5772,
      "ids": 5773,
      "Ġvlaais": 5774,
      "ĠFacebook": 5775,
      "Ġgelegen": 5776,
      "ustus": 5777,
      "elnde": 5778,
      "Ġogenblik": 5779,
      "Ġgezin": 5780,
      "iedens": 5781,
      "Ġrondje": 5782,
      "Ġperf": 5783,
      "ĠVerhoal": 5784,
      "holt": 5785,
      "Ġpakde": 5786,
      "Ġ197": 5787,
      "Stel": 5788,
      "ĠVroag": 5789,
      "Ainmoal": 5790,
      "Ġbruiertje": 5791,
      "ikkeld": 5792,
      "ĠDroad": 5793,
      "ĠNoues": 5794,
      "Ġdomme": 5795,
      "ack": 5796,
      "Ġorreg": 5797,
      "redies": 5798,
      "Ġriekdom": 5799,
      "boukje": 5800,
      "Ġstaarven": 5801,
      "Ġkontakt": 5802,
      "AND": 5803,
      "Ġopzied": 5804,
      "Plietsie": 5805,
      "Ġaangaait": 5806,
      "pleeg": 5807,
      "Ġvremd": 5808,
      "Ġenthou": 5809,
      "04": 5810,
      "Een": 5811,
      "Her": 5812,
      "Haarm": 5813,
      "Per": 5814,
      "Te": 5815,
      "boven": 5816,
      "hot": 5817,
      "houk": 5818,
      "haalf": 5819,
      "hoorn": 5820,
      "ial": 5821,
      "ka": 5822,
      "pert": 5823,
      "punt": 5824,
      "raais": 5825,
      "tjen": 5826,
      "udt": 5827,
      "yp": 5828,
      "zinneg": 5829,
      "zulm": 5830,
      "Ġdoalek": 5831,
      "Ġnoord": 5832,
      "Ġwizzen": 5833,
      "Ġwend": 5834,
      "Ġtit": 5835,
      "Ġhoaren": 5836,
      "Ġhekel": 5837,
      "Ġkor": 5838,
      "Ġkoal": 5839,
      "inst": 5840,
      "inders": 5841,
      "Ġbankje": 5842,
      "att": 5843,
      "ouge": 5844,
      "Ġsje": 5845,
      "Ġsoezen": 5846,
      "Ġsunt": 5847,
      "omb": 5848,
      "derne": 5849,
      "okk": 5850,
      "aarf": 5851,
      "Ġrok": 5852,
      "Ġverbl": 5853,
      "Ġvervolg": 5854,
      "Ġveureg": 5855,
      "Ġveurjoar": 5856,
      "opa": 5857,
      "ald": 5858,
      "altje": 5859,
      "Ġscharr": 5860,
      "ĠWaar": 5861,
      "ĠWeerden": 5862,
      "Ġonrust": 5863,
      "agel": 5864,
      "tens": 5865,
      "Ġgren": 5866,
      "Ġgript": 5867,
      "ĠMin": 5868,
      "ĠMet": 5869,
      "Ġwiezen": 5870,
      "Ġkomp": 5871,
      "Ġfles": 5872,
      "...,": 5873,
      "Ġkloagen": 5874,
      "Ġworst": 5875,
      "ĠTV": 5876,
      "urven": 5877,
      "ĠRaand": 5878,
      "Ġplof": 5879,
      "Ġplannen": 5880,
      "Ġachterop": 5881,
      "Ġeerlek": 5882,
      "ĠEN": 5883,
      "uilen": 5884,
      "ĠStil": 5885,
      "Ġtwije": 5886,
      "ĠFl": 5887,
      "Ġknap": 5888,
      "Ġgloazen": 5889,
      "hoeske": 5890,
      "udde": 5891,
      "lub": 5892,
      "Ġschrieft": 5893,
      "Ġzokzulf": 5894,
      "Ġslimmer": 5895,
      "Ġspringt": 5896,
      "Ġlaifheb": 5897,
      "kregen": 5898,
      "Ġgruinte": 5899,
      "Ġmotten": 5900,
      "akkers": 5901,
      "Grunnen": 5902,
      "Ġroup": 5903,
      "ĠNijs": 5904,
      "Ġluusterde": 5905,
      "Ġelkenaine": 5906,
      "Ġverdraiteg": 5907,
      "Ġnuvere": 5908,
      "avven": 5909,
      "achies": 5910,
      "Ġheugen": 5911,
      "Ġbevubbeld": 5912,
      "Ġdonkere": 5913,
      "iemon": 5914,
      "Ġvoetballen": 5915,
      "Ġduvel": 5916,
      "Meneer": 5917,
      "aardie": 5918,
      "ĠOabel": 5919,
      "Ġeulie": 5920,
      "jeblieft": 5921,
      "Ġveurzitter": 5922,
      "ĠEuropa": 5923,
      "Ġveearts": 5924,
      "Ġtevreden": 5925,
      "Bel": 5926,
      "DÃ¬n": 5927,
      "Denk": 5928,
      "EG": 5929,
      "Kop": 5930,
      "Mos": 5931,
      "Toen": 5932,
      "boan": 5933,
      "band": 5934,
      "gek": 5935,
      "gaait": 5936,
      "ix": 5937,
      "kool": 5938,
      "ozen": 5939,
      "oÃ«": 5940,
      "pakken": 5941,
      "roam": 5942,
      "taik": 5943,
      "oaze": 5944,
      "Ġtap": 5945,
      "Ġtazze": 5946,
      "Ġhoaver": 5947,
      "Ġhotel": 5948,
      "Ġzinnen": 5949,
      "Ġzenen": 5950,
      "Ġkoor": 5951,
      "stoul": 5952,
      "Ġbonen": 5953,
      "oarst": 5954,
      "Ġopains": 5955,
      "olde": 5956,
      "Ġpannen": 5957,
      "Ġaanrecht": 5958,
      "oeien": 5959,
      "Ġrez": 5960,
      "Ġveurbeeld": 5961,
      "alk": 5962,
      "zenden": 5963,
      "amb": 5964,
      "Ġofst": 5965,
      "akter": 5966,
      "ĠBart": 5967,
      "Ġgrijn": 5968,
      "ĠMoi": 5969,
      "ichting": 5970,
      "Ġoverleden": 5971,
      "Ġwesten": 5972,
      "ĠVink": 5973,
      "rieg": 5974,
      "ĠAlex": 5975,
      "elkhaid": 5976,
      "Ġklazze": 5977,
      "ĠNico": 5978,
      "Ġsleep": 5979,
      "ĠLeer": 5980,
      "Ã¬nsen": 5981,
      "Ġkopkes": 5982,
      "ĠEerste": 5983,
      "ftien": 5984,
      "Ġ100": 5985,
      "Ġstrak": 5986,
      "Ġterog": 5987,
      "ĠvlÃ¨": 5988,
      "Ġvlinder": 5989,
      "Ġvleugels": 5990,
      "velt": 5991,
      "sloot": 5992,
      "Ġminuten": 5993,
      "Ġglin": 5994,
      "Ġsmeet": 5995,
      "gelieks": 5996,
      "Ġzukzulf": 5997,
      "Ġswem": 5998,
      "Ġgenieten": 5999,
      "vroug": 6000,
      "Ġbedstee": 6001,
      "Ġbezuiken": 6002,
      "ommelde": 6003,
      "Ġtoentje": 6004,
      "aachts": 6005,
      "Ġonnerwegens": 6006,
      "Ġvouer": 6007,
      "Ġhandel": 6008,
      "Ġnamen": 6009,
      "Ġbliedschop": 6010,
      "ikkeln": 6011,
      "Ġ2011": 6012,
      "ĠHouveul": 6013,
      "Ġantwoordde": 6014,
      "ĠOmmel": 6015,
      "uvels": 6016,
      "Klaas": 6017,
      "Ġstoetje": 6018,
      "Ġbliekt": 6019,
      "ĠkÃ¬nnen": 6020,
      "middels": 6021,
      "Wilst": 6022,
      "Ġwarren": 6023,
      "ĠTeake": 6024,
      "Ġgerdien": 6025,
      "haalve": 6026,
      "Ġdunderdag": 6027,
      "aimke": 6028,
      "Ġpriezen": 6029,
      "Ġopgruid": 6030,
      "Ġprakkezaaiern": 6031,
      "Ġartiesten": 6032,
      "ĠRaandstad": 6033,
      ".)": 6034,
      "25": 6035,
      "Beg": 6036,
      "Cor": 6037,
      "Gees": 6038,
      "JE": 6039,
      "Zunder": 6040,
      "dik": 6041,
      "laag": 6042,
      "loane": 6043,
      "maank": 6044,
      "meulen": 6045,
      "ozzen": 6046,
      "roeze": 6047,
      "ĠwÃ©l": 6048,
      "Ġvle": 6049,
      "Ġmaart": 6050,
      "Ġmaist": 6051,
      "Ġtoes": 6052,
      "Ġouto": 6053,
      "Ġhun": 6054,
      "Ġhup": 6055,
      "Ġzacht": 6056,
      "Ġzaail": 6057,
      "Ġkort": 6058,
      "ĠkÃ²l": 6059,
      "Ġkaaste": 6060,
      "stikke": 6061,
      "Ġboard": 6062,
      "Ġbatter": 6063,
      "euneg": 6064,
      "Ġab": 6065,
      "che": 6066,
      "chies": 6067,
      "oum": 6068,
      "Ġlaiten": 6069,
      "Ġlach": 6070,
      "itie": 6071,
      "Ġsie": 6072,
      "Ġvann": 6073,
      "Ġstolen": 6074,
      "Ġinainen": 6075,
      "Ġinderdoad": 6076,
      "Ġpank": 6077,
      "okte": 6078,
      "Ġroazen": 6079,
      "Ġome": 6080,
      "ĠHaalf": 6081,
      "ama": 6082,
      "Ġalvast": 6083,
      "Ġhaarfst": 6084,
      "Ġgruit": 6085,
      "reekt": 6086,
      "Ġoverkomt": 6087,
      "ĠKen": 6088,
      "Ġdoardeur": 6089,
      "Ġblif": 6090,
      "Ġlever": 6091,
      "Ġmoeten": 6092,
      "Ġdroag": 6093,
      "Ġdrukken": 6094,
      "ĠNet": 6095,
      "Ġslaip": 6096,
      "ĠZag": 6097,
      "Ġwoare": 6098,
      "ĠLicht": 6099,
      "ĠItal": 6100,
      "Ġevenpies": 6101,
      "ĠtrÃ¶ts": 6102,
      "ĠRem": 6103,
      "Ġachtern": 6104,
      "Ġtegenwor": 6105,
      "Ġtwee": 6106,
      "spl": 6107,
      "ĠFennie": 6108,
      "udd": 6109,
      "ĠallÃ¨nt": 6110,
      "Ġgeduld": 6111,
      "brand": 6112,
      "oele": 6113,
      "deghaid": 6114,
      "Ġ195": 6115,
      "kelke": 6116,
      "Ġnuimde": 6117,
      "Ġmisschain": 6118,
      "onteur": 6119,
      "Ġkunsten": 6120,
      "Ġverdween": 6121,
      "Olle": 6122,
      "ammeet": 6123,
      "Ġsukses": 6124,
      "Ġhailendal": 6125,
      "Ġkedo": 6126,
      "Ġspaigelploat": 6127,
      "ĠlÃ¨st": 6128,
      "zzip": 6129,
      "Ġconc": 6130,
      "ĠTwijde": 6131,
      "Ġvlugt": 6132,
      "ovvie": 6133,
      "ĠAmerikoa": 6134,
      "MMER": 6135,
      "23": 6136,
      "Dai": 6137,
      "Eer": 6138,
      "Joen": 6139,
      "Kw": 6140,
      "No": 6141,
      "OU": 6142,
      "Sw": 6143,
      "aut": 6144,
      "no": 6145,
      "poort": 6146,
      "sver": 6147,
      "sma": 6148,
      "uste": 6149,
      "vven": 6150,
      "zi": 6151,
      "zul": 6152,
      "era": 6153,
      "Ġdaank": 6154,
      "Ġdaans": 6155,
      "Ġnicht": 6156,
      "Ġwai": 6157,
      "Ġwet": 6158,
      "Ġvizzen": 6159,
      "Ġmuil": 6160,
      "ĠmÃ¶s": 6161,
      "Ġhoag": 6162,
      "Ġheeft": 6163,
      "Ġkouk": 6164,
      "Ġkelder": 6165,
      "Ġkikkers": 6166,
      "stuurd": 6167,
      "eloos": 6168,
      "Ġakt": 6169,
      "Ġgaan": 6170,
      "ath": 6171,
      "Ġlut": 6172,
      "Ġliene": 6173,
      "eertje": 6174,
      "Ġopnomen": 6175,
      "chte": 6176,
      "olt": 6177,
      "Ġpel": 6178,
      "Ġpooske": 6179,
      "genoam": 6180,
      "Ġreren": 6181,
      "Ġrabb": 6182,
      "Ġderover": 6183,
      "Ġveren": 6184,
      "Ġveural": 6185,
      "verhoalen": 6186,
      "lef": 6187,
      "levern": 6188,
      "alder": 6189,
      "oatuur": 6190,
      "ĠGoud": 6191,
      "ĠGeef": 6192,
      "Ġvraid": 6193,
      "Ã¶st": 6194,
      "uikema": 6195,
      "Ġoflopen": 6196,
      "Ġoetgeven": 6197,
      "ieker": 6198,
      "ull": 6199,
      "innent": 6200,
      "ĠKan": 6201,
      "Ġdoarover": 6202,
      "zes": 6203,
      "ĠVaaier": 6204,
      "ĠVelde": 6205,
      "Ġfig": 6206,
      "Ġainegste": 6207,
      "Ġmoi": 6208,
      "Ġklokje": 6209,
      "ĠNU": 6210,
      "Ġspin": 6211,
      "Ġtouval": 6212,
      "Ġtougelieks": 6213,
      "utte": 6214,
      "uutse": 6215,
      "Ġtrekker": 6216,
      "Ġtroost": 6217,
      "Ġnoadenken": 6218,
      "Ġwerd": 6219,
      "ĠRainder": 6220,
      "impel": 6221,
      "Ġplanten": 6222,
      "Ġplekje": 6223,
      "Ġachterhoes": 6224,
      "ĠEem": 6225,
      "Ġhierzoot": 6226,
      "Ġstroaten": 6227,
      "ĠStoal": 6228,
      "Ġzunner": 6229,
      "Ġ26": 6230,
      "Ġknienen": 6231,
      "Wieder": 6232,
      "ĠcafÃ©": 6233,
      "ĠglÃ¬n": 6234,
      "Doarnoa": 6235,
      "Ġsmook": 6236,
      "Ġgedachte": 6237,
      "odium": 6238,
      "Ġjongelu": 6239,
      "Ġgezichten": 6240,
      "Ġwaitenschop": 6241,
      "Ġpazzip": 6242,
      "Ġdrije": 6243,
      "ice": 6244,
      "oaterdag": 6245,
      "Ġverschienen": 6246,
      "volle": 6247,
      "Ġploatsen": 6248,
      "Ġ33": 6249,
      "Ġduustern": 6250,
      "ĠNoordhorn": 6251,
      "iff": 6252,
      "iften": 6253,
      "ĠSpelde": 6254,
      "ikkie": 6255,
      "wiezen": 6256,
      "Ġheergoan": 6257,
      "Ġvissen": 6258,
      "Ġaandre": 6259,
      "iedrinken": 6260,
      "Ġdoags": 6261,
      "Ġsukker": 6262,
      "Ġtoeze": 6263,
      "Ġoomke": 6264,
      "ĠDuutsers": 6265,
      "ĠkÃ¶st": 6266,
      "ommerdag": 6267,
      "Ġlanges": 6268,
      "Ġplestieken": 6269,
      "Vandoag": 6270,
      "Ġzeuns": 6271,
      "Ġdecember": 6272,
      "ĠTillema": 6273,
      "Ġenthousi": 6274,
      "AM": 6275,
      "Guster": 6276,
      "Gew": 6277,
      "Har": 6278,
      "Let": 6279,
      "Pas": 6280,
      "ade": 6281,
      "aver": 6282,
      "aber": 6283,
      "beg": 6284,
      "die": 6285,
      "daip": 6286,
      "ese": 6287,
      "ggen": 6288,
      "haar": 6289,
      "koop": 6290,
      "mo": 6291,
      "tocht": 6292,
      "wicht": 6293,
      "Ġand": 6294,
      "oake": 6295,
      "aiw": 6296,
      "Ġvel": 6297,
      "Ġvienen": 6298,
      "Ġvieren": 6299,
      "Ġma": 6300,
      "Ġmaarkt": 6301,
      "Ġtuzzen": 6302,
      "Ġodder": 6303,
      "Ġzand": 6304,
      "Ġkoale": 6305,
      "Ġkeel": 6306,
      "stien": 6307,
      "Ġbeurd": 6308,
      "elier": 6309,
      "oust": 6310,
      "Ġloag": 6311,
      "Ġstoadeg": 6312,
      "olog": 6313,
      "Ġrem": 6314,
      "verl": 6315,
      "Ġschait": 6316,
      "ĠWor": 6317,
      "ĠWicht": 6318,
      "ĠWuir": 6319,
      "aggen": 6320,
      "ĠBoots": 6321,
      "Ġwiezer": 6322,
      "Ġoveral": 6323,
      "ĠKaampke": 6324,
      "Ġblui": 6325,
      "Ġfluit": 6326,
      "Ġainege": 6327,
      "Ġdoul": 6328,
      "ĠAustr": 6329,
      "ĠNoor": 6330,
      "Ġkins": 6331,
      "aalven": 6332,
      "ĠOh": 6333,
      "Ġslacht": 6334,
      "Ġsloeten": 6335,
      "Ġbreken": 6336,
      "Ġbrekt": 6337,
      "Ġworrels": 6338,
      "ĠZit": 6339,
      "ĠZee": 6340,
      "Ã²r": 6341,
      "ĠLet": 6342,
      "neels": 6343,
      "imon": 6344,
      "Ġkopz": 6345,
      "ĠÃ²fstand": 6346,
      "Ġtwinneg": 6347,
      "Ġzunn": 6348,
      "oentje": 6349,
      "spannen": 6350,
      "ĠsnÃ¶t": 6351,
      "Ġminne": 6352,
      "Ġswemmen": 6353,
      "ĠSchrief": 6354,
      "Ġfietske": 6355,
      "irus": 6356,
      "eff": 6357,
      "Ġsprongen": 6358,
      "Ġverlaizen": 6359,
      "ĠdÃ¶rpke": 6360,
      "ĠBlief": 6361,
      "Ġstukjes": 6362,
      "akkerij": 6363,
      "aandere": 6364,
      "Ġhestoe": 6365,
      "Ġploatse": 6366,
      "Ġmissen": 6367,
      "Ġspeulgoud": 6368,
      "Ġvieftien": 6369,
      "ĠWesterkwartier": 6370,
      "ĠkÃ¶rde": 6371,
      "vloud": 6372,
      "vlogen": 6373,
      "Ġvertrokken": 6374,
      "Ġleefde": 6375,
      "appers": 6376,
      "gebaauw": 6377,
      "Ġorgan": 6378,
      "Ġverdwienen": 6379,
      "Ġstoefbie": 6380,
      "Ġdichterbie": 6381,
      "Ġschilder": 6382,
      "ĠWolf": 6383,
      "Ġgriepen": 6384,
      "ance": 6385,
      "Ġopschreven": 6386,
      "Ġbloumkes": 6387,
      "Ġemmer": 6388,
      "Ġvremde": 6389,
      "stoalege": 6390,
      "odewes": 6391,
      "Ġonneuzel": 6392,
      "ĠBootsman": 6393,
      ".âĢľ": 6394,
      "Ast": 6395,
      "ET": 6396,
      "Lekker": 6397,
      "Non": 6398,
      "Soavends": 6399,
      "Thoes": 6400,
      "con": 6401,
      "cus": 6402,
      "dijk": 6403,
      "iber": 6404,
      "jon": 6405,
      "loze": 6406,
      "pak": 6407,
      "rad": 6408,
      "rug": 6409,
      "Ġellen": 6410,
      "Ġ?âĢĿ": 6411,
      "aier": 6412,
      "Ġvier": 6413,
      "Ġmoezen": 6414,
      "Ġmure": 6415,
      "Ġheern": 6416,
      "Ġhev": 6417,
      "Ġzoepen": 6418,
      "Ġke": 6419,
      "Ġkans": 6420,
      "Ġboord": 6421,
      "Ġbood": 6422,
      "eltjes": 6423,
      "eutje": 6424,
      "Ġaait": 6425,
      "Ġgol": 6426,
      "Ġlap": 6427,
      "egheden": 6428,
      "ett": 6429,
      "Ġsoorten": 6430,
      "Ġoph": 6431,
      "Ġopvreten": 6432,
      "Ġsteden": 6433,
      "Ġpan": 6434,
      "Ġmitdoun": 6435,
      "Ġren": 6436,
      "Ġroet": 6437,
      "Ġrunt": 6438,
      "Ġjaas": 6439,
      "Ġvervol": 6440,
      "Ġtehoes": 6441,
      "uuste": 6442,
      "oppie": 6443,
      "oalie": 6444,
      "Ġbiedroagen": 6445,
      "ĠWichtje": 6446,
      "Ġomdele": 6447,
      "ĠGep": 6448,
      "Ġasmits": 6449,
      "Ġvrouge": 6450,
      "Ġoetdrukken": 6451,
      "ooid": 6452,
      "ĠBoven": 6453,
      "ĠBodewes": 6454,
      "ĠSk": 6455,
      "ĠSnij": 6456,
      "Ġgruide": 6457,
      "Ġgramm": 6458,
      "ĠMer": 6459,
      "ĠKerk": 6460,
      "ĠVoader": 6461,
      "stemmen": 6462,
      "riegen": 6463,
      "Ġlezers": 6464,
      "Ġkomm": 6465,
      "ĠJon": 6466,
      "Ġdouk": 6467,
      "ĠAans": 6468,
      "uurman": 6469,
      "Ġdrinkt": 6470,
      "ĠOP": 6471,
      "Ġspes": 6472,
      "ĠPeerd": 6473,
      "ĠLut": 6474,
      "oagers": 6475,
      "Ġolden": 6476,
      "ĠRe": 6477,
      "Ġhailtied": 6478,
      "antwoord": 6479,
      "ĠÃ²fschaaid": 6480,
      "astje": 6481,
      "Ġvolgen": 6482,
      "Ġstroeken": 6483,
      "Ġkozen": 6484,
      "Ġkosten": 6485,
      "ĠStel": 6486,
      "oensdag": 6487,
      "Ġgebit": 6488,
      "Ġsmui": 6489,
      "datteg": 6490,
      "Ġaigenste": 6491,
      "ĠSchol": 6492,
      "Ġschierste": 6493,
      "ounde": 6494,
      "swoar": 6495,
      "inda": 6496,
      "Veurdat": 6497,
      "uine": 6498,
      "ĠAnnoa": 6499,
      "VanÃ²f": 6500,
      "ĠUr": 6501,
      "ĠUut": 6502,
      "Ġgeldt": 6503,
      "Ġriep": 6504,
      "Ġriegen": 6505,
      "Ġhoogte": 6506,
      "ĠElis": 6507,
      "arreg": 6508,
      "Ġmeugelkhaid": 6509,
      "Ġstapde": 6510,
      "Ã²llen": 6511,
      "ammel": 6512,
      "Ġoranje": 6513,
      "moaker": 6514,
      "uvvel": 6515,
      "Ġknipt": 6516,
      "Ġkolde": 6517,
      "Ġrestaurant": 6518,
      "Ġkoarten": 6519,
      "ĠArbe": 6520,
      "SnÃ¶t": 6521,
      "Ġverdaind": 6522,
      "Ġsoldoat": 6523,
      "âĢĶâĢĶâĢĶâĢĶ": 6524,
      "Ġstevel": 6525,
      "ĠLaifde": 6526,
      "ĠAmerik": 6527,
      "Ġdommee": 6528,
      "ĠPaiter": 6529,
      "ĠbÃ¬nnen": 6530,
      "Ġwedstried": 6531,
      "Allenneg": 6532,
      "ĠNedersaksisch": 6533,
      "steboven": 6534,
      "Ġijs": 6535,
      "ĠJezus": 6536,
      "Ġgrijns": 6537,
      "ĠNUMMER": 6538,
      "AD": 6539,
      "Er": 6540,
      "Ho": 6541,
      "Hoe": 6542,
      "Joh": 6543,
      "Kwam": 6544,
      "Mis": 6545,
      "Mid": 6546,
      "Wol": 6547,
      "bet": 6548,
      "cl": 6549,
      "doezend": 6550,
      "gers": 6551,
      "hoe": 6552,
      "polder": 6553,
      "reken": 6554,
      "week": 6555,
      "yce": 6556,
      "zege": 6557,
      "zuiken": 6558,
      "Ġeterij": 6559,
      "Ġdeuze": 6560,
      "Ġdirekt": 6561,
      "Ġdoames": 6562,
      "oavels": 6563,
      "Ġwaang": 6564,
      "Ġvaste": 6565,
      "Ġmar": 6566,
      "Ġhekje": 6567,
      "Ġzakt": 6568,
      "Ġzachies": 6569,
      "Ġkeuze": 6570,
      "ĠbÃ¨re": 6571,
      "Ġenerg": 6572,
      "Ġlen": 6573,
      "Ġlien": 6574,
      "Ġlaai": 6575,
      "Ġlaam": 6576,
      "Ġloeren": 6577,
      "aaf": 6578,
      "ijden": 6579,
      "ainsten": 6580,
      "Ġstart": 6581,
      "Ġpat": 6582,
      "Ġpest": 6583,
      "Ġpert": 6584,
      "kent": 6585,
      "Ġverpleeg": 6586,
      "Ġveurop": 6587,
      "veren": 6588,
      "kemoa": 6589,
      "aliteit": 6590,
      "oaters": 6591,
      "Ġschieten": 6592,
      "ĠWit": 6593,
      "Ġasjeblieft": 6594,
      "ĠDus": 6595,
      "iedeg": 6596,
      "Ġvris": 6597,
      "Ġvreugde": 6598,
      "Ġbeet": 6599,
      "Ġbedenk": 6600,
      "ĠBon": 6601,
      "ĠBult": 6602,
      "ĠSie": 6603,
      "ĠSiet": 6604,
      "Ġgrom": 6605,
      "Ġgrens": 6606,
      "ĠMI": 6607,
      "rem": 6608,
      "Ġwiet": 6609,
      "schuld": 6610,
      "ĠKer": 6611,
      "Ġweeg": 6612,
      "ĠJa": 6613,
      "uurt": 6614,
      "Ġboog": 6615,
      "Ġsloa": 6616,
      "Ġspec": 6617,
      "ĠGrait": 6618,
      "Ġtocht": 6619,
      "Ġtoeren": 6620,
      "kern": 6621,
      "Ġtroan": 6622,
      "Ġnoader": 6623,
      "ĠRegen": 6624,
      "Ġtiedschrift": 6625,
      "ĠEen": 6626,
      "Ġknal": 6627,
      "Ġrevier": 6628,
      "Ġgloep": 6629,
      "Opoe": 6630,
      "ĠsmÃ¶rns": 6631,
      "aangs": 6632,
      "Ġallaank": 6633,
      "odom": 6634,
      "efee": 6635,
      "klap": 6636,
      "Ġsprekt": 6637,
      "Ġkovviedrinken": 6638,
      "schoppen": 6639,
      "Ġontst": 6640,
      "Ġklaainer": 6641,
      "Ġkoamertje": 6642,
      "ammert": 6643,
      "ĠMarlene": 6644,
      "Ġmishot": 6645,
      "ĠWesterdijk": 6646,
      "Ġbegroaven": 6647,
      "zegd": 6648,
      "Ġvertraauwd": 6649,
      "Blaauw": 6650,
      "Ġliest": 6651,
      "Ġschriefster": 6652,
      "ĠManske": 6653,
      "Ġgevoarlek": 6654,
      "Ġbepoalde": 6655,
      "anca": 6656,
      "Ġekstroa": 6657,
      "Ġhoukje": 6658,
      "stroate": 6659,
      "Ġoppazen": 6660,
      "Grunnegers": 6661,
      "Boetendes": 6662,
      "Benoam": 6663,
      "Ġondanks": 6664,
      "vatteg": 6665,
      "Ġspannend": 6666,
      "ĠdÃ¶rst": 6667,
      "iddersloagen": 6668,
      "arbara": 6669,
      "Ġaugustus": 6670,
      "Ġvriendin": 6671,
      "Ġpaasde": 6672,
      "Ġkraab": 6673,
      "ĠDroadproat": 6674,
      "BÃ©": 6675,
      "Croeze": 6676,
      "Joaren": 6677,
      "Noord": 6678,
      "SM": 6679,
      "Ste": 6680,
      "Soam": 6681,
      "Th": 6682,
      "hÃ¨n": 6683,
      "ioan": 6684,
      "iÃ©": 6685,
      "mail": 6686,
      "ues": 6687,
      "vek": 6688,
      "weerd": 6689,
      "wind": 6690,
      "wets": 6691,
      "zai": 6692,
      "zeb": 6693,
      "Ġ>": 6694,
      "Ġdizzent": 6695,
      "Ġnoorden": 6696,
      "Ġmeug": 6697,
      "Ġhoak": 6698,
      "Ġhap": 6699,
      "Ġhoane": 6700,
      "Ġhikh": 6701,
      "ĠzÃ¶ch": 6702,
      "Ġkuren": 6703,
      "euten": 6704,
      "Ġgier": 6705,
      "Ġgaven": 6706,
      "ato": 6707,
      "eters": 6708,
      "Ġvanof": 6709,
      "ome": 6710,
      "Ġsteun": 6711,
      "Ġstook": 6712,
      "Ġint": 6713,
      "Ġpreek": 6714,
      "vent": 6715,
      "Ġverte": 6716,
      "Ġvernomen": 6717,
      "Ġverzichteg": 6718,
      "Ġverkeren": 6719,
      "leverd": 6720,
      "alis": 6721,
      "Ġschoel": 6722,
      "Ġschaaiden": 6723,
      "Ġasf": 6724,
      "Ġalbum": 6725,
      "Ã¶g": 6726,
      "Ã¶mer": 6727,
      "Ġbeden": 6728,
      "Ġoetsproak": 6729,
      "Ġgrai": 6730,
      "ĠMie": 6731,
      "rede": 6732,
      "Ġwiel": 6733,
      "school": 6734,
      "schrieven": 6735,
      "Ġaals": 6736,
      "stert": 6737,
      "Ġbloazen": 6738,
      "Ġblaik": 6739,
      "Ġfersoun": 6740,
      "ĠJoap": 6741,
      "Ġainv": 6742,
      "oortje": 6743,
      "Ġklokken": 6744,
      "Ġbozzen": 6745,
      "Ġbodem": 6746,
      "ĠOr": 6747,
      "Ġsloug": 6748,
      "Ġbraiven": 6749,
      "Ġbragel": 6750,
      "Ġspel": 6751,
      "Ġspiet": 6752,
      "Ġdinkt": 6753,
      "ĠToch": 6754,
      "Ġaiveg": 6755,
      "Ġjoardag": 6756,
      "Ġpladdel": 6757,
      "Ġachterover": 6758,
      "Ġstreu": 6759,
      "Ġstreken": 6760,
      "iekens": 6761,
      "Ġsnaachts": 6762,
      "ekerij": 6763,
      "Ġmeel": 6764,
      "Ġpergram": 6765,
      "Ġverdaipen": 6766,
      "ommege": 6767,
      "Ġontdek": 6768,
      "ompie": 6769,
      "Ġkeerske": 6770,
      "Ġbewust": 6771,
      "outnis": 6772,
      "Ġverscheen": 6773,
      "Ã¶rgd": 6774,
      "zoame": 6775,
      "ĠMarie": 6776,
      "Ã«l": 6777,
      "Vera": 6778,
      "Ġ2018": 6779,
      "Ġverdwient": 6780,
      "ĠMidwinter": 6781,
      "Ġzulver": 6782,
      "appern": 6783,
      "Ġschudden": 6784,
      "Ġnoatuurlek": 6785,
      "dertoal": 6786,
      "Ġpepieren": 6787,
      "Ġallerh": 6788,
      "Ġsteveg": 6789,
      "ĠTerry": 6790,
      "Ġbaistje": 6791,
      "Ġbuuts": 6792,
      "Ġschuurtje": 6793,
      "ĠBernlef": 6794,
      "Ġkwoajong": 6795,
      "wereld": 6796,
      "Ġwoarschaauwen": 6797,
      "Ġdoadelk": 6798,
      "Ġmuilek": 6799,
      "ĠArbeider": 6800,
      "Flipje": 6801,
      "HÃ¨": 6802,
      "TER": 6803,
      "UT": 6804,
      "Wim": 6805,
      "Waiten": 6806,
      "baand": 6807,
      "boog": 6808,
      "eenk": 6809,
      "ianca": 6810,
      "joa": 6811,
      "ners": 6812,
      "oz": 6813,
      "reltje": 6814,
      "ue": 6815,
      "ych": 6816,
      "zw": 6817,
      "zat": 6818,
      "zien": 6819,
      "Ġ/": 6820,
      "Ġwoapen": 6821,
      "Ġvari": 6822,
      "iebe": 6823,
      "Ġmee": 6824,
      "Ġmokt": 6825,
      "Ġtv": 6826,
      "Ġtanden": 6827,
      "Ġkoater": 6828,
      "inke": 6829,
      "elaand": 6830,
      "oude": 6831,
      "Ġenkeld": 6832,
      "Ġlapt": 6833,
      "ĠvanzÃ¶lf": 6834,
      "Ġopeten": 6835,
      "Ġopmaarken": 6836,
      "deren": 6837,
      "Ġstoen": 6838,
      "Ġpaark": 6839,
      "okjes": 6840,
      "Ġaantr": 6841,
      "Ġverainen": 6842,
      "aanse": 6843,
      "Ġveurwaarp": 6844,
      "verten": 6845,
      "Ġschudt": 6846,
      "Ġbieten": 6847,
      "Ġzodder": 6848,
      "Ġzestien": 6849,
      "ĠDut": 6850,
      "ĠDur": 6851,
      "aaizer": 6852,
      "Ġmieter": 6853,
      "Ġvracht": 6854,
      "Ġvred": 6855,
      "ĠBed": 6856,
      "ĠSier": 6857,
      "ĠSiemon": 6858,
      "uldeg": 6859,
      "sterg": 6860,
      "sterwieke": 6861,
      "ĠVand": 6862,
      "Ġfik": 6863,
      "Ġfant": 6864,
      "elkse": 6865,
      "Ġmoderne": 6866,
      "emain": 6867,
      "Ġword": 6868,
      "ĠZand": 6869,
      "Ġkruus": 6870,
      "ĠIes": 6871,
      "Ġtrovven": 6872,
      "Ġmouder": 6873,
      "urf": 6874,
      "Ġbegel": 6875,
      "Ġtegenkommen": 6876,
      "Ġonderd": 6877,
      "Ġdoem": 6878,
      "Ġsnee": 6879,
      "ĠFeest": 6880,
      "Ġsmak": 6881,
      "Ġaigenliek": 6882,
      "osette": 6883,
      "Ġbeleefd": 6884,
      "Ġgezell": 6885,
      "Ġbedankt": 6886,
      "Ġzokse": 6887,
      "plaain": 6888,
      "Ġvongen": 6889,
      "nijsterwieke": 6890,
      "Ġvergoadern": 6891,
      "Ġgaauwachteg": 6892,
      "heim": 6893,
      "Ġverkoop": 6894,
      "ovver": 6895,
      "ĠlÃ¶zze": 6896,
      "Ġherder": 6897,
      "Ġvoutjes": 6898,
      "verdoatsie": 6899,
      "ĠDijk": 6900,
      "vlaigen": 6901,
      "ĠDrij": 6902,
      "Ġzeuventien": 6903,
      "Ġverzeker": 6904,
      "Ġwitte": 6905,
      "Ġzummerdag": 6906,
      "Ġbehuif": 6907,
      "Ġheeg": 6908,
      "Ġwastoe": 6909,
      "Ġdunne": 6910,
      "ĠzÃ¶lfs": 6911,
      "Ġbaankje": 6912,
      "Ġaanboden": 6913,
      "Ġnuimt": 6914,
      "view": 6915,
      "ĠLeste": 6916,
      "ĠVisser": 6917,
      "ĠbÃ¶rgmeester": 6918,
      "Ġpiepen": 6919,
      "Ġreaksies": 6920,
      "Ġdubbel": 6921,
      "ĠNiehof": 6922,
      "Ġsegoar": 6923,
      "Ġtieger": 6924,
      "Ġgedrag": 6925,
      "Ġknecht": 6926,
      "Ġrekloame": 6927,
      "27": 6928,
      "Aar": 6929,
      "Das": 6930,
      "Europ": 6931,
      "Haren": 6932,
      "Minsen": 6933,
      "Oma": 6934,
      "TV": 6935,
      "Tiny": 6936,
      "Uut": 6937,
      "Vief": 6938,
      "bar": 6939,
      "dy": 6940,
      "dÃ¶rp": 6941,
      "fon": 6942,
      "feer": 6943,
      "handen": 6944,
      "heufd": 6945,
      "jonges": 6946,
      "lien": 6947,
      "mie": 6948,
      "mak": 6949,
      "maarkt": 6950,
      "nou": 6951,
      "pries": 6952,
      "sbenaauwd": 6953,
      "toalen": 6954,
      "Ġuw": 6955,
      "Ġna": 6956,
      "Ġneg": 6957,
      "Ġnot": 6958,
      "Ġwens": 6959,
      "iete": 6960,
      "Ġoef": 6961,
      "Ġhang": 6962,
      "ĠhÃ¶rn": 6963,
      "Ġhunneg": 6964,
      "Ġkie": 6965,
      "Ġkam": 6966,
      "Ġkefee": 6967,
      "Ġbaide": 6968,
      "eugel": 6969,
      "Ġgasten": 6970,
      "ator": 6971,
      "Ġenne": 6972,
      "Ġleken": 6973,
      "Ġlainen": 6974,
      "etern": 6975,
      "Ġse": 6976,
      "Ġserie": 6977,
      "ijer": 6978,
      "Ġstaal": 6979,
      "Ġaankwam": 6980,
      "Ġrekend": 6981,
      "Ġjanken": 6982,
      "Ġeh": 6983,
      "Ġveureerst": 6984,
      "uugd": 6985,
      "Ġheurzulf": 6986,
      "oalt": 6987,
      "oats": 6988,
      "Ġschienen": 6989,
      "Ġschoft": 6990,
      "Ġmorzo": 6991,
      "ĠWar": 6992,
      "ĠWelke": 6993,
      "ĠWulm": 6994,
      "Ġomgoan": 6995,
      "ĠHij": 6996,
      "Ġasiel": 6997,
      "Ġmiemer": 6998,
      "Ġgep": 6999,
      "Ġoetp": 7000,
      "ĠSodom": 7001,
      "ula": 7002,
      "Ġovernomen": 7003,
      "zef": 7004,
      "Ġblind": 7005,
      "Ġfie": 7006,
      "ĠJac": 7007,
      "ĠJakob": 7008,
      "ĠJampie": 7009,
      "...?": 7010,
      "Ġkweek": 7011,
      "Ġklant": 7012,
      "Ġklaine": 7013,
      "ĠNeuteboom": 7014,
      "eulie": 7015,
      "issen": 7016,
      "ĠZeg": 7017,
      "ĠZiel": 7018,
      "ĠTegen": 7019,
      "Ġwoarbie": 7020,
      "ĠItoal": 7021,
      "Ġzegst": 7022,
      "sept": 7023,
      "Ġprat": 7024,
      "Ġprogr": 7025,
      "Ġollen": 7026,
      "izon": 7027,
      "Ġplant": 7028,
      "idag": 7029,
      "ĠÃ²fsproak": 7030,
      "ĠEer": 7031,
      "ĠErik": 7032,
      "Ġkook": 7033,
      "Ġaanderkaant": 7034,
      "Ġ27": 7035,
      "Ġknie": 7036,
      "Ġknop": 7037,
      "Ġsmiezen": 7038,
      "Ġaarf": 7039,
      "ĠSchl": 7040,
      "ĠCo": 7041,
      "Ġzwait": 7042,
      "bewies": 7043,
      "Ġappar": 7044,
      "Ġstilleghaid": 7045,
      "Ġhemels": 7046,
      "epier": 7047,
      "Ġlaankoet": 7048,
      "Ġverdocht": 7049,
      "omenten": 7050,
      "kleur": 7051,
      "Ġklaaink": 7052,
      "Stil": 7053,
      "Ġverschr": 7054,
      "Ġverschelen": 7055,
      "ĠVrouger": 7056,
      "Alle": 7057,
      "ĠFran": 7058,
      "Ġduurd": 7059,
      "ĠSlochter": 7060,
      "Ġbero": 7061,
      "Ġschoulmeester": 7062,
      "veurbeeld": 7063,
      "Ġgekl": 7064,
      "Ġoorspr": 7065,
      "ĠElkenain": 7066,
      "Vroag": 7067,
      "Ġvieve": 7068,
      "Ġkereltje": 7069,
      "Aaltied": 7070,
      "ĠJozef": 7071,
      "Ġmeugelkheden": 7072,
      "Ġ2013": 7073,
      "Ġmiddenmaank": 7074,
      "Ġbesloot": 7075,
      "Ġverrekte": 7076,
      "ĠHenderk": 7077,
      "allinga": 7078,
      "Ġzulde": 7079,
      "ĠÃ¬nde": 7080,
      "Ġdoaglieks": 7081,
      "Ġvuurwaark": 7082,
      "ĠOethoezen": 7083,
      "Onner": 7084,
      "ĠPloeg": 7085,
      "Ġgezelschop": 7086,
      "ĠBenz": 7087,
      "Ġkoartjes": 7088,
      "ĠSunner": 7089,
      "Ġschaarpe": 7090,
      "Ġvermoord": 7091,
      "Ġalderdeegs": 7092,
      "ĠBegun": 7093,
      "Ġaarbaiders": 7094,
      "Ġeuliek": 7095,
      "Ġspieker": 7096,
      "Ġsteerns": 7097,
      "raaize": 7098,
      "ĠSproak": 7099,
      "Ġwoning": 7100,
      "ĠGrÃ¶nnen": 7101,
      "Ġbejoardenhoes": 7102,
      "Ġgroder": 7103,
      "oÃ«zie": 7104,
      "Ad": 7105,
      "Lang": 7106,
      "Neem": 7107,
      "Nije": 7108,
      "Wacht": 7109,
      "Wazzen": 7110,
      "Zw": 7111,
      "bui": 7112,
      "boeren": 7113,
      "hin": 7114,
      "ioen": 7115,
      "jet": 7116,
      "mt": 7117,
      "mirreg": 7118,
      "ph": 7119,
      "puut": 7120,
      "want": 7121,
      "woners": 7122,
      "zunder": 7123,
      "Ã´": 7124,
      "ĠÃ©": 7125,
      "Ġdammeet": 7126,
      "Ġnof": 7127,
      "Ġnadde": 7128,
      "Ġwus": 7129,
      "Ġwaaide": 7130,
      "Ġwadden": 7131,
      "anterg": 7132,
      "Ġvleden": 7133,
      "Ġmeld": 7134,
      "Ġmoalen": 7135,
      "Ġmaarken": 7136,
      "Ġmonnen": 7137,
      "Ġmelden": 7138,
      "Ġhut": 7139,
      "Ġhenk": 7140,
      "Ġhuf": 7141,
      "Ġhoorn": 7142,
      "Ġzoaterdag": 7143,
      "Ġkolen": 7144,
      "Ġkare": 7145,
      "ĠkÃ²cht": 7146,
      "stell": 7147,
      "Ġbaisten": 7148,
      "eugen": 7149,
      "chn": 7150,
      "Ġgege": 7151,
      "Ġgere": 7152,
      "Ġgaanzen": 7153,
      "eurten": 7154,
      "eth": 7155,
      "Ġsokken": 7156,
      "omoat": 7157,
      "Ġpodium": 7158,
      "aargen": 7159,
      "Ġrout": 7160,
      "Ġriddersloagen": 7161,
      "Ġju": 7162,
      "vend": 7163,
      "Ġveuraan": 7164,
      "opmoak": 7165,
      "lever": 7166,
      "ikip": 7167,
      "Ġscheer": 7168,
      "Ġschot": 7169,
      "Ġienains": 7170,
      "ĠWaark": 7171,
      "Ġzoer": 7172,
      "ĠHait": 7173,
      "ĠDam": 7174,
      "ĠDokter": 7175,
      "ĠDaip": 7176,
      "amen": 7177,
      "Ġhaars": 7178,
      "ĠMes": 7179,
      "Ġoverd": 7180,
      "sterde": 7181,
      "ĠVek": 7182,
      "ĠVeenk": 7183,
      "riezen": 7184,
      "geval": 7185,
      "ĠJer": 7186,
      "ĠJaap": 7187,
      "Ġmodder": 7188,
      "Ġdrink": 7189,
      "Ġkroam": 7190,
      "Ġkropt": 7191,
      "ĠLu": 7192,
      "elske": 7193,
      "nechie": 7194,
      "Ġproater": 7195,
      "igr": 7196,
      "imp": 7197,
      "aaierden": 7198,
      "oonstellen": 7199,
      "Ġeerns": 7200,
      "Ġzitst": 7201,
      "Ġkoek": 7202,
      "Ġkool": 7203,
      "ĠStaal": 7204,
      "Ġlaiwe": 7205,
      "Ġzunde": 7206,
      "istische": 7207,
      "ips": 7208,
      "Ġcr": 7209,
      "Ġresep": 7210,
      "Ġglieden": 7211,
      "Ġsmieten": 7212,
      "Ġswienen": 7213,
      "perd": 7214,
      "broek": 7215,
      "Ġzelf": 7216,
      "Ġzelst": 7217,
      "vroagen": 7218,
      "Ġstilstoan": 7219,
      "Ġdichtbie": 7220,
      "aifd": 7221,
      "Ġvergat": 7222,
      "sproaken": 7223,
      "Ġleugen": 7224,
      "Ġkeerskes": 7225,
      "Ġrozen": 7226,
      "Ġklaaindochter": 7227,
      "Ġverschenen": 7228,
      "uppen": 7229,
      "Ġrusten": 7230,
      "ĠlÃ¶sl": 7231,
      "Ġbere": 7232,
      "Ġrieke": 7233,
      "Ġvrijhaid": 7234,
      "akkie": 7235,
      "Elks": 7236,
      "Ã³s": 7237,
      "Grode": 7238,
      "EUR": 7239,
      "selke": 7240,
      "Ġbegript": 7241,
      "Ġbloume": 7242,
      "Ġpotlood": 7243,
      "Ġluustert": 7244,
      "Ġpebaaierd": 7245,
      "waarpen": 7246,
      "uzzel": 7247,
      "Ġaandoun": 7248,
      "Ġmaint": 7249,
      "Ġgebrek": 7250,
      "Ġgebroek": 7251,
      "Kreuze": 7252,
      "Ġschudkop": 7253,
      "Ġnatuur": 7254,
      "ock": 7255,
      "Ġakk": 7256,
      "ikkert": 7257,
      "ĠEngelse": 7258,
      "ĠÃ¨nne": 7259,
      "Ġtemin": 7260,
      "Ġzichtboar": 7261,
      "Ġdwarr": 7262,
      "ĠGeluk": 7263,
      "Ġautootje": 7264,
      "ĠÃĴf": 7265,
      "Ġschaarp": 7266,
      "Ġbetaikenis": 7267,
      "ĠMeneer": 7268,
      "ĠChrist": 7269,
      "Ġyou": 7270,
      "ĠWesterketier": 7271,
      "Ġdeksel": 7272,
      "Ġmeubels": 7273,
      "ĠwÃ¨nst": 7274,
      "Leste": 7275,
      "Ġrebulie": 7276,
      "Ġstamppot": 7277,
      "Ġsitu": 7278,
      "Ġgramn": 7279,
      "ĠFrankriek": 7280,
      "Ġgelegenhaid": 7281,
      "Ġgrenzen": 7282,
      "Ġmeuglek": 7283,
      "Ġpladdelaand": 7284,
      "ĠSchlÃ¶mer": 7285,
      "ikiped": 7286,
      "Baaident": 7287,
      "God": 7288,
      "Giny": 7289,
      "KE": 7290,
      "LO": 7291,
      "Lutje": 7292,
      "Oom": 7293,
      "Spr": 7294,
      "ader": 7295,
      "baarg": 7296,
      "ca": 7297,
      "kund": 7298,
      "keuken": 7299,
      "mand": 7300,
      "neke": 7301,
      "rond": 7302,
      "sd": 7303,
      "voar": 7304,
      "voader": 7305,
      "vinger": 7306,
      "wedde": 7307,
      "Â©": 7308,
      "Ġduvels": 7309,
      "Ġnie": 7310,
      "Ġnachten": 7311,
      "Ġwa": 7312,
      "Ġtelt": 7313,
      "Ġhege": 7314,
      "Ġhaaiden": 7315,
      "Ġkapt": 7316,
      "Ġkoamers": 7317,
      "Ġaff": 7318,
      "Ġlam": 7319,
      "Ġlied": 7320,
      "Ġso": 7321,
      "orre": 7322,
      "Ġvanuut": 7323,
      "Ġdekens": 7324,
      "Ġopstoan": 7325,
      "Ġsturven": 7326,
      "Ġpaan": 7327,
      "Ġpoes": 7328,
      "Ġpizz": 7329,
      "genoot": 7330,
      "genoten": 7331,
      "Ġaank": 7332,
      "Ġaantrekken": 7333,
      "Ġveran": 7334,
      "Ġveurover": 7335,
      "Ġveurkoamer": 7336,
      "Ġwassen": 7337,
      "ĠWE": 7338,
      "ĠWeek": 7339,
      "ĠWiekens": 7340,
      "Ġomr": 7341,
      "Ġzedde": 7342,
      "ĠGert": 7343,
      "ĠHam": 7344,
      "ĠHoofd": 7345,
      "ĠHinnerk": 7346,
      "Ġbesp": 7347,
      "Ġoetkiek": 7348,
      "ĠSien": 7349,
      "schier": 7350,
      "schoten": 7351,
      "ĠKamp": 7352,
      "Ġdeurlopen": 7353,
      "Ġbloot": 7354,
      "Ġbloaren": 7355,
      "Enne": 7356,
      "Ġfle": 7357,
      "Ġfun": 7358,
      "elkaast": 7359,
      "Ġkwart": 7360,
      "Ġdragt": 7361,
      "ĠNiks": 7362,
      "oamelk": 7363,
      "Ġslot": 7364,
      "isie": 7365,
      "Ġbrogge": 7366,
      "Ġspl": 7367,
      "Ġdinsdag": 7368,
      "Ġtougeven": 7369,
      "ĠLaand": 7370,
      "neger": 7371,
      "kerij": 7372,
      "Ġdieverdoatsie": 7373,
      "Ġpruiven": 7374,
      "Ġmoudertoal": 7375,
      "Ã¬nd": 7376,
      "ĠRiek": 7377,
      "ĠGrunn": 7378,
      "Ġeerb": 7379,
      "Ġeerdoags": 7380,
      "ĠÃ²fl": 7381,
      "Ġtegenaan": 7382,
      "astland": 7383,
      "oadje": 7384,
      "Ġonderwies": 7385,
      "odem": 7386,
      "Ġsnieden": 7387,
      "ugo": 7388,
      "Ġmoois": 7389,
      "ĠIsra": 7390,
      "Ġverhoezen": 7391,
      "Ġsmit": 7392,
      "ottern": 7393,
      "Ġbegund": 7394,
      "ĠCato": 7395,
      "liekse": 7396,
      "ĠGrunnegerlaand": 7397,
      "vroag": 7398,
      "holdt": 7399,
      "Ġ193": 7400,
      "Ġklaainkinder": 7401,
      "outube": 7402,
      "ĠUt": 7403,
      "undels": 7404,
      "Ġriebewies": 7405,
      "Ġspeulden": 7406,
      "Ġschoultied": 7407,
      "innerns": 7408,
      "ĠJoyce": 7409,
      "Ġaaigen": 7410,
      "Ġspultje": 7411,
      "ĠGronings": 7412,
      "Ġbeslist": 7413,
      "ĠMidwol": 7414,
      "Ġschild": 7415,
      "Ġaargenswoar": 7416,
      "ĠGew": 7417,
      "Ġstaarker": 7418,
      "ĠHerman": 7419,
      "Ġbakje": 7420,
      "Ġveule": 7421,
      "Weerom": 7422,
      "aravan": 7423,
      "Ġgezondhaid": 7424,
      "Ġbulten": 7425,
      "ĠYou": 7426,
      "risis": 7427,
      "Ġimmer": 7428,
      "ĠKoba": 7429,
      "Ġpeper": 7430,
      "Ġkeunegin": 7431,
      "Ġbeloofde": 7432,
      "Ġhevve": 7433,
      "Ġlaptop": 7434,
      "Ġzodderdag": 7435,
      "Domie": 7436,
      "Gaait": 7437,
      "Hanne": 7438,
      "Joakob": 7439,
      "Mooie": 7440,
      "Vuil": 7441,
      "Wer": 7442,
      "Wait": 7443,
      "Wenneer": 7444,
      "Zit": 7445,
      "bek": 7446,
      "baaier": 7447,
      "cc": 7448,
      "ect": 7449,
      "hal": 7450,
      "moeke": 7451,
      "oidag": 7452,
      "pet": 7453,
      "pte": 7454,
      "rom": 7455,
      "vve": 7456,
      "ĠX": 7457,
      "ĠÃ¶rgel": 7458,
      "Ġdooie": 7459,
      "Ġnoch": 7460,
      "Ġwad": 7461,
      "Ġwale": 7462,
      "Ġwizz": 7463,
      "Ġveer": 7464,
      "Ġviel": 7465,
      "Ġmail": 7466,
      "Ġtikt": 7467,
      "Ġtuun": 7468,
      "Ġheerd": 7469,
      "Ġbelk": 7470,
      "Ġball": 7471,
      "Ġaf": 7472,
      "Ġgast": 7473,
      "Ġgaist": 7474,
      "Ġenz": 7475,
      "Ġloon": 7476,
      "Ġopgeven": 7477,
      "Ġopholden": 7478,
      "Ġstomm": 7479,
      "ĠstÃ¶t": 7480,
      "Ġstopte": 7481,
      "Ġstrieken": 7482,
      "Ġinr": 7483,
      "oloog": 7484,
      "oller": 7485,
      "Ġpomp": 7486,
      "Ġraive": 7487,
      "Ġjan": 7488,
      "Ġjaar": 7489,
      "Ġjur": 7490,
      "Ġverspr": 7491,
      "Ġveuruut": 7492,
      "verg": 7493,
      "verk": 7494,
      "Ġschoa": 7495,
      "Ġschoven": 7496,
      "Ġschone": 7497,
      "ĠWe": 7498,
      "ĠWis": 7499,
      "Ġzoon": 7500,
      "ĠGriep": 7501,
      "ĠHaart": 7502,
      "ĠDood": 7503,
      "Ġzienent": 7504,
      "Ġvro": 7505,
      "Ġoetleg": 7506,
      "Ġoetkieken": 7507,
      "ĠBoas": 7508,
      "ĠBÃ¶rg": 7509,
      "Ġgrui": 7510,
      "ĠMulder": 7511,
      "Ġoverst": 7512,
      "Ġoverdag": 7513,
      "schud": 7514,
      "Ġmienjong": 7515,
      "ĠKinnen": 7516,
      "Ġbluien": 7517,
      "Ġfel": 7518,
      "ĠJetje": 7519,
      "oorde": 7520,
      "Ġklomp": 7521,
      "Ġboegen": 7522,
      "Ġdreef": 7523,
      "ĠOaltje": 7524,
      "isc": 7525,
      "Ġsporen": 7526,
      "ĠZummer": 7527,
      "ĠZunder": 7528,
      "Ġkons": 7529,
      "ĠPim": 7530,
      "ĠLi": 7531,
      "ĠLies": 7532,
      "ump": 7533,
      "umpel": 7534,
      "kerels": 7535,
      "Ġprod": 7536,
      "Ġnoaz": 7537,
      "ĠRikoa": 7538,
      "ima": 7539,
      "imeter": 7540,
      "izzie": 7541,
      "Ġplaain": 7542,
      "Ġplakken": 7543,
      "ida": 7544,
      "ĠÃ²fsproken": 7545,
      "ĠEerst": 7546,
      "Ġvolgt": 7547,
      "Ġstrakke": 7548,
      "Ġstruun": 7549,
      "ĠStallinga": 7550,
      "speulen": 7551,
      "ugst": 7552,
      "Ġcd": 7553,
      "Ġcir": 7554,
      "Ġ...?": 7555,
      "mannen": 7556,
      "Ġglidt": 7557,
      "Doarnoast": 7558,
      "Ġsmokje": 7559,
      "Ġaarger": 7560,
      "Ġdikker": 7561,
      "ochten": 7562,
      "Ġfietspad": 7563,
      "Ġbenul": 7564,
      "vrij": 7565,
      "Ġharm": 7566,
      "streken": 7567,
      "Ġdrijen": 7568,
      "Ġeenden": 7569,
      "Ġsproken": 7570,
      "ommed": 7571,
      "Ġhelp": 7572,
      "spreken": 7573,
      "Ġkeerzen": 7574,
      "eltoat": 7575,
      "ovveln": 7576,
      "Ġverbonden": 7577,
      "Als": 7578,
      "Ġkerkje": 7579,
      "woordeg": 7580,
      "Ġhaiten": 7581,
      "ellie": 7582,
      "Ġloopt": 7583,
      "Ġstroate": 7584,
      "ĠWesterwol": 7585,
      "Ġduusternis": 7586,
      "Ġverdroagen": 7587,
      "ĠGerard": 7588,
      "zeggen": 7589,
      "ĠDerkie": 7590,
      "Ġgevuilens": 7591,
      "Ġkeukentoavel": 7592,
      "Ġpebaaiert": 7593,
      "Ġ2014": 7594,
      "Ġ2015": 7595,
      "Ġvertraauwde": 7596,
      "gedijk": 7597,
      "!!!!": 7598,
      "Ġperbaaierd": 7599,
      "Ġperblemen": 7600,
      "Ġ50": 7601,
      "uffeur": 7602,
      "Ġhumor": 7603,
      "Ġsoamenwaarken": 7604,
      "ksels": 7605,
      "Ġsuker": 7606,
      "Ġliester": 7607,
      "Ġveraanderd": 7608,
      "Ġmesien": 7609,
      "Ġmesschain": 7610,
      "ĠstudÃ¬nt": 7611,
      "ĠSwartje": 7612,
      "Ġopzuiken": 7613,
      "Ġoetzuiken": 7614,
      "Allinneg": 7615,
      "ĠSteven": 7616,
      "ĠMenze": 7617,
      "Ġhaldaal": 7618,
      "Ġbrandweer": 7619,
      "Ġtraauwens": 7620,
      "bedrief": 7621,
      "Ġextr": 7622,
      "goave": 7623,
      "Ġfluusterde": 7624,
      "Ġverswonnen": 7625,
      "Terwiel": 7626,
      "ĠzÃ¨ggen": 7627,
      "Ġwennen": 7628,
      "ĠwÃ¬nst": 7629,
      "Ġhartstikke": 7630,
      "Ġreageerde": 7631,
      "willeg": 7632,
      "ĠErwin": 7633,
      "Ġlekkers": 7634,
      "teboer": 7635,
      "Ġonmeugelk": 7636,
      "Ġmuggen": 7637,
      "Ġmaiste": 7638,
      "Ġabbels": 7639,
      "Ġinspir": 7640,
      "bezuik": 7641,
      "Ġpankouk": 7642,
      "Gewoon": 7643,
      "ĠSunnerkloas": 7644,
      "26": 7645,
      "Ar": 7646,
      "Ales": 7647,
      "DA": 7648,
      "Jurrie": 7649,
      "Kreeg": 7650,
      "Nooit": 7651,
      "OT": 7652,
      "Toal": 7653,
      "Wees": 7654,
      "abbe": 7655,
      "baaident": 7656,
      "dou": 7657,
      "ike": 7658,
      "joans": 7659,
      "landers": 7660,
      "nander": 7661,
      "oeker": 7662,
      "post": 7663,
      "roat": 7664,
      "vÃ¶rm": 7665,
      "winneg": 7666,
      "youtube": 7667,
      "Ġ*": 7668,
      "Ġoap": 7669,
      "Ġdoes": 7670,
      "Ġnut": 7671,
      "Ġwenk": 7672,
      "Ġvest": 7673,
      "Ġtj": 7674,
      "Ġtaan": 7675,
      "Ġtaimke": 7676,
      "Ġoh": 7677,
      "Ġoer": 7678,
      "Ġhongen": 7679,
      "Ġhonde": 7680,
      "Ġzaa": 7681,
      "Ġzon": 7682,
      "Ġkeur": 7683,
      "Ġkez": 7684,
      "Ġkaauwen": 7685,
      "Ġbeer": 7686,
      "Ġbaarm": 7687,
      "Ġbonken": 7688,
      "Ġbuzzen": 7689,
      "Ġbaiden": 7690,
      "elijk": 7691,
      "eule": 7692,
      "euvel": 7693,
      "Ġaail": 7694,
      "Ġgeg": 7695,
      "Ġgar": 7696,
      "Ġloa": 7697,
      "Ġlichten": 7698,
      "Ġlanteern": 7699,
      "Ġsol": 7700,
      "oning": 7701,
      "Ġdeken": 7702,
      "Ġstoe": 7703,
      "Ġstoel": 7704,
      "Ġstelt": 7705,
      "olon": 7706,
      "Ġpaardie": 7707,
      "Ġmitmoaken": 7708,
      "Ġein": 7709,
      "Ġverre": 7710,
      "Ġvergel": 7711,
      "Ġverve": 7712,
      "Ġvergeven": 7713,
      "Ġverzet": 7714,
      "Ġveurkommen": 7715,
      "ilm": 7716,
      "untje": 7717,
      "ikst": 7718,
      "Ġschou": 7719,
      "Ġschare": 7720,
      "Ġbiekommen": 7721,
      "ĠWaarm": 7722,
      "Ġomdr": 7723,
      "ĠGerd": 7724,
      "ĠHu": 7725,
      "ĠHel": 7726,
      "ĠHoat": 7727,
      "ĠHeurde": 7728,
      "Ġvruigen": 7729,
      "Ġaleer": 7730,
      "Ġgej": 7731,
      "Ġofdat": 7732,
      "ĠBianca": 7733,
      "ultje": 7734,
      "Ġhaarten": 7735,
      "Ġgroten": 7736,
      "rey": 7737,
      "Ġwieten": 7738,
      "Ġoverkommen": 7739,
      "Ġoverkaant": 7740,
      "Ġovernemen": 7741,
      "ĠKneels": 7742,
      "riepen": 7743,
      "Ġblond": 7744,
      "Ġfor": 7745,
      "Ġfem": 7746,
      "oorns": 7747,
      "Ã¶rge": 7748,
      "uurvraauw": 7749,
      "oakte": 7750,
      "Ġdraaid": 7751,
      "ĠOma": 7752,
      "Ġsliek": 7753,
      "ukte": 7754,
      "Ġbringt": 7755,
      "Ġbrulde": 7756,
      "Ġspan": 7757,
      "Ġspuit": 7758,
      "Ġspoaren": 7759,
      "Ġsputter": 7760,
      "ĠZuik": 7761,
      "ĠTen": 7762,
      "ĠTinus": 7763,
      "Ġtoustand": 7764,
      "ĠPeter": 7765,
      "Ġkraben": 7766,
      "ĠLand": 7767,
      "ĠLeuf": 7768,
      "ĠIS": 7769,
      "Ġdiezulf": 7770,
      "Ġtrain": 7771,
      "Ġtrui": 7772,
      "Ġwerkelk": 7773,
      "ĠRood": 7774,
      "Ġplekken": 7775,
      "siel": 7776,
      "drait": 7777,
      "Ġvlinders": 7778,
      "iekent": 7779,
      "ĠSton": 7780,
      "ĠStee": 7781,
      "ĠStichting": 7782,
      "ĠJannie": 7783,
      "istorie": 7784,
      "spot": 7785,
      "Ġdoef": 7786,
      "Ġcultuur": 7787,
      "Ġcenten": 7788,
      "Ġgebied": 7789,
      "Ġgeluden": 7790,
      "odounde": 7791,
      "elnis": 7792,
      "brug": 7793,
      "Ġbeluustern": 7794,
      "Ġbeston": 7795,
      "luchten": 7796,
      "Ġpauze": 7797,
      "ĠKlaain": 7798,
      "Ġgrootmoe": 7799,
      "Ġopende": 7800,
      "Ġboetenlaand": 7801,
      "Ġslimste": 7802,
      "Ġhemd": 7803,
      "Ġhemmeln": 7804,
      "Ġblieft": 7805,
      "Ġperron": 7806,
      "Ġeens": 7807,
      "ĠInd": 7808,
      "Ġvergoader": 7809,
      "Ã¨nde": 7810,
      "Veurzichteg": 7811,
      "oekje": 7812,
      "?âĢĻ,": 7813,
      "Ġontkommen": 7814,
      "Ġbekl": 7815,
      "Ġleuk": 7816,
      "Ġleunen": 7817,
      "ompelde": 7818,
      "Ġbewies": 7819,
      "ĠAndr": 7820,
      "oemd": 7821,
      "Ġrechtop": 7822,
      "Ġverstopt": 7823,
      "irrel": 7824,
      "ĠWesterwold": 7825,
      "Ġroute": 7826,
      "ĠGerm": 7827,
      "Ġfietser": 7828,
      "Ġzuikt": 7829,
      "Ġwachtte": 7830,
      "Ġwachtkoamer": 7831,
      "ĠDoedens": 7832,
      "Blief": 7833,
      "Kloas": 7834,
      "iÃ«n": 7835,
      "Ġoplaaiden": 7836,
      "Ġbelangriekste": 7837,
      "Ġveraandert": 7838,
      "Ġvergreld": 7839,
      "Slim": 7840,
      "ĠGeesje": 7841,
      "ĠOostwold": 7842,
      "Ġbalie": 7843,
      "Ġscheuveln": 7844,
      "Ġdigit": 7845,
      "Ġsukkeloa": 7846,
      "Ġvoelnis": 7847,
      "Ġgitaar": 7848,
      "Ġkwedeln": 7849,
      "Ġverbiesterd": 7850,
      "Ġloerde": 7851,
      "Gezienus": 7852,
      "Ġbuzze": 7853,
      "Ġeerabbels": 7854,
      "helpen": 7855,
      "Ġwizzeghaid": 7856,
      "Ġzunneb": 7857,
      "Ġellende": 7858,
      "Ġenergie": 7859,
      "Ġbehuifte": 7860,
      "ĠIsraÃ«l": 7861,
      "Berend": 7862,
      "Dut": 7863,
      "Eh": 7864,
      "Gaauw": 7865,
      "Ging": 7866,
      "Ged": 7867,
      "Harm": 7868,
      "Juf": 7869,
      "Mie": 7870,
      "Maar": 7871,
      "Meester": 7872,
      "Nelleke": 7873,
      "VEN": 7874,
      "Zuik": 7875,
      "Zuster": 7876,
      "abr": 7877,
      "ades": 7878,
      "dus": 7879,
      "dders": 7880,
      "duuster": 7881,
      "deln": 7882,
      "hokje": 7883,
      "maark": 7884,
      "melt": 7885,
      "plek": 7886,
      "vez": 7887,
      "vizie": 7888,
      "zooi": 7889,
      "Ġdok": 7890,
      "Ġdonder": 7891,
      "ĠdÃ¡t": 7892,
      "Ġwoensdag": 7893,
      "anna": 7894,
      "Ġmadde": 7895,
      "ĠmÃ²t": 7896,
      "Ġtand": 7897,
      "Ġhak": 7898,
      "Ġkaal": 7899,
      "Ġkev": 7900,
      "Ġach": 7901,
      "Ġgooien": 7902,
      "attje": 7903,
      "Ġlop": 7904,
      "Ġlaaiden": 7905,
      "Ġlaaid": 7906,
      "Ġloaden": 7907,
      "ijp": 7908,
      "ijde": 7909,
      "Ġopnemen": 7910,
      "dent": 7911,
      "Ġinsch": 7912,
      "Ġmitkregen": 7913,
      "Ġaankomen": 7914,
      "oeste": 7915,
      "Ġraande": 7916,
      "Ġjou": 7917,
      "Ġjuuste": 7918,
      "kende": 7919,
      "uutjes": 7920,
      "alle": 7921,
      "Ġheurst": 7922,
      "Ġschaande": 7923,
      "Ġschane": 7924,
      "ĠWazzen": 7925,
      "ĠWees": 7926,
      "ĠHa": 7927,
      "Ġvranterg": 7928,
      "Ġoetg": 7929,
      "Ġoetsch": 7930,
      "Ġoetdr": 7931,
      "Ġoetzicht": 7932,
      "ĠMich": 7933,
      "ĠMooie": 7934,
      "tjede": 7935,
      "scher": 7936,
      "Ġdoaraan": 7937,
      "zem": 7938,
      "adder": 7939,
      "Ġlezzen": 7940,
      "ĠJos": 7941,
      "Ġainks": 7942,
      "ĠAukje": 7943,
      "emmer": 7944,
      "oaker": 7945,
      "Ġslicht": 7946,
      "Ġspreek": 7947,
      "ĠZulf": 7948,
      "ĠPost": 7949,
      "ĠPoaske": 7950,
      "Ġkruu": 7951,
      "Ġkroan": 7952,
      "ĠLa": 7953,
      "ĠLang": 7954,
      "ĠLoop": 7955,
      "ĠLoater": 7956,
      "Ġprik": 7957,
      "Ġtrom": 7958,
      "ĠRTV": 7959,
      "Ġlustern": 7960,
      "Ġachtergrond": 7961,
      "Ġdoet": 7962,
      "Ġtwai": 7963,
      "Ġhoesholden": 7964,
      "oadat": 7965,
      "oeterg": 7966,
      "ĠSteem": 7967,
      "esten": 7968,
      "estiek": 7969,
      "eefde": 7970,
      "Ġsnap": 7971,
      "ĠFor": 7972,
      "Ġknoop": 7973,
      "Ġknikte": 7974,
      "inkers": 7975,
      "Ġmenuut": 7976,
      "Ġgliek": 7977,
      "Ġsmeten": 7978,
      "Ġsmirregs": 7979,
      "Ġzukke": 7980,
      "Ġswaalf": 7981,
      "Ġswiegen": 7982,
      "ĠSchre": 7983,
      "Ġzwiegen": 7984,
      "beste": 7985,
      "stroal": 7986,
      "Ġschrikt": 7987,
      "Ġschrokken": 7988,
      "Ġschraaien": 7989,
      "indelk": 7990,
      "ommes": 7991,
      "Ġjoarenlaank": 7992,
      "Ġsteevast": 7993,
      "Ġtussentied": 7994,
      "Ġdrokt": 7995,
      "Ġdrokke": 7996,
      "Ã¨rk": 7997,
      "Ġverbilderd": 7998,
      "Vanzulf": 7999,
      "nijsnijs": 8000,
      "ĠlÃ¶cht": 8001,
      "Ġrechte": 8002,
      "Groot": 8003,
      "Ġredelk": 8004,
      "Ġpadje": 8005,
      "Ġstroatje": 8006,
      "oafd": 8007,
      "Ġvouern": 8008,
      "waarkt": 8009,
      "ivus": 8010,
      "ĠDuutslaand": 8011,
      "Welke": 8012,
      "smor": 8013,
      "Ġbeschik": 8014,
      "Ġvrundschop": 8015,
      "ĠRoelof": 8016,
      "Ġzeuntje": 8017,
      "Ġorde": 8018,
      "Ġzulvern": 8019,
      "ĠBeetje": 8020,
      "Ġdoagelks": 8021,
      "Ġmoakte": 8022,
      "Ġkirrels": 8023,
      "Onze": 8024,
      "Ġoardeghaid": 8025,
      "Ġteminnent": 8026,
      "Ġachttien": 8027,
      "Ġtheoater": 8028,
      "ĠSwien": 8029,
      "ĠStric": 8030,
      "Ġoetzunder": 8031,
      "Ġnuimden": 8032,
      "Magst": 8033,
      "Ġaarbaid": 8034,
      "lopeg": 8035,
      "Ġtoeristen": 8036,
      "Ġfluustert": 8037,
      "Ġversleten": 8038,
      "Ġverkloaren": 8039,
      "nemers": 8040,
      "Ġopdracht": 8041,
      "Ġnuchter": 8042,
      "onkjew": 8043,
      "Ġpsych": 8044,
      "ĠEdwin": 8045,
      "ĠnÃ³g": 8046,
      "ĠKobus": 8047,
      "ĠDrenthe": 8048,
      "Ġenkele": 8049,
      "Ġtitel": 8050,
      "Ġonrusteg": 8051,
      "Ġbatterij": 8052,
      "Ġvervolgd": 8053,
      "Ġhikhakkerij": 8054,
      "Ġgezellege": 8055,
      "Ġschudkopte": 8056,
      "Ġaffeer": 8057,
      "Ġpizza": 8058,
      "28": 8059,
      "Amer": 8060,
      "Harry": 8061,
      "Hinnerk": 8062,
      "Kees": 8063,
      "Moust": 8064,
      "OP": 8065,
      "RD": 8066,
      "Rond": 8067,
      "Taande": 8068,
      "VV": 8069,
      "Vert": 8070,
      "Wanneer": 8071,
      "Wichter": 8072,
      "Zuk": 8073,
      "Zollen": 8074,
      "Zodounde": 8075,
      "bin": 8076,
      "baal": 8077,
      "bakken": 8078,
      "bult": 8079,
      "bleven": 8080,
      "cid": 8081,
      "douken": 8082,
      "epen": 8083,
      "ive": 8084,
      "lok": 8085,
      "loan": 8086,
      "mui": 8087,
      "nde": 8088,
      "nog": 8089,
      "rood": 8090,
      "sneden": 8091,
      "uft": 8092,
      "uvel": 8093,
      "vang": 8094,
      "was": 8095,
      "werd": 8096,
      "wordt": 8097,
      "Ġ)": 8098,
      "Ġang": 8099,
      "Ġuter": 8100,
      "Ġiets": 8101,
      "ĠÌģ": 8102,
      "Ġwier": 8103,
      "Ġwaaien": 8104,
      "Ġvies": 8105,
      "Ġmaauw": 8106,
      "Ġmais": 8107,
      "ĠmÃ³s": 8108,
      "Ġoompie": 8109,
      "Ġhaauw": 8110,
      "Ġhuur": 8111,
      "Ġhaauwen": 8112,
      "Ġziel": 8113,
      "Ġzummers": 8114,
      "stokken": 8115,
      "Ġbanden": 8116,
      "Ġbale": 8117,
      "eland": 8118,
      "euvels": 8119,
      "Ġgoe": 8120,
      "Ġgonnen": 8121,
      "ous": 8122,
      "egeld": 8123,
      "Ġsangen": 8124,
      "Ġsimpel": 8125,
      "Ġsfeer": 8126,
      "Ġster": 8127,
      "Ġstaai": 8128,
      "olkert": 8129,
      "Ġdatter": 8130,
      "Ġaankom": 8131,
      "Ġaanlegd": 8132,
      "aarb": 8133,
      "Ġring": 8134,
      "Ġromm": 8135,
      "Ġrollen": 8136,
      "Ġjaske": 8137,
      "Ġverziede": 8138,
      "Ġveurdail": 8139,
      "Ġveurvast": 8140,
      "lehem": 8141,
      "keek": 8142,
      "Ġheurent": 8143,
      "Ġscheuren": 8144,
      "Ġschuun": 8145,
      "Ġschoeven": 8146,
      "Ġbieveurbeeld": 8147,
      "ĠWiek": 8148,
      "ĠWaren": 8149,
      "Ġzover": 8150,
      "ĠGR": 8151,
      "ĠDor": 8152,
      "Ġonged": 8153,
      "aaiers": 8154,
      "Ġvrat": 8155,
      "uwe": 8156,
      "mens": 8157,
      "ĠBost": 8158,
      "ĠSj": 8159,
      "ĠSimon": 8160,
      "Ġgroazen": 8161,
      "ĠMa": 8162,
      "ĠMaai": 8163,
      "Ġoverkwam": 8164,
      "Ġdeurdat": 8165,
      "Ġdeurgeven": 8166,
      "Ġdoarin": 8167,
      "stem": 8168,
      "Ġbloes": 8169,
      "Ġblauw": 8170,
      "Ġblinde": 8171,
      "Ġfout": 8172,
      "Ġfaver": 8173,
      "ĠJoen": 8174,
      "Ġkloaver": 8175,
      "Ġdraf": 8176,
      "aalve": 8177,
      "isme": 8178,
      "ĠZetje": 8179,
      "ĠZuster": 8180,
      "ĠTou": 8181,
      "Ã²g": 8182,
      "ĠLaid": 8183,
      "ĠLauw": 8184,
      "Ġgouds": 8185,
      "umtieds": 8186,
      "ĠRen": 8187,
      "Ġplast": 8188,
      "Ġplakt": 8189,
      "Ġachterloaten": 8190,
      "ĠEdo": 8191,
      "ĠEmmen": 8192,
      "Ġhoeskes": 8193,
      "Ġstrunen": 8194,
      "bbeld": 8195,
      "Ġnijste": 8196,
      "Ġvlam": 8197,
      "Ġvlogt": 8198,
      "Ġmans": 8199,
      "ipl": 8200,
      "inkjes": 8201,
      "Ġ...âĢĻ": 8202,
      "Ġrec": 8203,
      "usten": 8204,
      "Ġsmoakt": 8205,
      "Ġsmangs": 8206,
      "oavens": 8207,
      "vecht": 8208,
      "Ġdikste": 8209,
      "Ġallozie": 8210,
      "Ġbetre": 8211,
      "Ġgedienen": 8212,
      "ĠSchaank": 8213,
      "ĠSchild": 8214,
      "Ġjonger": 8215,
      "Ġbelt": 8216,
      "ĠWilde": 8217,
      "Ġzwaaide": 8218,
      "Ġgezoes": 8219,
      "besch": 8220,
      "Ġ2020": 8221,
      "delt": 8222,
      "ĠOptaikens": 8223,
      "ubber": 8224,
      "Ġvergoan": 8225,
      "Ġverlaifd": 8226,
      "Ġlangde": 8227,
      "Ġontdekt": 8228,
      "ica": 8229,
      "Ġbewondern": 8230,
      "Ġroeten": 8231,
      "Ġverkoper": 8232,
      "ĠWatt": 8233,
      "kriek": 8234,
      "Ġverbetern": 8235,
      "Ġproatjes": 8236,
      "Ġgruinteboer": 8237,
      "Schane": 8238,
      "ĠEls": 8239,
      "Ġdenkst": 8240,
      "ivier": 8241,
      "ivvel": 8242,
      "ploatsen": 8243,
      "Ġborreltje": 8244,
      "Ġpotten": 8245,
      "Ġ2012": 8246,
      "Ġneit": 8247,
      "Ġbeschaarmen": 8248,
      "gebied": 8249,
      "ammo": 8250,
      "ammoa": 8251,
      "Ġbesloet": 8252,
      "Ġknippen": 8253,
      "Olde": 8254,
      "Krekt": 8255,
      "aby": 8256,
      "ĠGods": 8257,
      "???": 8258,
      "Ġvernuver": 8259,
      "Triene": 8260,
      "Ġ98": 8261,
      "Vraauwlu": 8262,
      "Ġroadio": 8263,
      "Ġpolit": 8264,
      "Ġwoagentje": 8265,
      "ibben": 8266,
      "ĠzÃ¶rgde": 8267,
      "Ġekkel": 8268,
      "Ġonverw": 8269,
      "Ġslechte": 8270,
      "Ġhalf": 8271,
      "Ġonbeg": 8272,
      "Ġprakkezaaier": 8273,
      "ĠÃ²fwachten": 8274,
      "gevuil": 8275,
      "ĠHillie": 8276,
      "nemer": 8277,
      "ĠPervin": 8278,
      "Ġschountjes": 8279,
      "Ġovertuugd": 8280,
      "Ġaldernoarst": 8281,
      "Ġdirecteur": 8282,
      "Ġmekander": 8283,
      "verboasd": 8284,
      "Ġtentoonstellen": 8285,
      "joarsoavend": 8286,
      "oondochter": 8287,
      "ĠJeuden": 8288,
      "Ġgooide": 8289,
      "Ġschuddeltje": 8290,
      "Ġkestail": 8291,
      "Ġcentimeter": 8292,
      "Ġvrolek": 8293,
      "Ġvlaigtuug": 8294,
      "Ġblifst": 8295,
      "Ġpelzaaier": 8296,
      "Ġvraidag": 8297,
      "Ġenthousiast": 8298,
      "ĠAustroalie": 8299,
      "ĠUropa": 8300,
      "Ġvredeg": 8301,
      "ĠSierts": 8302,
      "Ġnoflek": 8303,
      "ĠBoston": 8304,
      "09": 8305,
      "AAND": 8306,
      "Bek": 8307,
      "Best": 8308,
      "Eefkes": 8309,
      "Gaaist": 8310,
      "Gounent": 8311,
      "He": 8312,
      "Haalf": 8313,
      "Joop": 8314,
      "Jammer": 8315,
      "Ken": 8316,
      "Kar": 8317,
      "Luuster": 8318,
      "Mes": 8319,
      "MÃ¬nsen": 8320,
      "Ooster": 8321,
      "Snij": 8322,
      "Zellen": 8323,
      "abel": 8324,
      "auffeur": 8325,
      "bol": 8326,
      "bes": 8327,
      "bouken": 8328,
      "dste": 8329,
      "djes": 8330,
      "dokter": 8331,
      "fen": 8332,
      "for": 8333,
      "get": 8334,
      "jekn": 8335,
      "kjes": 8336,
      "las": 8337,
      "lanteern": 8338,
      "mmer": 8339,
      "oien": 8340,
      "pepier": 8341,
      "ro": 8342,
      "rege": 8343,
      "tik": 8344,
      "uct": 8345,
      "vor": 8346,
      "vaast": 8347,
      "wien": 8348,
      "zies": 8349,
      "Ġdeg": 8350,
      "Ġdoal": 8351,
      "Ġnoak": 8352,
      "Ġwichie": 8353,
      "Ġvoa": 8354,
      "Ġvong": 8355,
      "Ġmak": 8356,
      "Ġmoord": 8357,
      "Ġtrie": 8358,
      "Ġtuut": 8359,
      "Ġtax": 8360,
      "Ġheld": 8361,
      "Ġzuden": 8362,
      "Ġkel": 8363,
      "Ġkem": 8364,
      "Ġkeun": 8365,
      "intje": 8366,
      "inees": 8367,
      "Ġboa": 8368,
      "Ġboes": 8369,
      "Ġbeken": 8370,
      "elderij": 8371,
      "eune": 8372,
      "Ġaachte": 8373,
      "Ġgoden": 8374,
      "atoe": 8375,
      "Ġleb": 8376,
      "Ġlappen": 8377,
      "aasten": 8378,
      "itje": 8379,
      "itoren": 8380,
      "Ġsk": 8381,
      "Ġsoc": 8382,
      "Ġsym": 8383,
      "ore": 8384,
      "ĠvanmÃ¶rn": 8385,
      "iens": 8386,
      "Ġstuver": 8387,
      "Ġsteurt": 8388,
      "Ġins": 8389,
      "Ġinstr": 8390,
      "Ġindrok": 8391,
      "Ġperen": 8392,
      "Ġpedde": 8393,
      "Ġaanm": 8394,
      "Ġaanwiezen": 8395,
      "Ġverander": 8396,
      "Ġtebak": 8397,
      "opkes": 8398,
      "leste": 8399,
      "arten": 8400,
      "Ġscheur": 8401,
      "Ġbiester": 8402,
      "ĠWA": 8403,
      "ĠWadden": 8404,
      "Ġzogenoam": 8405,
      "ĠGrieze": 8406,
      "ĠHui": 8407,
      "Ġasdat": 8408,
      "ĠDa": 8409,
      "ĠDÃ¬n": 8410,
      "Ġonzeker": 8411,
      "agd": 8412,
      "Ã¶d": 8413,
      "tenoar": 8414,
      "Ġges": 8415,
      "Ġoetgoan": 8416,
      "ĠBest": 8417,
      "ĠSh": 8418,
      "ĠSof": 8419,
      "ĠSunt": 8420,
      "ĠMon": 8421,
      "ĠMens": 8422,
      "reekst": 8423,
      "ĠKaren": 8424,
      "ĠKoamer": 8425,
      "ĠKerel": 8426,
      "Ġweet": 8427,
      "gesch": 8428,
      "terij": 8429,
      "adders": 8430,
      "Ġblom": 8431,
      "Ġblok": 8432,
      "Ġbloaden": 8433,
      "Ġblikken": 8434,
      "Ġkomple": 8435,
      "Ġfan": 8436,
      "ĠJap": 8437,
      "ĠAk": 8438,
      "ĠAch": 8439,
      "Ġkleren": 8440,
      "oesde": 8441,
      "Ġbozz": 8442,
      "ĠNAM": 8443,
      "Ġslok": 8444,
      "Ġsling": 8445,
      "ukten": 8446,
      "andus": 8447,
      "Ġkroaken": 8448,
      "Ġkraante": 8449,
      "Ġwoardeur": 8450,
      "ĠLaange": 8451,
      "oagde": 8452,
      "Ġevenwicht": 8453,
      "Ġprof": 8454,
      "Ġprakt": 8455,
      "Ġtrad": 8456,
      "urger": 8457,
      "oonde": 8458,
      "Ġwolst": 8459,
      "ĠÃ²fst": 8460,
      "ĠEet": 8461,
      "Ġhoeskoamer": 8462,
      "Ġstrikt": 8463,
      "Ġnijjoar": 8464,
      "aankt": 8465,
      "drinken": 8466,
      "ĠvlÃ¶t": 8467,
      "Ġonderoet": 8468,
      "Ġonderwaarp": 8469,
      "Ġ28": 8470,
      "Ġsneller": 8471,
      "Ġkneep": 8472,
      "Ġcar": 8473,
      "Ġcursus": 8474,
      "Ġcaravan": 8475,
      "Ġvertoald": 8476,
      "Ġgeboar": 8477,
      "Ġgebaauwen": 8478,
      "Ġdienent": 8479,
      "Ġsmaal": 8480,
      "Ġsmis": 8481,
      "entwinteg": 8482,
      "blaauwe": 8483,
      "bericht": 8484,
      "ĠCar": 8485,
      "Ġgenoten": 8486,
      "Ġgenoeg": 8487,
      "Ġgenezen": 8488,
      "Ġbedrieven": 8489,
      "irk": 8490,
      "stroalen": 8491,
      "Ã¨lk": 8492,
      "pelt": 8493,
      "?',": 8494,
      "Ġverdaild": 8495,
      "inds": 8496,
      "Ġbezit": 8497,
      "Ġbewoard": 8498,
      "ĠHenkie": 8499,
      "ova": 8500,
      "ovve": 8501,
      "ovvert": 8502,
      "Ġkende": 8503,
      "upt": 8504,
      "Ġallaine": 8505,
      "ammeroad": 8506,
      "Ġkeus": 8507,
      "Ġvrougere": 8508,
      "Ġriem": 8509,
      "Ġverwondern": 8510,
      "Ã³l": 8511,
      "Ã³n": 8512,
      "oept": 8513,
      "ĠElke": 8514,
      "ĠEltjo": 8515,
      "Gainain": 8516,
      "watch": 8517,
      "ĠkÃ¶rf": 8518,
      "gangers": 8519,
      "ploatjes": 8520,
      "ĠHolland": 8521,
      "ress": 8522,
      "residen": 8523,
      "Ġbelangrieke": 8524,
      "Ġpersoneel": 8525,
      "Ġvertraauw": 8526,
      "gebit": 8527,
      "waarker": 8528,
      "Ġolderwetse": 8529,
      "Ġstuurde": 8530,
      "Ġketoor": 8531,
      "vinden": 8532,
      "Ġpoletiek": 8533,
      "Ġgeweldege": 8534,
      "Volgende": 8535,
      "Ġbedoulde": 8536,
      "braifke": 8537,
      "Ġautob": 8538,
      "Proat": 8539,
      "ĠKoning": 8540,
      "Ġnuigde": 8541,
      "handel": 8542,
      "gewoon": 8543,
      "Ġkontrainen": 8544,
      "Ġinteress": 8545,
      "Ġdommit": 8546,
      "Ġvijand": 8547,
      "Ġgloepens": 8548,
      "ĠdÃ¶rpen": 8549,
      "unstgaang": 8550,
      "Ġvenster": 8551,
      "Ġtwijduustern": 8552,
      "Ġbibel": 8553,
      "Ġaldernoast": 8554,
      "ĠGrÃ¶nneger": 8555,
      "Ġverzoameln": 8556,
      "Ġkurz": 8557,
      "Ġtegem": 8558,
      "Ġcontact": 8559,
      "Ġpublic": 8560,
      "nkander": 8561,
      "Ġteunbaanke": 8562,
      "Ġproblemen": 8563,
      "Ġzachtjes": 8564,
      "ĠItaljoans": 8565,
      "ĠJongedijk": 8566,
      "arregat": 8567,
      "Ġeuliekouken": 8568,
      "ĠSproakwotter": 8569,
      "Ġeerbaaien": 8570,
      "ĠUtrecht": 8571,
      "Ġfemil": 8572,
      "ĠSchreiber": 8573,
      "Ġbeschikboar": 8574,
      "ĠLauwers": 8575,
      "Ġkompleet": 8576,
      "?âĢľ": 8577,
      "Help": 8578,
      "KK": 8579,
      "Kunny": 8580,
      "Laif": 8581,
      "Mot": 8582,
      "Nij": 8583,
      "OM": 8584,
      "Rieks": 8585,
      "Sie": 8586,
      "Tw": 8587,
      "Tube": 8588,
      "Vos": 8589,
      "Wij": 8590,
      "bu": 8591,
      "binnen": 8592,
      "deu": 8593,
      "fte": 8594,
      "koart": 8595,
      "moudeg": 8596,
      "ng": 8597,
      "pas": 8598,
      "veghaid": 8599,
      "waal": 8600,
      "wis": 8601,
      "wachten": 8602,
      "zang": 8603,
      "zakken": 8604,
      "Ġ!âĢĿ": 8605,
      "enken": 8606,
      "Ġdoaden": 8607,
      "Ġdorp": 8608,
      "aise": 8609,
      "aiwen": 8610,
      "Ġwaik": 8611,
      "Ġvles": 8612,
      "Ġmi": 8613,
      "Ġmaauwen": 8614,
      "Ġtikken": 8615,
      "Ġtoneel": 8616,
      "Ġtoavels": 8617,
      "Ġoons": 8618,
      "Ġhul": 8619,
      "Ġkoet": 8620,
      "Ġkander": 8621,
      "stieden": 8622,
      "inte": 8623,
      "Ġboe": 8624,
      "Ġbilj": 8625,
      "euden": 8626,
      "eumen": 8627,
      "Ġgoat": 8628,
      "ater": 8629,
      "Ġlaamp": 8630,
      "Ġsos": 8631,
      "Ġdestieds": 8632,
      "Ġopper": 8633,
      "Ġopvol": 8634,
      "Ġopzet": 8635,
      "Ġopvalen": 8636,
      "Ġoptrokken": 8637,
      "derg": 8638,
      "dertied": 8639,
      "ainste": 8640,
      "Ġstoal": 8641,
      "Ġstim": 8642,
      "Ġsteeg": 8643,
      "Ġinv": 8644,
      "Ġinde": 8645,
      "Ġputen": 8646,
      "oke": 8647,
      "Ġaangeven": 8648,
      "Ġaankieken": 8649,
      "Ġrun": 8650,
      "Ġringen": 8651,
      "Ġroken": 8652,
      "Ġjen": 8653,
      "Ġjoek": 8654,
      "Ġdermit": 8655,
      "Ġverbeelden": 8656,
      "Ġverantwoord": 8657,
      "ott": 8658,
      "Ġveurkaant": 8659,
      "undeg": 8660,
      "kest": 8661,
      "arre": 8662,
      "iko": 8663,
      "Ġschit": 8664,
      "Ġschop": 8665,
      "Ġschoulen": 8666,
      "ĠWal": 8667,
      "Ġomtou": 8668,
      "ĠGre": 8669,
      "ĠGoie": 8670,
      "ĠDai": 8671,
      "ĠDocht": 8672,
      "amilie": 8673,
      "Ġonzicht": 8674,
      "Ġongev": 8675,
      "aaider": 8676,
      "Ġwelk": 8677,
      "Ġalens": 8678,
      "Ã¶bbeld": 8679,
      "Ġbesef": 8680,
      "uimd": 8681,
      "ĠBL": 8682,
      "ĠBo": 8683,
      "ĠBeer": 8684,
      "ĠBouw": 8685,
      "ĠBoeten": 8686,
      "Ġwiest": 8687,
      "ĠKeunen": 8688,
      "ĠKeuneg": 8689,
      "Ġdeurl": 8690,
      "zesteg": 8691,
      "ĠVen": 8692,
      "ĠVaalt": 8693,
      "ĠVAN": 8694,
      "eldouk": 8695,
      "ĠAar": 8696,
      "Ġmode": 8697,
      "Ġklinken": 8698,
      "Ġkloeten": 8699,
      "Ġklopte": 8700,
      "Ġdrumpel": 8701,
      "ĠOosten": 8702,
      "Ġslichte": 8703,
      "Ġspouk": 8704,
      "Ġspreekt": 8705,
      "ĠTel": 8706,
      "ĠTineke": 8707,
      "ĠPoe": 8708,
      "ĠPool": 8709,
      "andeln": 8710,
      "Ã¨s": 8711,
      "Ġwoaraargens": 8712,
      "ĠLop": 8713,
      "ĠLammert": 8714,
      "ummel": 8715,
      "Ġprom": 8716,
      "Ġpraai": 8717,
      "uutsie": 8718,
      "Ã¬nnen": 8719,
      "ĠRÃ¶tter": 8720,
      "Ġachterkaant": 8721,
      "Ġdoel": 8722,
      "Ġdoek": 8723,
      "dracht": 8724,
      "Ġvlek": 8725,
      "ĠJantje": 8726,
      "iefke": 8727,
      "Ġonderboksem": 8728,
      "slacht": 8729,
      "spunt": 8730,
      "Ġleventeg": 8731,
      "Ġdoeven": 8732,
      "ĠFlip": 8733,
      "Ġknij": 8734,
      "Ġcentrum": 8735,
      "Ġgebed": 8736,
      "aainen": 8737,
      "Ġsmeer": 8738,
      "Ġsmale": 8739,
      "geln": 8740,
      "bloazen": 8741,
      "Ġdaiper": 8742,
      "grunneg": 8743,
      "zieden": 8744,
      "Ġbedie": 8745,
      "Ġgevaal": 8746,
      "bevens": 8747,
      "Ġnoamvalen": 8748,
      "ommels": 8749,
      "Ġweeromme": 8750,
      "Ġbekind": 8751,
      "Ġverkn": 8752,
      "kracht": 8753,
      "Ġvinst": 8754,
      "ĠBertha": 8755,
      "ĠAnton": 8756,
      "male": 8757,
      "Ġkenoal": 8758,
      "aachte": 8759,
      "Ġallaint": 8760,
      "Ġkeunen": 8761,
      "Ġvroagend": 8762,
      "Ġanere": 8763,
      "Eldert": 8764,
      "Schier": 8765,
      "ĠVriesemoa": 8766,
      "Gainaine": 8767,
      "Ġraaizeg": 8768,
      "zegt": 8769,
      "Ġdokters": 8770,
      "Ġgrotere": 8771,
      "ĠJosef": 8772,
      "Ġaailand": 8773,
      "ĠKinst": 8774,
      "Ġpebaaier": 8775,
      "Ġplefon": 8776,
      "Ġbreng": 8777,
      "gedichten": 8778,
      "Ġwinterdag": 8779,
      "Ġgehail": 8780,
      "Ġzulven": 8781,
      "shoaven": 8782,
      "ĠBeste": 8783,
      "ĠJohn": 8784,
      "iÃ«l": 8785,
      "Ġstoetjes": 8786,
      "Ġrugge": 8787,
      "ĠPaul": 8788,
      "Ã¡r": 8789,
      "Ġkunstwaark": 8790,
      "Ġadverten": 8791,
      "delsom": 8792,
      "Ġklokke": 8793,
      "persoon": 8794,
      "Ġpervinsie": 8795,
      "demie": 8796,
      "Ġstoatsion": 8797,
      "Mensen": 8798,
      "viefteg": 8799,
      "worst": 8800,
      "moods": 8801,
      "Ġgevolg": 8802,
      "Ġvaaileghaid": 8803,
      "ĠOosterweg": 8804,
      "Ġkarst": 8805,
      "Ġleerlingen": 8806,
      "hemd": 8807,
      "gevoar": 8808,
      "Ġscheuvels": 8809,
      "Ġlukte": 8810,
      "Ġvaals": 8811,
      "ĠDelfsiel": 8812,
      "ĠOafko": 8813,
      "speuler": 8814,
      "Ġrichting": 8815,
      "immestiek": 8816,
      "Ġsmeren": 8817,
      "Ġontwikkeln": 8818,
      "Ġkurzes": 8819,
      "Ġstiekom": 8820,
      "Ġscheppen": 8821,
      "Ġsupermaart": 8822,
      "Ġcorona": 8823,
      "Ġdaansen": 8824,
      "Ġvolgde": 8825,
      "ĠWereldoorlog": 8826,
      "Ġscoot": 8827,
      "Ġaanbelangt": 8828,
      "ĠStainhoes": 8829,
      "Ġtelevisie": 8830,
      "Ġkunstenoar": 8831,
      "effrey": 8832,
      "Ġgolven": 8833,
      "ĠScholte": 8834,
      "ĠElisa": 8835,
      "Ġsteveltjes": 8836,
      "Ġpertij": 8837,
      "ĠDurandus": 8838,
      "emainte": 8839,
      "ĠDijkstra": 8840,
      "Langzoam": 8841,
      "Ġresepten": 8842,
      "ĠlÃ¶sloaten": 8843,
      "ĠYouTube": 8844,
      "oekering": 8845,
      "iplom": 8846,
      "Ġbetreft": 8847,
      "Ġongeveer": 8848,
      "!).": 8849,
      "95": 8850,
      "?!": 8851,
      "Geld": 8852,
      "Goie": 8853,
      "Hond": 8854,
      "Kovvie": 8855,
      "Noadat": 8856,
      "Ond": 8857,
      "PN": 8858,
      "Sun": 8859,
      "Sunt": 8860,
      "Soms": 8861,
      "Tja": 8862,
      "Wordt": 8863,
      "Zat": 8864,
      "Zoas": 8865,
      "ZIE": 8866,
      "balen": 8867,
      "bÃ¨r": 8868,
      "fie": 8869,
      "guster": 8870,
      "gkool": 8871,
      "hr": 8872,
      "hoar": 8873,
      "hest": 8874,
      "haaid": 8875,
      "hlehem": 8876,
      "jekt": 8877,
      "kle": 8878,
      "koppen": 8879,
      "lers": 8880,
      "lap": 8881,
      "ps": 8882,
      "rr": 8883,
      "rien": 8884,
      "sleden": 8885,
      "twoord": 8886,
      "vd": 8887,
      "vÃ¶r": 8888,
      "wert": 8889,
      "wester": 8890,
      "xe": 8891,
      "yst": 8892,
      "zern": 8893,
      "zitten": 8894,
      "Ãĸ": 8895,
      "Ġdam": 8896,
      "Ġdeug": 8897,
      "Ġnoal": 8898,
      "Ġwiek": 8899,
      "Ġvegen": 8900,
      "Ġveel": 8901,
      "Ġvedde": 8902,
      "Ġmal": 8903,
      "Ġtank": 8904,
      "Ġhaai": 8905,
      "Ġhool": 8906,
      "Ġhoazen": 8907,
      "Ġhuzen": 8908,
      "Ġzing": 8909,
      "Ġkad": 8910,
      "Ġkuzzen": 8911,
      "inc": 8912,
      "euwen": 8913,
      "Ġact": 8914,
      "Ġgaange": 8915,
      "atsen": 8916,
      "Ġliep": 8917,
      "egde": 8918,
      "Ġsal": 8919,
      "Ġsint": 8920,
      "Ġserv": 8921,
      "omd": 8922,
      "Ġstekker": 8923,
      "Ġstoven": 8924,
      "Ġstaaist": 8925,
      "Ġstoede": 8926,
      "Ġinhold": 8927,
      "Ġindruk": 8928,
      "Ġpist": 8929,
      "Ġpens": 8930,
      "Ġpioan": 8931,
      "ĠpoÃ«zie": 8932,
      "Ġmitwaarken": 8933,
      "Ġaanlopen": 8934,
      "Ġaanlaaiden": 8935,
      "aarke": 8936,
      "Ġras": 8937,
      "Ġrokt": 8938,
      "Ġroll": 8939,
      "Ġjij": 8940,
      "Ġjeuz": 8941,
      "Ġeek": 8942,
      "Ġeig": 8943,
      "Ġverslag": 8944,
      "eesten": 8945,
      "Ġveurst": 8946,
      "Ġveurwoar": 8947,
      "une": 8948,
      "Ġschaive": 8949,
      "Ġschoondochter": 8950,
      "Ġienst": 8951,
      "ĠWacht": 8952,
      "ĠWoord": 8953,
      "ĠGas": 8954,
      "ĠDik": 8955,
      "aaig": 8956,
      "Ġvrucht": 8957,
      "uizen": 8958,
      "Ġoetw": 8959,
      "Ġoetend": 8960,
      "ĠBouken": 8961,
      "ĠBegr": 8962,
      "Ġgroan": 8963,
      "Ġgracht": 8964,
      "Ġgrepen": 8965,
      "ĠMot": 8966,
      "ĠMoak": 8967,
      "ĠMeziek": 8968,
      "ĠMuseum": 8969,
      "Ġwieven": 8970,
      "Ġoverleven": 8971,
      "schoon": 8972,
      "ĠKinder": 8973,
      "ĠKetr": 8974,
      "ĠKootje": 8975,
      "Ġaalgemain": 8976,
      "Ġblieken": 8977,
      "Ġbloader": 8978,
      "Ġfiene": 8979,
      "ĠJel": 8980,
      "Ġdouken": 8981,
      "Ġdouche": 8982,
      "ĠAai": 8983,
      "...!âĢĿ": 8984,
      "Ġkwaam": 8985,
      "Ġklimmen": 8986,
      "Ġboek": 8987,
      "Ġboske": 8988,
      "ĠOs": 8989,
      "Ġslachten": 8990,
      "Ġslachter": 8991,
      "ietied": 8992,
      "Ġbrannen": 8993,
      "Ġspinnen": 8994,
      "ĠZÃ¨l": 8995,
      "ĠZijl": 8996,
      "ĠTaande": 8997,
      "ĠPat": 8998,
      "Ġaiwen": 8999,
      "Ġkruden": 9000,
      "Ã²pt": 9001,
      "Ġwoarachteg": 9002,
      "ĠLit": 9003,
      "ĠLaan": 9004,
      "ĠLim": 9005,
      "ĠLigt": 9006,
      "nege": 9007,
      "umer": 9008,
      "kerd": 9009,
      "ĠRika": 9010,
      "ĠRikkert": 9011,
      "Ġluden": 9012,
      "Ġploagen": 9013,
      "ĠachterÃ²f": 9014,
      "ĠÃ²floop": 9015,
      "ĠEs": 9016,
      "Ġvollen": 9017,
      "Ġstromen": 9018,
      "eslie": 9019,
      "uild": 9020,
      "ĠGrunnegstoalege": 9021,
      "Ġkookt": 9022,
      "Ġmossen": 9023,
      "ĠStoa": 9024,
      "ĠStoaten": 9025,
      "ĠStichten": 9026,
      "Ġondertied": 9027,
      "Ġkommende": 9028,
      "Ġdoezenden": 9029,
      "Ġkerken": 9030,
      "ippers": 9031,
      "Ġuutv": 9032,
      "Ġsneu": 9033,
      "Ġsnoavel": 9034,
      "ĠFeen": 9035,
      "Ġknije": 9036,
      "Ġmini": 9037,
      "Ġminister": 9038,
      "Ġgelieke": 9039,
      "ofwat": 9040,
      "Ġsmoken": 9041,
      "blog": 9042,
      "blaauw": 9043,
      "ĠCl": 9044,
      "ĠCan": 9045,
      "bril": 9046,
      "braand": 9047,
      "vroren": 9048,
      "Ġbedoaren": 9049,
      "ĠKlooster": 9050,
      "Ã¨lde": 9051,
      "Ġboetendes": 9052,
      "Ġneudege": 9053,
      "Ġverdold": 9054,
      "ĠVerb": 9055,
      "Ġlopend": 9056,
      "klaid": 9057,
      "ĠdÃ¶rpkes": 9058,
      "Ġleufde": 9059,
      "ompsl": 9060,
      "Ġkiekkaast": 9061,
      "Ġbewoaren": 9062,
      "Ġlagt": 9063,
      "Ġmagst": 9064,
      "Ġdrokker": 9065,
      "kring": 9066,
      "Stad": 9067,
      "Ġwoonderij": 9068,
      "ĠVrais": 9069,
      "Ġliekoet": 9070,
      "ĠSlamper": 9071,
      "Ġwoordenbouk": 9072,
      "olleb": 9073,
      "Ġzekere": 9074,
      "Ġvastholden": 9075,
      "ĠGrunnens": 9076,
      "Gron": 9077,
      "Schiere": 9078,
      "Ġgekhaid": 9079,
      "ookjes": 9080,
      "ĠAlie": 9081,
      "ĠWesterwolle": 9082,
      "Ġwiesvinger": 9083,
      "ĠBlaauwe": 9084,
      "Ġboomke": 9085,
      "Ġoavends": 9086,
      "Ġleefden": 9087,
      "smoa": 9088,
      "appeg": 9089,
      "Ġbeschaarm": 9090,
      "Ġverzoepen": 9091,
      "ĠProatje": 9092,
      "ĠRoelf": 9093,
      "Ġolderwets": 9094,
      "Ġvervoaren": 9095,
      "Ġbeslizzen": 9096,
      "avvel": 9097,
      "tto": 9098,
      "ĠMidden": 9099,
      "Ġknipke": 9100,
      "Ġknipoog": 9101,
      "apperoat": 9102,
      "Ġbuske": 9103,
      "ĠÃ¬nne": 9104,
      "Klaain": 9105,
      "Ġ90": 9106,
      "Ġfilos": 9107,
      "koper": 9108,
      "Netuurlek": 9109,
      "Overaal": 9110,
      "Ġviendt": 9111,
      "fraauw": 9112,
      "Pabbe": 9113,
      "Ġgevoarleke": 9114,
      "ĠtekÃ¶rt": 9115,
      "Ġbraandt": 9116,
      "ĠrÃ¶tten": 9117,
      "Ġblikje": 9118,
      "ĠÃŃ": 9119,
      "Ġongeleuf": 9120,
      "ĠmÃ¬nsken": 9121,
      "ĠStroom": 9122,
      "Ġdisk": 9123,
      "hebbers": 9124,
      "Ġverdaint": 9125,
      "actie": 9126,
      "Ġjeuden": 9127,
      "Ġmelken": 9128,
      "Ġbalkon": 9129,
      "Ġuns": 9130,
      "haals": 9131,
      "ummege": 9132,
      "Ġplakje": 9133,
      "ĠVraisland": 9134,
      "Ġonnuur": 9135,
      "Ġstroekerij": 9136,
      "Ġgloepend": 9137,
      "Ġplestiek": 9138,
      "Gerhard": 9139,
      "Ġmiljoun": 9140,
      "ĠBethlehem": 9141,
      "Ġkameroad": 9142,
      "Ġkameroaden": 9143,
      "ytze": 9144,
      "Ġsingle": 9145,
      "geverij": 9146,
      "Ġgeneroatsie": 9147,
      "George": 9148,
      "Ġzoadel": 9149,
      "Ġbeune": 9150,
      "Ġverplicht": 9151,
      "Ġaigelk": 9152,
      "Ġcontrol": 9153,
      "Ġaanwezeg": 9154,
      "Ġparkeerploats": 9155,
      "Ġ059": 9156,
      "ĠSchriefwedstried": 9157,
      "ĠGepke": 9158,
      "ĠzÃ¶chde": 9159,
      "Ġaalsgeval": 9160,
      "Ġontdekken": 9161,
      "Ġfikse": 9162,
      "Ġwoningbaauw": 9163,
      "ĠVeenkolon": 9164,
      "Ġsituoatsie": 9165,
      "Ġzaachter": 9166,
      "Astoe": 9167,
      "Dik": 9168,
      "Dag": 9169,
      "EER": 9170,
      "Ha": 9171,
      "II": 9172,
      "IL": 9173,
      "Jil": 9174,
      "Kerk": 9175,
      "Kiender": 9176,
      "MÃ¶rn": 9177,
      "NEG": 9178,
      "Re": 9179,
      "Sikkom": 9180,
      "Sorry": 9181,
      "TE": 9182,
      "Willen": 9183,
      "ement": 9184,
      "foto": 9185,
      "hom": 9186,
      "hier": 9187,
      "ias": 9188,
      "joal": 9189,
      "keerd": 9190,
      "ll": 9191,
      "locht": 9192,
      "moar": 9193,
      "nacht": 9194,
      "nivvel": 9195,
      "pa": 9196,
      "pekt": 9197,
      "rikoa": 9198,
      "snij": 9199,
      "waiten": 9200,
      "zoamer": 9201,
      "ÃĴ": 9202,
      "Ġdoof": 9203,
      "Ġdeugd": 9204,
      "Ġnul": 9205,
      "Ġwin": 9206,
      "Ġwekker": 9207,
      "Ġvinnen": 9208,
      "iest": 9209,
      "Ġmeed": 9210,
      "Ġtaanden": 9211,
      "Ġtoav": 9212,
      "Ġoost": 9213,
      "Ġhit": 9214,
      "Ġhoamer": 9215,
      "Ġhaaide": 9216,
      "Ġhuis": 9217,
      "Ġhall": 9218,
      "Ġhokje": 9219,
      "Ġzere": 9220,
      "Ġkust": 9221,
      "Ġkuken": 9222,
      "stoel": 9223,
      "strieden": 9224,
      "Ġbom": 9225,
      "Ġbent": 9226,
      "Ġbakt": 9227,
      "Ġbonk": 9228,
      "Ġbeudel": 9229,
      "eupel": 9230,
      "Ġacc": 9231,
      "Ġgeur": 9232,
      "Ġgooid": 9233,
      "atje": 9234,
      "Ġluud": 9235,
      "Ġloane": 9236,
      "Ġsou": 9237,
      "Ġsommege": 9238,
      "ijne": 9239,
      "Ġdem": 9240,
      "omst": 9241,
      "omme": 9242,
      "omera": 9243,
      "eers": 9244,
      "Ġoper": 9245,
      "Ġopkl": 9246,
      "Ġopkn": 9247,
      "derv": 9248,
      "ainer": 9249,
      "Ġpeerde": 9250,
      "Ġpillen": 9251,
      "Ġpoed": 9252,
      "Ġaandr": 9253,
      "aarst": 9254,
      "aarven": 9255,
      "Ġramp": 9256,
      "Ġramm": 9257,
      "Ġruipen": 9258,
      "kenoal": 9259,
      "Ġvereg": 9260,
      "Ġveurb": 9261,
      "Ġveurber": 9262,
      "Ġveurdroagen": 9263,
      "Ġtechn": 9264,
      "oppe": 9265,
      "Ġdijzulfde": 9266,
      "arden": 9267,
      "oaties": 9268,
      "Ġschoem": 9269,
      "Ġbiev": 9270,
      "Ġnogaal": 9271,
      "ĠDu": 9272,
      "Ġonweer": 9273,
      "Ġongem": 9274,
      "Ġvroeg": 9275,
      "Ã¶ster": 9276,
      "Ġgef": 9277,
      "Ġoff": 9278,
      "Ġoethoalen": 9279,
      "ooft": 9280,
      "ĠBerg": 9281,
      "ĠBarbara": 9282,
      "Ġgroutnis": 9283,
      "ĠMij": 9284,
      "ĠMastland": 9285,
      "ierd": 9286,
      "Ġwieken": 9287,
      "schreven": 9288,
      "ĠKoop": 9289,
      "Ġaalsmor": 9290,
      "Ġdeurbr": 9291,
      "ada": 9292,
      "Ġledders": 9293,
      "Ġfert": 9294,
      "Ġflu": 9295,
      "Ġfouten": 9296,
      "ĠAge": 9297,
      "Ġmodel": 9298,
      "Ġkwaliteit": 9299,
      "Ġklaauwen": 9300,
      "Ġdrift": 9301,
      "ĠNS": 9302,
      "ĠNooit": 9303,
      "Ġmeerdere": 9304,
      "ĠOpen": 9305,
      "ieteg": 9306,
      "Ġbrog": 9307,
      "Ġbraanden": 9308,
      "Ġbrullen": 9309,
      "ĠToun": 9310,
      "ĠTammo": 9311,
      "sens": 9312,
      "Ġwoarmit": 9313,
      "uttern": 9314,
      "neweer": 9315,
      "Ġprikken": 9316,
      "ight": 9317,
      "Ġmouken": 9318,
      "ootsie": 9319,
      "ĠRud": 9320,
      "izan": 9321,
      "edel": 9322,
      "Ġvotlopen": 9323,
      "Ġplas": 9324,
      "Ġplaai": 9325,
      "ĠÃ²flever": 9326,
      "Ġzolaank": 9327,
      "Ġvlakke": 9328,
      "Ġkoff": 9329,
      "ĠJansen": 9330,
      "Ġkerwaai": 9331,
      "Ġknovvel": 9332,
      "Ġhold": 9333,
      "ĠEnne": 9334,
      "Ġgladde": 9335,
      "Ġglimmen": 9336,
      "Ġallint": 9337,
      "Ġbetoal": 9338,
      "bloumen": 9339,
      "Ġgedail": 9340,
      "ĠSchipper": 9341,
      "ĠCD": 9342,
      "ĠCultuur": 9343,
      "stens": 9344,
[...]
